{
    "<pad>": 0,
    "<unk>": 1,
    "<s>": 2,
    "</s>": 3,
    ",": 4,
    ".": 5,
    "s": 6,
    "▁": 7,
    "▁the": 8,
    "n": 9,
    "▁of": 10,
    "▁in": 11,
    "▁(": 12,
    "a": 13,
    "▁to": 14,
    "t": 15,
    "▁ja": 16,
    "e": 17,
    "i": 18,
    ")": 19,
    "en": 20,
    "▁on": 21,
    "-": 22,
    "▁and": 23,
    "▁die": 24,
    "▁der": 25,
    "▁ir": 26,
    "▁-": 27,
    ":": 28,
    "▁a": 29,
    "u": 30,
    "o": 31,
    "?": 32,
    "d": 33,
    "▁und": 34,
    "▁un": 35,
    "▁for": 36,
    "m": 37,
    "▁be": 38,
    "/": 39,
    "as": 40,
    "▁ar": 41,
    ";": 42,
    "▁is": 43,
    "▁that": 44,
    "te": 45,
    "▁I": 46,
    "ing": 47,
    "le": 48,
    "in": 49,
    "!": 50,
    "▁1": 51,
    "l": 52,
    "ed": 53,
    "st": 54,
    "▁ei": 55,
    "▁в": 56,
    "er": 57,
    "us": 58,
    "es": 59,
    "▁von": 60,
    "▁den": 61,
    "▁zu": 62,
    "▁no": 63,
    "'": 64,
    "b": 65,
    "▁an": 66,
    "▁ka": 67,
    "▁es": 68,
    "▁des": 69,
    "▁für": 70,
    "▁with": 71,
    "▁2": 72,
    "▁и": 73,
    "▁as": 74,
    "▁ne": 75,
    "ga": 76,
    "ta": 77,
    "ų": 78,
    "_": 79,
    "ti": 80,
    "▁_": 81,
    "▁kas": 82,
    "os": 83,
    "BAR": 84,
    "▁par": 85,
    "▁su": 86,
    "▁et": 87,
    "▁ist": 88,
    "is": 89,
    "r": 90,
    "▁this": 91,
    "▁at": 92,
    "▁by": 93,
    "▁auf": 94,
    "▁mit": 95,
    "▁tai": 96,
    "▁it": 97,
    "▁or": 98,
    "ma": 99,
    "id": 100,
    "▁das": 101,
    "а": 102,
    "▁kad": 103,
    "▁3": 104,
    "ä": 105,
    "▁you": 106,
    "da": 107,
    "▁į": 108,
    "▁vai": 109,
    "ly": 110,
    "▁are": 111,
    "de": 112,
    "▁im": 113,
    "ā": 114,
    "an": 115,
    "▁nicht": 116,
    "е": 117,
    "▁not": 118,
    "ks": 119,
    "▁не": 120,
    "▁uz": 121,
    "▁\"": 122,
    "▁с": 123,
    "ai": 124,
    "▁на": 125,
    "...": 126,
    "ą": 127,
    "▁по": 128,
    "▁werden": 129,
    "▁iš": 130,
    "y": 131,
    "▁või": 132,
    "▁eine": 133,
    ").": 134,
    "ne": 135,
    "ja": 136,
    "▁–": 137,
    "▁Nr": 138,
    "sta": 139,
    "al": 140,
    "▁was": 141,
    "▁oder": 142,
    "g": 143,
    "▁dass": 144,
    "▁so": 145,
    "▁L": 146,
    "▁bei": 147,
    "▁5": 148,
    "▁4": 149,
    "▁dem": 150,
    "▁että": 151,
    "k": 152,
    "▁we": 153,
    "▁ein": 154,
    "▁have": 155,
    "),": 156,
    "me": 157,
    "▁m": 158,
    "▁s": 159,
    "и": 160,
    "▁kui": 161,
    "▁ko": 162,
    "▁from": 163,
    "▁S": 164,
    "▁d": 165,
    "▁b": 166,
    "▁pa": 167,
    "▁C": 168,
    "у": 169,
    "ten": 170,
    "▁lai": 171,
    "h": 172,
    "re": 173,
    "▁see": 174,
    "▁sa": 175,
    "▁yra": 176,
    "▁shall": 177,
    "▁mis": 178,
    "c": 179,
    "na": 180,
    "▁which": 181,
    "▁se": 182,
    "▁что": 183,
    "▁re": 184,
    "em": 185,
    "▁mg": 186,
    "se": 187,
    "ke": 188,
    "▁ole": 189,
    "to": 190,
    "▁me": 191,
    "▁sind": 192,
    "▁all": 193,
    "▁A": 194,
    "▁kā": 195,
    "▁per": 196,
    "▁jo": 197,
    "ssa": 198,
    "▁Sie": 199,
    "▁über": 200,
    "▁zur": 201,
    "ko": 202,
    "tu": 203,
    "м": 204,
    "▁6": 205,
    "ge": 206,
    "▁ning": 207,
    "lle": 208,
    "▁Euroopa": 209,
    "▁wird": 210,
    "ы": 211,
    "▁will": 212,
    "si": 213,
    "▁wir": 214,
    "▁dėl": 215,
    "et": 216,
    "v": 217,
    "▁var": 218,
    "▁E": 219,
    "▁1.": 220,
    "▁ap": 221,
    "▁European": 222,
    "A": 223,
    "▁has": 224,
    "ung": 225,
    "▁er": 226,
    "▁10": 227,
    "’": 228,
    "▁nach": 229,
    "▁aus": 230,
    "iem": 231,
    "▁Artikel": 232,
    "am": 233,
    "it": 234,
    "▁Ma": 235,
    "▁EU": 236,
    "C": 237,
    "х": 238,
    "z": 239,
    "p": 240,
    "▁als": 241,
    "▁he": 242,
    "vad": 243,
    "ot": 244,
    "▁einer": 245,
    "▁sich": 246,
    "▁Eiropas": 247,
    "▁sie": 248,
    "▁arba": 249,
    "gi": 250,
    "▁should": 251,
    "ve": 252,
    "▁o": 253,
    "\"": 254,
    "▁за": 255,
    "or": 256,
    "▁ver": 257,
    "▁kaip": 258,
    "den": 259,
    "▁Europos": 260,
    "▁um": 261,
    "▁ma": 262,
    "▁jos": 263,
    "▁Union": 264,
    "я": 265,
    "▁its": 266,
    "▁Regulation": 267,
    "▁Ich": 268,
    "ė": 269,
    "ation": 270,
    "▁ich": 271,
    "▁%": 272,
    "ista": 273,
    "▁po": 274,
    "▁man": 275,
    "▁Commission": 276,
    "▁No": 277,
    "▁būti": 278,
    "ver": 279,
    "▁7": 280,
    "ni": 281,
    "▁oma": 282,
    "й": 283,
    "ās": 284,
    "ов": 285,
    "▁kohta": 286,
    "ju": 287,
    "ki": 288,
    "tas": 289,
    "▁p": 290,
    "▁у": 291,
    "▁du": 292,
    "▁о": 293,
    "▁de": 294,
    "▁Kommission": 295,
    "о": 296,
    "ku": 297,
    "▁ta": 298,
    "▁but": 299,
    "▁tu": 300,
    "▁Article": 301,
    "mine": 302,
    "▁vor": 303,
    "on": 304,
    "be": 305,
    "▁arī": 306,
    "▁sen": 307,
    "▁other": 308,
    "▁gada": 309,
    "mis": 310,
    "▁tā": 311,
    "▁Member": 312,
    "lla": 313,
    "f": 314,
    "▁oli": 315,
    "▁can": 316,
    "▁if": 317,
    "va": 318,
    "▁diese": 319,
    "▁4.": 320,
    "▁Verordnung": 321,
    "el": 322,
    "▁gali": 323,
    "▁bet": 324,
    "▁also": 325,
    "▁auch": 326,
    "▁wie": 327,
    "ar": 328,
    "▁been": 329,
    "▁„": 330,
    "▁8": 331,
    "▁e": 332,
    "▁Я": 333,
    "▁iz": 334,
    "▁selle": 335,
    "▁hat": 336,
    "sti": 337,
    "▁do": 338,
    "ой": 339,
    "▁tas": 340,
    "tud": 341,
    "▁P": 342,
    "▁12": 343,
    "▁their": 344,
    "at": 345,
    "lt": 346,
    "▁nav": 347,
    "▁N": 348,
    "kin": 349,
    "S": 350,
    "▁ge": 351,
    "2": 352,
    "ām": 353,
    "▁taip": 354,
    "▁20": 355,
    "ty": 356,
    "▁States": 357,
    "ka": 358,
    "▁nuo": 359,
    "ais": 360,
    "▁am": 361,
    "mi": 362,
    "▁B": 363,
    "▁buvo": 364,
    "ia": 365,
    "mise": 366,
    "▁я": 367,
    "ом": 368,
    "▁turi": 369,
    "il": 370,
    "nud": 371,
    "ter": 372,
    "pa": 373,
    "š": 374,
    "л": 375,
    "mme": 376,
    "▁wenn": 377,
    "▁pie": 378,
    "▁haben": 379,
    "▁may": 380,
    "▁durch": 381,
    "un": 382,
    "im": 383,
    "▁your": 384,
    "imo": 385,
    "▁they": 386,
    "▁dieser": 387,
    "▁pat": 388,
    "▁Euroopan": 389,
    "▁K": 390,
    "ic": 391,
    "▁out": 392,
    "▁kann": 393,
    "▁30": 394,
    "▁ie": 395,
    "▁g": 396,
    "▁už": 397,
    "▁vom": 398,
    "vi": 399,
    "ina": 400,
    "D": 401,
    "ll": 402,
    "ide": 403,
    "B": 404,
    "io": 405,
    "▁2.": 406,
    "mist": 407,
    "▁more": 408,
    "▁pagal": 409,
    "▁от": 410,
    "но": 411,
    "▁tik": 412,
    "ē": 413,
    "ю": 414,
    "▁—": 415,
    "▁one": 416,
    "▁15": 417,
    "▁F": 418,
    "▁к": 419,
    "T": 420,
    "▁c": 421,
    "ет": 422,
    "EC": 423,
    "▁In": 424,
    "▁9": 425,
    "▁II": 426,
    "▁Re": 427,
    "▁nr": 428,
    "▁“": 429,
    "je": 430,
    "▁kai": 431,
    "tä": 432,
    "▁Be": 433,
    "▁unter": 434,
    "▁pēc": 435,
    "▁einen": 436,
    "▁there": 437,
    "▁any": 438,
    "▁Komisija": 439,
    "▁Europäischen": 440,
    "▁seda": 441,
    "ли": 442,
    "]": 443,
    "he": 444,
    "inen": 445,
    "3": 446,
    "▁T": 447,
    "w": 448,
    "▁aasta": 449,
    "▁t": 450,
    "▁šo": 451,
    "▁need": 452,
    "▁would": 453,
    "”": 454,
    "▁Council": 455,
    "▁при": 456,
    "▁19": 457,
    "▁Pa": 458,
    "▁В": 459,
    "▁M": 460,
    "в": 461,
    "▁это": 462,
    "▁līdz": 463,
    "с": 464,
    "▁te": 465,
    "▁what": 466,
    "▁my": 467,
    "der": 468,
    "▁ovat": 469,
    "▁such": 470,
    "H": 471,
    "▁saa": 472,
    "mu": 473,
    "▁apie": 474,
    "sid": 475,
    "ur": 476,
    "ig": 477,
    "EG": 478,
    "EK": 479,
    "ra": 480,
    "▁G": 481,
    "ės": 482,
    "ch": 483,
    "▁V": 484,
    "▁into": 485,
    "gen": 486,
    "li": 487,
    "▁С": 488,
    "po": 489,
    "▁ml": 490,
    "▁under": 491,
    "▁must": 492,
    "▁Ver": 493,
    "▁l": 494,
    "н": 495,
    "▁up": 496,
    "▁вы": 497,
    "▁D": 498,
    "EB": 499,
    "▁как": 500,
    "т": 501,
    "▁artikli": 502,
    "EÜ": 503,
    "ment": 504,
    "▁einem": 505,
    "N": 506,
    "▁Absatz": 507,
    "▁use": 508,
    "ste": 509,
    "▁18": 510,
    "ть": 511,
    "des": 512,
    "ksi": 513,
    "th": 514,
    "ių": 515,
    "▁these": 516,
    "K": 517,
    "▁osa": 518,
    "ist": 519,
    "▁saskaņā": 520,
    "į": 521,
    "ha": 522,
    "▁straipsnio": 523,
    "▁zum": 524,
    "▁ab": 525,
    "hi": 526,
    "▁than": 527,
    "▁H": 528,
    "▁100": 529,
    "▁11": 530,
    "ant": 531,
    "▁panta": 532,
    "▁pro": 533,
    "▁joka": 534,
    "▁mida": 535,
    "takse": 536,
    "▁were": 537,
    "▁nur": 538,
    "(": 539,
    "ys": 540,
    "ü": 541,
    "tus": 542,
    "no": 543,
    "än": 544,
    "ого": 545,
    "▁da": 546,
    "gu": 547,
    "▁sein": 548,
    "ę": 549,
    "P": 550,
    "▁tiek": 551,
    "ies": 552,
    "est": 553,
    "▁14": 554,
    "▁können": 555,
    "I": 556,
    "ла": 557,
    "tel": 558,
    "▁25": 559,
    "▁про": 560,
    "ry": 561,
    "imas": 562,
    "▁time": 563,
    "▁nende": 564,
    "sse": 565,
    "iden": 566,
    "▁when": 567,
    "▁võib": 568,
    "E": 569,
    "▁[": 570,
    "ita": 571,
    "▁ты": 572,
    "▁O": 573,
    "▁myös": 574,
    "jen": 575,
    "ud": 576,
    "nt": 577,
    "▁для": 578,
    "▁kun": 579,
    "▁information": 580,
    "▁Mitgliedstaaten": 581,
    "▁wurde": 582,
    "▁R": 583,
    "ion": 584,
    "▁jotka": 585,
    "▁kuin": 586,
    "ite": 587,
    "di": 588,
    "men": 589,
    "▁3.": 590,
    "G": 591,
    "▁attiecībā": 592,
    "sch": 593,
    "iz": 594,
    "šanas": 595,
    "val": 596,
    "jo": 597,
    "ie": 598,
    "vat": 599,
    "stä": 600,
    "▁tam": 601,
    "▁2005": 602,
    "▁war": 603,
    "▁our": 604,
    "ö": 605,
    "▁из": 606,
    "▁who": 607,
    "ers": 608,
    "tų": 609,
    "▁mēs": 610,
    "4": 611,
    "vo": 612,
    "▁13": 613,
    "–": 614,
    "▁0,": 615,
    "inių": 616,
    "▁only": 617,
    "▁tās": 618,
    "▁jei": 619,
    "▁16": 620,
    "▁k": 621,
    "ību": 622,
    "▁bis": 623,
    "▁new": 624,
    "inės": 625,
    "mas": 626,
    "▁about": 627,
    "▁where": 628,
    "▁2004": 629,
    "ить": 630,
    "tele": 631,
    "▁voi": 632,
    "▁savo": 633,
    "man": 634,
    "▁50": 635,
    "1": 636,
    "▁pār": 637,
    "▁vastu": 638,
    "▁Er": 639,
    "▁tuo": 640,
    "д": 641,
    "▁alle": 642,
    "▁24": 643,
    "ut": 644,
    "ity": 645,
    "▁olen": 646,
    "▁Community": 647,
    "lu": 648,
    "▁dar": 649,
    "▁f": 650,
    "mo": 651,
    "tar": 652,
    "▁būtų": 653,
    "lo": 654,
    "▁а": 655,
    "EU": 656,
    "ssä": 657,
    "▁kes": 658,
    "tos": 659,
    "L": 660,
    "ных": 661,
    "▁An": 662,
    "▁tämän": 663,
    "▁tuleb": 664,
    "ī": 665,
    "▁aber": 666,
    "▁välja": 667,
    "▁Ne": 668,
    "▁like": 669,
    "▁6.": 670,
    "▁vērā": 671,
    "V": 672,
    "ir": 673,
    "ab": 674,
    "tta": 675,
    "ки": 676,
    "▁those": 677,
    "го": 678,
    "F": 679,
    "▁2006": 680,
    "▁sekä": 681,
    "▁•": 682,
    "▁gemäß": 683,
    "aus": 684,
    "ce": 685,
    "ton": 686,
    "▁kuri": 687,
    "ms": 688,
    "▁eri": 689,
    "▁olla": 690,
    "ate": 691,
    "▁määruse": 692,
    "line": 693,
    "▁eines": 694,
    "nä": 695,
    "▁reikia": 696,
    "usi": 697,
    "▁А": 698,
    "▁üle": 699,
    "um": 700,
    "ine": 701,
    "▁mums": 702,
    "O": 703,
    "▁countries": 704,
    "ams": 705,
    "▁+": 706,
    "zu": 707,
    "“": 708,
    "ad": 709,
    "llä": 710,
    "taan": 711,
    "▁us": 712,
    "▁kon": 713,
    "▁En": 714,
    "oje": 715,
    "▁his": 716,
    "▁17": 717,
    "ho": 718,
    "issa": 719,
    "ille": 720,
    "▁products": 721,
    "▁müssen": 722,
    "▁hän": 723,
    "▁keine": 724,
    "ri": 725,
    "▁between": 726,
    "maan": 727,
    "▁nu": 728,
    "▁just": 729,
    "ien": 730,
    "▁iki": 731,
    "▁21": 732,
    "▁5.": 733,
    "▁The": 734,
    "▁nii": 735,
    "ем": 736,
    "ка": 737,
    "▁measures": 738,
    "iini": 739,
    "▁komisjoni": 740,
    "▁nõukogu": 741,
    "▁noch": 742,
    "▁muss": 743,
    "▁И": 744,
    "▁following": 745,
    "▁Al": 746,
    "nen": 747,
    "▁Komisijos": 748,
    "▁EUR": 749,
    "▁Mr": 750,
    "▁pre": 751,
    "▁Ab": 752,
    "ol": 753,
    "ijos": 754,
    "lik": 755,
    "▁prie": 756,
    "▁jau": 757,
    "x": 758,
    "ci": 759,
    "M": 760,
    "▁State": 761,
    "▁mu": 762,
    "▁до": 763,
    "▁olisi": 764,
    "▁take": 765,
    "ся": 766,
    "▁Directive": 767,
    "▁Le": 768,
    "▁jis": 769,
    "▁Annex": 770,
    "▁De": 771,
    "able": 772,
    "ь": 773,
    "▁di": 774,
    "ми": 775,
    "▁0": 776,
    "▁after": 777,
    "ive": 778,
    "šanu": 779,
    "ж": 780,
    "▁bija": 781,
    "на": 782,
    "▁well": 783,
    "▁sk": 784,
    "▁la": 785,
    "▁под": 786,
    "▁dalies": 787,
    "inio": 788,
    "▁accordance": 789,
    "vien": 790,
    "▁mille": 791,
    "▁Richtlinie": 792,
    "▁jų": 793,
    "▁со": 794,
    "▁Tel": 795,
    "ž": 796,
    "tes": 797,
    "▁va": 798,
    "R": 799,
    "▁anti": 800,
    "ības": 801,
    "▁valstybės": 802,
    "W": 803,
    "minen": 804,
    "ти": 805,
    "ija": 806,
    "per": 807,
    "▁kanssa": 808,
    "▁con": 809,
    "▁īpaši": 810,
    "▁first": 811,
    "uma": 812,
    "ven": 813,
    "▁mir": 814,
    "▁her": 815,
    "▁Patienten": 816,
    "▁regard": 817,
    "▁об": 818,
    "▁22": 819,
    "▁Ra": 820,
    "▁käesoleva": 821,
    "▁wurden": 822,
    "▁ju": 823,
    "▁straipsnis": 824,
    "▁sollte": 825,
    "▁period": 826,
    "▁31": 827,
    "к": 828,
    "ия": 829,
    "▁mutta": 830,
    "▁down": 831,
    "▁had": 832,
    "tra": 833,
    "istä": 834,
    "umu": 835,
    "▁раз": 836,
    "cht": 837,
    "▁artiklan": 838,
    "sin": 839,
    "▁toimi": 840,
    "▁pärast": 841,
    "umo": 842,
    "la": 843,
    "р": 844,
    "▁over": 845,
    "du": 846,
    "min": 847,
    "▁komission": 848,
    "▁его": 849,
    "nes": 850,
    "ш": 851,
    "õ": 852,
    "ik": 853,
    "tri": 854,
    "mon": 855,
    "van": 856,
    "▁Sa": 857,
    "ами": 858,
    "▁У": 859,
    "miseks": 860,
    "▁within": 861,
    "jä": 862,
    "pu": 863,
    "tava": 864,
    "▁market": 865,
    "kas": 866,
    "▁some": 867,
    "▁mehr": 868,
    "▁W": 869,
    "▁III": 870,
    "▁Die": 871,
    "ties": 872,
    "▁order": 873,
    "▁kg": 874,
    "▁Maßnahmen": 875,
    "▁Anwendung": 876,
    "▁report": 877,
    "iai": 878,
    "▁sowie": 879,
    "▁Committee": 880,
    "▁sitä": 881,
    "illa": 882,
    "▁them": 883,
    "▁pret": 884,
    "▁direktiivi": 885,
    "ise": 886,
    "▁lisa": 887,
    "▁le": 888,
    "▁Это": 889,
    "▁national": 890,
    "▁siis": 891,
    "▁tikai": 892,
    "▁mitte": 893,
    "▁Sch": 894,
    "▁data": 895,
    "▁ravi": 896,
    "▁ha": 897,
    "▁particular": 898,
    "▁Komisijas": 899,
    "isen": 900,
    "▁uns": 901,
    "▁work": 902,
    "▁made": 903,
    "ius": 904,
    "ungen": 905,
    "▁muut": 906,
    "ei": 907,
    "▁end": 908,
    "▁Ja": 909,
    "sten": 910,
    "▁people": 911,
    "ex": 912,
    "EY": 913,
    "то": 914,
    "▁na": 915,
    "ло": 916,
    "tą": 917,
    "▁2007": 918,
    "▁2003": 919,
    "do": 920,
    "▁Ты": 921,
    "ųjų": 922,
    "▁iga": 923,
    "ttava": 924,
    "▁28": 925,
    "▁šajā": 926,
    "▁diesem": 927,
    "▁2008": 928,
    "pro": 929,
    "ения": 930,
    "▁now": 931,
    "▁know": 932,
    "▁Na": 933,
    "▁Да": 934,
    "▁President": 935,
    "ч": 936,
    "omis": 937,
    "▁būtu": 938,
    "▁tie": 939,
    "▁puhul": 940,
    "mos": 941,
    "▁system": 942,
    "ых": 943,
    "▁ņemot": 944,
    "▁mes": 945,
    "▁kur": 946,
    "tte": 947,
    "▁pants": 948,
    "▁zwischen": 949,
    "▁kõik": 950,
    "ного": 951,
    "isten": 952,
    "▁anderen": 953,
    "▁United": 954,
    "ub": 955,
    "▁right": 956,
    "imą": 957,
    "▁27": 958,
    "ной": 959,
    "▁used": 960,
    "▁patients": 961,
    "▁v": 962,
    "ums": 963,
    "j": 964,
    "▁pri": 965,
    "ihin": 966,
    "del": 967,
    "▁päivänä": 968,
    "▁To": 969,
    "yn": 970,
    "tic": 971,
    "▁arvesse": 972,
    "▁Gemeinschaft": 973,
    "▁laikā": 974,
    "▁set": 975,
    "▁years": 976,
    "▁бы": 977,
    "▁nei": 978,
    "▁jūs": 979,
    "mus": 980,
    "▁ihre": 981,
    "▁40": 982,
    "▁По": 983,
    "fer": 984,
    "▁Parliament": 985,
    "land": 986,
    "▁Tarybos": 987,
    "▁dieses": 988,
    "▁two": 989,
    "▁suhtes": 990,
    "ose": 991,
    "▁labai": 992,
    "б": 993,
    "test": 994,
    "▁koos": 995,
    "▁provided": 996,
    "▁unionin": 997,
    "ino": 998,
    "6": 999,
    "10": 1000,
    "▁very": 1001,
    "ку": 1002,
    "ра": 1003,
    "▁valsts": 1004,
    "▁hier": 1005,
    "▁vain": 1006,
    "▁euro": 1007,
    "ие": 1008,
    "8": 1009,
    "▁international": 1010,
    "▁Padomes": 1011,
    "ba": 1012,
    "▁2002": 1013,
    "U": 1014,
    "▁pää": 1015,
    "▁nagu": 1016,
    "lich": 1017,
    "tis": 1018,
    "vai": 1019,
    "▁turėtų": 1020,
    "▁töö": 1021,
    "ting": 1022,
    "▁Aus": 1023,
    "fe": 1024,
    "▁Anhang": 1025,
    "да": 1026,
    "ui": 1027,
    "mat": 1028,
    "▁Kopienas": 1029,
    "▁human": 1030,
    "▁st": 1031,
    "▁ri": 1032,
    "▁Artikkel": 1033,
    "▁prieš": 1034,
    "ner": 1035,
    "ācijas": 1036,
    "▁меня": 1037,
    "та": 1038,
    "pi": 1039,
    "▁komisjon": 1040,
    "▁Ein": 1041,
    "▁23": 1042,
    "ern": 1043,
    "up": 1044,
    "▁make": 1045,
    "▁U": 1046,
    "ated": 1047,
    "\".": 1048,
    "igen": 1049,
    "▁Tämä": 1050,
    "▁все": 1051,
    "nut": 1052,
    "▁...": 1053,
    "▁kogu": 1054,
    "▁ent": 1055,
    "▁siitä": 1056,
    "▁number": 1057,
    "7": 1058,
    "▁support": 1059,
    "ные": 1060,
    "▁Rates": 1061,
    "▁vastavalt": 1062,
    "▁h": 1063,
    "pe": 1064,
    "▁Sąjungos": 1065,
    "▁part": 1066,
    "те": 1067,
    "▁vis": 1068,
    "▁nes": 1069,
    "▁metu": 1070,
    "▁referred": 1071,
    "▁2000": 1072,
    "ит": 1073,
    "neet": 1074,
    "EL": 1075,
    "kon": 1076,
    "mm": 1077,
    "co": 1078,
    "им": 1079,
    "▁так": 1080,
    "▁šio": 1081,
    "▁eest": 1082,
    "▁year": 1083,
    "▁šīs": 1084,
    "▁kurie": 1085,
    "▁ühenduse": 1086,
    "vir": 1087,
    "tin": 1088,
    "▁abi": 1089,
    "▁here": 1090,
    "ischen": 1091,
    "▁bus": 1092,
    "▁development": 1093,
    "met": 1094,
    "ни": 1095,
    "ст": 1096,
    "▁financial": 1097,
    "▁kurių": 1098,
    "▁sp": 1099,
    "▁Не": 1100,
    "ей": 1101,
    "▁ad": 1102,
    "yti": 1103,
    "▁О": 1104,
    "▁он": 1105,
    "▁gan": 1106,
    "avimo": 1107,
    "▁Liidu": 1108,
    "▁insbesondere": 1109,
    "▁Europe": 1110,
    "mä": 1111,
    "▁Šis": 1112,
    "▁co": 1113,
    "▁r": 1114,
    "oma": 1115,
    "▁vasta": 1116,
    "▁Decision": 1117,
    "▁narės": 1118,
    "vä": 1119,
    "Z": 1120,
    "ojo": 1121,
    "ler": 1122,
    "ая": 1123,
    "ek": 1124,
    "▁Savienības": 1125,
    "▁jeigu": 1126,
    "ele": 1127,
    "▁each": 1128,
    "▁during": 1129,
    "dy": 1130,
    "▁import": 1131,
    "▁/": 1132,
    "▁therefore": 1133,
    "▁could": 1134,
    "п": 1135,
    "▁ette": 1136,
    "▁asetuksen": 1137,
    "nis": 1138,
    "▁before": 1139,
    "▁seotud": 1140,
    "uoti": 1141,
    "▁Z": 1142,
    "▁because": 1143,
    "▁мы": 1144,
    "▁2009": 1145,
    "▁(1)": 1146,
    "J": 1147,
    "▁get": 1148,
    "▁how": 1149,
    "▁чтобы": 1150,
    "▁Kon": 1151,
    "▁vairāk": 1152,
    "▁Ar": 1153,
    "amp": 1154,
    ");": 1155,
    "oms": 1156,
    "use": 1157,
    "▁tika": 1158,
    "▁но": 1159,
    "▁мне": 1160,
    "go": 1161,
    "▁ex": 1162,
    "19": 1163,
    "ют": 1164,
    "▁Ge": 1165,
    "ajiem": 1166,
    "ami": 1167,
    "lise": 1168,
    "▁Vi": 1169,
    "▁including": 1170,
    "ru": 1171,
    "▁Б": 1172,
    "▁määrä": 1173,
    "▁jā": 1174,
    "▁z": 1175,
    "▁necessary": 1176,
    "▁most": 1177,
    "▁1/": 1178,
    "▁niin": 1179,
    ".\"": 1180,
    "ый": 1181,
    "tā": 1182,
    "▁sollten": 1183,
    "las": 1184,
    "bi": 1185,
    "▁(2)": 1186,
    "▁pasi": 1187,
    "▁mano": 1188,
    "fa": 1189,
    "ttä": 1190,
    "ри": 1191,
    "▁vaja": 1192,
    "▁väga": 1193,
    "▁üks": 1194,
    "ige": 1195,
    "че": 1196,
    "iert": 1197,
    "2/": 1198,
    "▁muu": 1199,
    "▁did": 1200,
    "ile": 1201,
    "kul": 1202,
    "▁kuru": 1203,
    "▁года": 1204,
    "▁60": 1205,
    "▁или": 1206,
    "▁meie": 1207,
    "▁К": 1208,
    "ungs": 1209,
    "ber": 1210,
    "iet": 1211,
    "ieren": 1212,
    "inti": 1213,
    "tav": 1214,
    "▁punktu": 1215,
    "ger": 1216,
    "bar": 1217,
    "and": 1218,
    "▁kuni": 1219,
    "tti": 1220,
    "20": 1221,
    "▁ji": 1222,
    "▁ensure": 1223,
    "▁galima": 1224,
    "▁mich": 1225,
    "▁Se": 1226,
    "we": 1227,
    "ии": 1228,
    "ren": 1229,
    "▁Hav": 1230,
    "mista": 1231,
    "▁economic": 1232,
    "▁же": 1233,
    "▁26": 1234,
    "▁Su": 1235,
    "▁La": 1236,
    "▁nepa": 1237,
    "▁enne": 1238,
    "00": 1239,
    "▁pra": 1240,
    "vät": 1241,
    "ime": 1242,
    "ön": 1243,
    "▁Pro": 1244,
    "▁nad": 1245,
    "▁public": 1246,
    "▁peab": 1247,
    "▁ihrer": 1248,
    "var": 1249,
    "▁same": 1250,
    "ro": 1251,
    "uose": 1252,
    "▁kuid": 1253,
    "the": 1254,
    "au": 1255,
    "▁mukaan": 1256,
    "ется": 1257,
    "▁kurios": 1258,
    "od": 1259,
    "vy": 1260,
    "з": 1261,
    "11": 1262,
    "▁kaikki": 1263,
    "ок": 1264,
    "tro": 1265,
    "▁J": 1266,
    "30": 1267,
    "▁29": 1268,
    "und": 1269,
    "ff": 1270,
    "ība": 1271,
    "iau": 1272,
    "▁country": 1273,
    "▁vien": 1274,
    "▁go": 1275,
    "▁Vor": 1276,
    "inis": 1277,
    "▁case": 1278,
    "ul": 1279,
    "▁place": 1280,
    "▁andere": 1281,
    "▁[1]": 1282,
    "ap": 1283,
    "▁even": 1284,
    "▁product": 1285,
    "4/": 1286,
    "▁starp": 1287,
    "ck": 1288,
    "▁al": 1289,
    "ный": 1290,
    "▁kam": 1291,
    "ell": 1292,
    "▁voidaan": 1293,
    "▁lõike": 1294,
    "▁ką": 1295,
    "▁last": 1296,
    "▁jälkeen": 1297,
    "▁Что": 1298,
    "osios": 1299,
    "▁Herr": 1300,
    "▁Но": 1301,
    "▁Bendrijos": 1302,
    "▁Entwicklung": 1303,
    "▁mukaisesti": 1304,
    "ium": 1305,
    "jas": 1306,
    "▁many": 1307,
    "ji": 1308,
    "sion": 1309,
    "▁2010": 1310,
    "▁их": 1311,
    "é": 1312,
    "▁reglamento": 1313,
    "iga": 1314,
    "▁то": 1315,
    "▁val": 1316,
    "▁kadangi": 1317,
    "▁võttes": 1318,
    "▁õigus": 1319,
    "за": 1320,
    "mų": 1321,
    "▁ob": 1322,
    "ля": 1323,
    "▁without": 1324,
    "elle": 1325,
    "▁tau": 1326,
    "tik": 1327,
    "ен": 1328,
    "50": 1329,
    "oli": 1330,
    "ле": 1331,
    "▁paragraph": 1332,
    "▁point": 1333,
    "ši": 1334,
    "▁important": 1335,
    "▁sehr": 1336,
    "▁sätestatud": 1337,
    "▁ypač": 1338,
    "dal": 1339,
    "▁rights": 1340,
    "▁ši": 1341,
    "▁conditions": 1342,
    "▁transport": 1343,
    "▁help": 1344,
    "ил": 1345,
    "▁pacientiem": 1346,
    "▁Rat": 1347,
    "▁Aš": 1348,
    "25": 1349,
    "tur": 1350,
    "är": 1351,
    "šu": 1352,
    "set": 1353,
    "▁way": 1354,
    "ein": 1355,
    "▁lo": 1356,
    "fi": 1357,
    "▁nėra": 1358,
    "15": 1359,
    "▁pole": 1360,
    "ling": 1361,
    "EEB": 1362,
    "inė": 1363,
    "▁habe": 1364,
    "za": 1365,
    "▁aš": 1366,
    "kite": 1367,
    "▁met": 1368,
    "▁Ka": 1369,
    "oja": 1370,
    "ary": 1371,
    "iniai": 1372,
    "▁being": 1373,
    "9": 1374,
    "ische": 1375,
    "yl": 1376,
    "▁Parlament": 1377,
    "zi": 1378,
    "ega": 1379,
    "▁gegen": 1380,
    "tai": 1381,
    "iv": 1382,
    "mata": 1383,
    "šana": 1384,
    "▁ühe": 1385,
    "▁don": 1386,
    "▁kar": 1387,
    "▁jie": 1388,
    "nne": 1389,
    "г": 1390,
    "▁00": 1391,
    "▁daugiau": 1392,
    "īt": 1393,
    "ую": 1394,
    "▁Me": 1395,
    "▁against": 1396,
    "▁minu": 1397,
    "pan": 1398,
    "5": 1399,
    "misen": 1400,
    "▁min": 1401,
    "▁koska": 1402,
    "▁through": 1403,
    "▁darba": 1404,
    "▁tema": 1405,
    "EEC": 1406,
    "lin": 1407,
    "hu": 1408,
    "вер": 1409,
    "jam": 1410,
    "▁komissio": 1411,
    "sp": 1412,
    "mą": 1413,
    "ze": 1414,
    "▁treatment": 1415,
    "▁aid": 1416,
    "▁y": 1417,
    "das": 1418,
    "▁'": 1419,
    "vis": 1420,
    "▁good": 1421,
    "▁šios": 1422,
    "▁mm": 1423,
    "▁want": 1424,
    "teri": 1425,
    "▁dis": 1426,
    "ating": 1427,
    "▁dalyje": 1428,
    "kel": 1429,
    "ky": 1430,
    "▁pea": 1431,
    "▁inter": 1432,
    "▁risk": 1433,
    "lis": 1434,
    "▁aga": 1435,
    "▁läbi": 1436,
    "▁punktā": 1437,
    "▁Behandlung": 1438,
    "▁nimetatud": 1439,
    "▁tässä": 1440,
    "▁level": 1441,
    "▁vēl": 1442,
    "▁tarp": 1443,
    "▁Rahmen": 1444,
    "▁<": 1445,
    "ft": 1446,
    "▁Co": 1447,
    "▁certain": 1448,
    "ēt": 1449,
    "ча": 1450,
    "▁daudz": 1451,
    "▁world": 1452,
    "ре": 1453,
    "▁niiden": 1454,
    "umi": 1455,
    "▁ilma": 1456,
    "EMÜ": 1457,
    "nu": 1458,
    "ttu": 1459,
    "bo": 1460,
    "▁poolt": 1461,
    "ые": 1462,
    "▁policy": 1463,
    "▁Komisijai": 1464,
    "▁ro": 1465,
    "▁bin": 1466,
    "ben": 1467,
    "keit": 1468,
    "ам": 1469,
    "EWG": 1470,
    "▁does": 1471,
    "▁tur": 1472,
    "ļ": 1473,
    "▁также": 1474,
    "▁000": 1475,
    "▁sub": 1476,
    "▁”": 1477,
    "▁social": 1478,
    "age": 1479,
    "▁80": 1480,
    "vin": 1481,
    "āciju": 1482,
    "▁day": 1483,
    "▁teisės": 1484,
    "▁ke": 1485,
    "▁[2]": 1486,
    "▁ennen": 1487,
    "▁Treaty": 1488,
    "▁huomioon": 1489,
    "▁Regulas": 1490,
    "vu": 1491,
    "ac": 1492,
    "tan": 1493,
    "▁force": 1494,
    "▁visi": 1495,
    "isia": 1496,
    "atsiooni": 1497,
    "▁priemonės": 1498,
    "▁hi": 1499,
    "▁ļoti": 1500,
    "▁darbo": 1501,
    "EEK": 1502,
    "▁čia": 1503,
    "▁yksi": 1504,
    "▁kohdan": 1505,
    "mal": 1506,
    "▁pirms": 1507,
    "▁tuleks": 1508,
    "▁neuvoston": 1509,
    "▁90": 1510,
    "▁2011": 1511,
    "▁ära": 1512,
    "▁diesen": 1513,
    "oksi": 1514,
    "lä": 1515,
    "▁пред": 1516,
    "ala": 1517,
    "sk": 1518,
    "hr": 1519,
    "▁meidän": 1520,
    "▁gadījumā": 1521,
    "▁kuten": 1522,
    "▁riski": 1523,
    "▁Mo": 1524,
    "ure": 1525,
    "▁ala": 1526,
    "▁luo": 1527,
    "▁pamat": 1528,
    "▁tä": 1529,
    "▁ž": 1530,
    "▁maa": 1531,
    "▁jums": 1532,
    "ва": 1533,
    "▁korral": 1534,
    "▁punkta": 1535,
    "▁olema": 1536,
    "▁millega": 1537,
    "▁control": 1538,
    "▁тебя": 1539,
    "▁darbības": 1540,
    "▁möchte": 1541,
    "kä": 1542,
    "▁jedoch": 1543,
    "он": 1544,
    "▁bez": 1545,
    "▁parlamentin": 1546,
    "▁Ha": 1547,
    "▁denen": 1548,
    "▁nyt": 1549,
    "▁«": 1550,
    "hen": 1551,
    "▁At": 1552,
    "sed": 1553,
    "gt": 1554,
    "▁authorities": 1555,
    "ijas": 1556,
    "▁mūsų": 1557,
    "▁non": 1558,
    "▁Ko": 1559,
    "▁We": 1560,
    "▁tra": 1561,
    "ах": 1562,
    "▁taken": 1563,
    "▁alfa": 1564,
    "▁appropriate": 1565,
    "▁ELi": 1566,
    "▁työ": 1567,
    "iu": 1568,
    "▁reglamentas": 1569,
    "▁plan": 1570,
    "Ä": 1571,
    "ama": 1572,
    "▁priemonių": 1573,
    "kö": 1574,
    "▁rules": 1575,
    "▁sama": 1576,
    "ан": 1577,
    "▁‘": 1578,
    "01": 1579,
    "sel": 1580,
    "aat": 1581,
    "fen": 1582,
    "▁Ta": 1583,
    "▁damit": 1584,
    "▁It": 1585,
    "X": 1586,
    "ken": 1587,
    "uoja": 1588,
    "itä": 1589,
    "▁tule": 1590,
    "nsa": 1591,
    "tega": 1592,
    "īna": 1593,
    "▁jäsen": 1594,
    "жд": 1595,
    "▁ajal": 1596,
    "vel": 1597,
    "▁x": 1598,
    "▁jooksul": 1599,
    "ori": 1600,
    "▁she": 1601,
    "▁Europa": 1602,
    "Y": 1603,
    "▁7.": 1604,
    "▁bi": 1605,
    "inį": 1606,
    "teen": 1607,
    "▁atsižvelgdama": 1608,
    "▁Bericht": 1609,
    "ht": 1610,
    "▁auto": 1611,
    "dia": 1612,
    "▁Ho": 1613,
    "heit": 1614,
    "mp": 1615,
    "▁both": 1616,
    "▁services": 1617,
    "▁gal": 1618,
    "▁Oh": 1619,
    "▁во": 1620,
    "▁eriti": 1621,
    "ov": 1622,
    "▁kus": 1623,
    "īgu": 1624,
    "▁means": 1625,
    "iset": 1626,
    "lta": 1627,
    "▁ihr": 1628,
    "▁China": 1629,
    "via": 1630,
    "▁lepingu": 1631,
    "▁He": 1632,
    "maks": 1633,
    "con": 1634,
    "▁genannten": 1635,
    "▁būt": 1636,
    "vas": 1637,
    "▁provisions": 1638,
    "her": 1639,
    "12": 1640,
    "tään": 1641,
    "miseksi": 1642,
    "▁kuu": 1643,
    "от": 1644,
    "son": 1645,
    "▁Val": 1646,
    "ėjo": 1647,
    "ade": 1648,
    "šanai": 1649,
    "▁said": 1650,
    "ang": 1651,
    "vate": 1652,
    "▁kuras": 1653,
    "los": 1654,
    "▁ga": 1655,
    "▁him": 1656,
    "▁otsuse": 1657,
    "ous": 1658,
    "▁date": 1659,
    "list": 1660,
    "▁[1],": 1661,
    "isi": 1662,
    "▁ve": 1663,
    "▁пере": 1664,
    "▁too": 1665,
    "▁будет": 1666,
    "▁Agreement": 1667,
    "▁(1": 1668,
    "▁region": 1669,
    "▁eivät": 1670,
    "▁mūsu": 1671,
    "5/": 1672,
    "▁2013": 1673,
    "liche": 1674,
    "kt": 1675,
    "▁van": 1676,
    "▁Art": 1677,
    "uksen": 1678,
    "▁possible": 1679,
    "oji": 1680,
    "▁Parlaments": 1681,
    "ence": 1682,
    "▁respect": 1683,
    "▁narių": 1684,
    "stu": 1685,
    "▁sel": 1686,
    "ajā": 1687,
    "ная": 1688,
    "▁relevant": 1689,
    "▁application": 1690,
    "ным": 1691,
    "▁aja": 1692,
    "▁Lo": 1693,
    "ES": 1694,
    "▁pan": 1695,
    "iin": 1696,
    "mit": 1697,
    "▁IV": 1698,
    "▁account": 1699,
    "▁kor": 1700,
    "▁tiesību": 1701,
    "▁viena": 1702,
    "▁susi": 1703,
    "chen": 1704,
    "lie": 1705,
    "▁während": 1706,
    "▁common": 1707,
    "llinen": 1708,
    "āk": 1709,
    "ро": 1710,
    "rü": 1711,
    "▁subject": 1712,
    "▁Он": 1713,
    "▁kartu": 1714,
    "▁kontrolli": 1715,
    "ū": 1716,
    "▁tagasi": 1717,
    "ator": 1718,
    "▁valstybių": 1719,
    "▁&": 1720,
    "ance": 1721,
    "▁(3)": 1722,
    "nyt": 1723,
    "usta": 1724,
    "liste": 1725,
    "gel": 1726,
    "▁third": 1727,
    "▁Ro": 1728,
    "zin": 1729,
    "par": 1730,
    "form": 1731,
    "▁2014": 1732,
    "▁concerned": 1733,
    "▁Zeit": 1734,
    "▁siekiant": 1735,
    "▁Arvoisa": 1736,
    "isiin": 1737,
    "▁Unternehmen": 1738,
    "ude": 1739,
    "▁Un": 1740,
    "▁Entscheidung": 1741,
    "▁tulee": 1742,
    "ности": 1743,
    "▁think": 1744,
    "▁Мы": 1745,
    "kar": 1746,
    "▁lu": 1747,
    "▁form": 1748,
    "▁lähe": 1749,
    "vēr": 1750,
    "▁dann": 1751,
    "40": 1752,
    "EN": 1753,
    "ūr": 1754,
    "dien": 1755,
    "▁attiecas": 1756,
    "▁esitatud": 1757,
    "acijos": 1758,
    "▁2001": 1759,
    "▁given": 1760,
    "\",": 1761,
    "rak": 1762,
    "▁daug": 1763,
    "▁Po": 1764,
    "▁šis": 1765,
    "▁dose": 1766,
    "dus": 1767,
    "jot": 1768,
    "kl": 1769,
    "▁jää": 1770,
    "ute": 1771,
    "▁На": 1772,
    "com": 1773,
    "▁zwei": 1774,
    "▁daher": 1775,
    "kli": 1776,
    "ical": 1777,
    "nas": 1778,
    "taa": 1779,
    "▁Mar": 1780,
    "▁long": 1781,
    "oti": 1782,
    "▁Нет": 1783,
    "har": 1784,
    "ор": 1785,
    "▁oleks": 1786,
    "bu": 1787,
    "ēm": 1788,
    "▁1999": 1789,
    "▁requirements": 1790,
    "▁hyvin": 1791,
    "ко": 1792,
    "ий": 1793,
    "▁pantu": 1794,
    "ināt": 1795,
    "▁būs": 1796,
    "ят": 1797,
    "▁ra": 1798,
    "▁bio": 1799,
    "▁kuris": 1800,
    "▁neid": 1801,
    "kra": 1802,
    "▁2012": 1803,
    "▁Informationen": 1804,
    "▁ger": 1805,
    "▁tämä": 1806,
    "▁daß": 1807,
    "▁saada": 1808,
    "▁määrus": 1809,
    "▁Teil": 1810,
    "que": 1811,
    "tion": 1812,
    "▁muuta": 1813,
    "▁puhemies": 1814,
    "ться": 1815,
    "iems": 1816,
    "lichen": 1817,
    "misel": 1818,
    "об": 1819,
    "tada": 1820,
    "ži": 1821,
    "vyk": 1822,
    "my": 1823,
    "▁global": 1824,
    "▁ainult": 1825,
    "▁они": 1826,
    "▁raha": 1827,
    "▁Li": 1828,
    "▁tun": 1829,
    "ian": 1830,
    "▁nekā": 1831,
    "tys": 1832,
    "▁visas": 1833,
    "▁alusel": 1834,
    "▁basis": 1835,
    "3/": 1836,
    "14": 1837,
    "▁Вы": 1838,
    "ness": 1839,
    "▁nimi": 1840,
    "▁erityisesti": 1841,
    "ым": 1842,
    "▁было": 1843,
    "▁Regulu": 1844,
    "▁gra": 1845,
    "▁metų": 1846,
    "1/": 1847,
    "cin": 1848,
    "▁visų": 1849,
    "ph": 1850,
    "ое": 1851,
    "▁come": 1852,
    "▁dalis": 1853,
    "ги": 1854,
    "▁provide": 1855,
    "▁tad": 1856,
    "▁dalį": 1857,
    "ūk": 1858,
    "▁law": 1859,
    "▁mal": 1860,
    "▁Š": 1861,
    "▁post": 1862,
    "umas": 1863,
    "ach": 1864,
    "isch": 1865,
    "▁jonka": 1866,
    "ox": 1867,
    "):": 1868,
    "▁Recht": 1869,
    "ker": 1870,
    "pä": 1871,
    "▁Europäische": 1872,
    "▁Todėl": 1873,
    "▁izmantot": 1874,
    "▁aiz": 1875,
    "▁pe": 1876,
    "▁pois": 1877,
    "ierung": 1878,
    "ение": 1879,
    "▁available": 1880,
    "▁gar": 1881,
    "▁š": 1882,
    "▁gibt": 1883,
    "pl": 1884,
    "▁Nations": 1885,
    "op": 1886,
    "vaa": 1887,
    "īgi": 1888,
    "▁sellest": 1889,
    "▁situation": 1890,
    "āt": 1891,
    "ėti": 1892,
    "kaa": 1893,
    "▁того": 1894,
    "▁specific": 1895,
    "IN": 1896,
    "▁back": 1897,
    "▁reform": 1898,
    "▁political": 1899,
    "▁может": 1900,
    "hd": 1901,
    "of": 1902,
    "▁Daten": 1903,
    "▁trade": 1904,
    "sia": 1905,
    "▁test": 1906,
    "▁teha": 1907,
    "uri": 1908,
    "▁vii": 1909,
    "▁Präsident": 1910,
    "▁organ": 1911,
    "С": 1912,
    "▁yli": 1913,
    "▁aikana": 1914,
    "▁si": 1915,
    "▁šiuo": 1916,
    "▁li": 1917,
    "ār": 1918,
    "/2": 1919,
    "▁since": 1920,
    "lus": 1921,
    "▁meine": 1922,
    "▁regula": 1923,
    "▁dalībvalstis": 1924,
    "▁varētu": 1925,
    "▁tea": 1926,
    "▁alla": 1927,
    "ER": 1928,
    "▁esi": 1929,
    "qui": 1930,
    "▁osalta": 1931,
    "▁П": 1932,
    "rs": 1933,
    "▁koko": 1934,
    "▁Durchführung": 1935,
    "▁special": 1936,
    "art": 1937,
    "▁trans": 1938,
    "▁šādu": 1939,
    "▁35": 1940,
    "▁Šī": 1941,
    "ding": 1942,
    "▁kohaselt": 1943,
    "gli": 1944,
    "▁savu": 1945,
    "▁Menschen": 1946,
    "▁energia": 1947,
    "kki": 1948,
    "▁75": 1949,
    "see": 1950,
    "▁wo": 1951,
    "▁real": 1952,
    "▁three": 1953,
    "dar": 1954,
    "jos": 1955,
    "ää": 1956,
    "tsi": 1957,
    "▁jaoks": 1958,
    "▁Do": 1959,
    "▁kol": 1960,
    "▁informacija": 1961,
    "▁riigi": 1962,
    "▁mo": 1963,
    "▁tar": 1964,
    "▁Da": 1965,
    "▁31.": 1966,
    "miseen": 1967,
    "imu": 1968,
    "▁further": 1969,
    "▁которые": 1970,
    "▁Zu": 1971,
    "▁šį": 1972,
    "liku": 1973,
    "▁name": 1974,
    "kan": 1975,
    "bri": 1976,
    "uli": 1977,
    "▁Gu": 1978,
    "illä": 1979,
    "▁pil": 1980,
    "▁būtina": 1981,
    "▁different": 1982,
    "▁process": 1983,
    "ust": 1984,
    "му": 1985,
    "▁mitä": 1986,
    "▁ohne": 1987,
    "rat": 1988,
    "13": 1989,
    "▁Mittel": 1990,
    "wert": 1991,
    "▁view": 1992,
    "▁atveju": 1993,
    "▁security": 1994,
    "▁own": 1995,
    "rit": 1996,
    "▁kuitenkin": 1997,
    "▁Es": 1998,
    "▁joilla": 1999,
    "▁mind": 2000,
    "▁high": 2001,
    "▁protection": 2002,
    "▁apply": 2003,
    "▁kasutada": 2004,
    "▁lietošanas": 2005,
    "▁Mitä": 2006,
    "akt": 2007,
    "▁nustatyti": 2008,
    "žu": 2009,
    "▁Welt": 2010,
    "▁pel": 2011,
    "▁finanšu": 2012,
    "▁kura": 2013,
    "▁fact": 2014,
    "95": 2015,
    "ль": 2016,
    "▁jomā": 2017,
    "zer": 2018,
    "▁был": 2019,
    "▁8.": 2020,
    "ство": 2021,
    "▁если": 2022,
    "pri": 2023,
    "ng": 2024,
    "▁activities": 2025,
    "inę": 2026,
    "▁Как": 2027,
    "▁pas": 2028,
    "▁seine": 2029,
    "▁sest": 2030,
    "▁veel": 2031,
    "estä": 2032,
    "uks": 2033,
    "▁liikmesriigid": 2034,
    "▁put": 2035,
    "▁car": 2036,
    "▁kaasa": 2037,
    "▁Ri": 2038,
    "▁peaks": 2039,
    "sche": 2040,
    "же": 2041,
    "▁ru": 2042,
    "60": 2043,
    "/4": 2044,
    "fin": 2045,
    "05": 2046,
    "ttävä": 2047,
    "▁immer": 2048,
    "esta": 2049,
    "▁Te": 2050,
    "aja": 2051,
    "▁maksu": 2052,
    "▁spēkā": 2053,
    "sis": 2054,
    "▁Mu": 2055,
    "▁increase": 2056,
    "сти": 2057,
    "les": 2058,
    "kla": 2059,
    "▁gerai": 2060,
    "▁much": 2061,
    "▁legal": 2062,
    "▁tri": 2063,
    "ved": 2064,
    "▁dienā": 2065,
    "vers": 2066,
    "▁siin": 2067,
    "▁wieder": 2068,
    "tor": 2069,
    "ative": 2070,
    "ster": 2071,
    "▁still": 2072,
    "ме": 2073,
    "▁kuidas": 2074,
    "ше": 2075,
    "24": 2076,
    "▁ten": 2077,
    "▁implementation": 2078,
    "▁2016": 2079,
    "rei": 2080,
    "▁kõnealuse": 2081,
    "▁kooskõlas": 2082,
    "ors": 2083,
    "selt": 2084,
    "▁veic": 2085,
    "18": 2086,
    "▁main": 2087,
    "issä": 2088,
    "▁2005.": 2089,
    "▁Parlamento": 2090,
    "▁пре": 2091,
    "▁lk": 2092,
    "ier": 2093,
    "ijoje": 2094,
    "▁liikmesriikide": 2095,
    "▁jossa": 2096,
    "▁area": 2097,
    "iju": 2098,
    "▁Y": 2099,
    "▁net": 2100,
    "ial": 2101,
    "jām": 2102,
    "ар": 2103,
    "▁300": 2104,
    "lised": 2105,
    "▁artikla": 2106,
    "ешь": 2107,
    "▁ihren": 2108,
    "▁production": 2109,
    "▁w": 2110,
    "▁Ni": 2111,
    "umą": 2112,
    "▁mul": 2113,
    "▁International": 2114,
    "▁Pri": 2115,
    "▁why": 2116,
    "▁maz": 2117,
    "▁Hi": 2118,
    "▁atbilst": 2119,
    "jā": 2120,
    "for": 2121,
    "han": 2122,
    "▁šie": 2123,
    "sime": 2124,
    "mb": 2125,
    "▁saistībā": 2126,
    "jumu": 2127,
    "▁быть": 2128,
    "▁lpp": 2129,
    "▁However": 2130,
    "▁decision": 2131,
    "▁lie": 2132,
    "▁kurā": 2133,
    "▁Kar": 2134,
    "▁atbalsta": 2135,
    "ska": 2136,
    "▁Parlamendi": 2137,
    "▁Fa": 2138,
    "▁give": 2139,
    "▁mil": 2140,
    "▁vaid": 2141,
    "▁aine": 2142,
    "▁total": 2143,
    "▁veikt": 2144,
    "▁less": 2145,
    "▁vuoksi": 2146,
    "▁рас": 2147,
    "▁200": 2148,
    "ised": 2149,
    "▁том": 2150,
    "▁maksa": 2151,
    "end": 2152,
    "▁Auf": 2153,
    "ras": 2154,
    "▁vali": 2155,
    "▁side": 2156,
    "▁free": 2157,
    "▁Jahr": 2158,
    "0": 2159,
    "▁Mitgliedstaat": 2160,
    "▁võivad": 2161,
    "ations": 2162,
    "▁[3]": 2163,
    "▁December": 2164,
    "▁Parlamenta": 2165,
    "imus": 2166,
    "dom": 2167,
    "▁ties": 2168,
    "▁doch": 2169,
    "act": 2170,
    "ual": 2171,
    "▁Va": 2172,
    "ф": 2173,
    "▁second": 2174,
    "А": 2175,
    "eeritud": 2176,
    "га": 2177,
    "▁Jo": 2178,
    "▁lõikes": 2179,
    "▁least": 2180,
    "▁allen": 2181,
    "▁tätä": 2182,
    "▁seoses": 2183,
    "▁võimalik": 2184,
    "ard": 2185,
    "eks": 2186,
    "▁kungs": 2187,
    "▁health": 2188,
    "ola": 2189,
    "nd": 2190,
    "▁pus": 2191,
    "▁cooperation": 2192,
    "▁sei": 2193,
    "cer": 2194,
    "▁когда": 2195,
    "tika": 2196,
    "▁resolution": 2197,
    "jums": 2198,
    "▁нас": 2199,
    "▁general": 2200,
    "▁tirgus": 2201,
    "▁samuti": 2202,
    "ame": 2203,
    "▁välis": 2204,
    "▁hu": 2205,
    "▁procedure": 2206,
    "▁ре": 2207,
    "▁Pre": 2208,
    "ect": 2209,
    "▁32": 2210,
    "ida": 2211,
    "▁General": 2212,
    "▁September": 2213,
    "▁bank": 2214,
    "▁As": 2215,
    "▁Verfahren": 2216,
    "▁So": 2217,
    "▁toks": 2218,
    "▁while": 2219,
    "90": 2220,
    "▁maž": 2221,
    "matu": 2222,
    "▁Lu": 2223,
    "21": 2224,
    "▁=": 2225,
    "▁tiedot": 2226,
    "▁visu": 2227,
    "▁μ": 2228,
    "▁folgende": 2229,
    "ęs": 2230,
    "▁eikä": 2231,
    "kseen": 2232,
    "kau": 2233,
    "8/": 2234,
    "▁ottaa": 2235,
    "ress": 2236,
    "▁hea": 2237,
    "▁Di": 2238,
    "ris": 2239,
    "▁gestützt": 2240,
    "zeit": 2241,
    "ния": 2242,
    "▁Ru": 2243,
    "▁jetzt": 2244,
    "ди": 2245,
    "▁based": 2246,
    "ult": 2247,
    "▁life": 2248,
    "▁pi": 2249,
    "che": 2250,
    "▁Mi": 2251,
    "ние": 2252,
    "▁every": 2253,
    "▁pirm": 2254,
    "▁applicable": 2255,
    "▁würde": 2256,
    "▁только": 2257,
    "▁find": 2258,
    "▁п": 2259,
    "2007": 2260,
    "uch": 2261,
    "sto": 2262,
    "▁jotta": 2263,
    "▁leid": 2264,
    "▁osutatud": 2265,
    "▁punkti": 2266,
    "ron": 2267,
    "ines": 2268,
    "lī": 2269,
    "▁nors": 2270,
    "▁soovi": 2271,
    "▁kitų": 2272,
    "kus": 2273,
    "▁Ф": 2274,
    "▁informāciju": 2275,
    "▁gadā": 2276,
    "ellen": 2277,
    "oni": 2278,
    "▁užtikrinti": 2279,
    "inimo": 2280,
    "0000": 2281,
    "не": 2282,
    "▁selles": 2283,
    "▁children": 2284,
    "▁pielikumā": 2285,
    "uta": 2286,
    "▁gilt": 2287,
    "▁45": 2288,
    "▁gut": 2289,
    "▁arvo": 2290,
    "▁laid": 2291,
    "▁vahel": 2292,
    "dis": 2293,
    "▁lisas": 2294,
    "kārt": 2295,
    "▁whether": 2296,
    "ное": 2297,
    "▁Bo": 2298,
    "pp": 2299,
    "▁36": 2300,
    "▁Sta": 2301,
    "▁sta": 2302,
    "▁teie": 2303,
    "ībā": 2304,
    "dik": 2305,
    "ке": 2306,
    "viet": 2307,
    "▁nie": 2308,
    "▁sch": 2309,
    "17": 2310,
    "▁rinkos": 2311,
    "▁straipsnyje": 2312,
    "isko": 2313,
    "▁price": 2314,
    "▁33": 2315,
    "ndus": 2316,
    "▁aastal": 2317,
    "▁тебе": 2318,
    "▁Tag": 2319,
    "ale": 2320,
    "35": 2321,
    "pin": 2322,
    "▁unsere": 2323,
    "ään": 2324,
    "čių": 2325,
    "▁она": 2326,
    "▁water": 2327,
    "if": 2328,
    "уд": 2329,
    "▁say": 2330,
    "res": 2331,
    "▁produktų": 2332,
    "▁Man": 2333,
    "bel": 2334,
    "kti": 2335,
    "▁erforderlich": 2336,
    "schaft": 2337,
    "▁dokument": 2338,
    "vor": 2339,
    "▁question": 2340,
    "yb": 2341,
    "▁Arzneimittel": 2342,
    "▁Ke": 2343,
    "▁ее": 2344,
    "one": 2345,
    "▁women": 2346,
    "ду": 2347,
    "kka": 2348,
    "ps": 2349,
    "▁informācija": 2350,
    "▁olevan": 2351,
    "port": 2352,
    "80": 2353,
    "▁look": 2354,
    "pat": 2355,
    "▁möglich": 2356,
    "wa": 2357,
    "▁ti": 2358,
    "ēju": 2359,
    "▁dir": 2360,
    "▁pantā": 2361,
    "▁patsientidel": 2362,
    "▁kolme": 2363,
    "▁Abschnitt": 2364,
    "▁finants": 2365,
    "▁Объединенны": 2366,
    "▁kirja": 2367,
    "их": 2368,
    "▁Reglamento": 2369,
    "▁juhul": 2370,
    "mer": 2371,
    "ģi": 2372,
    "ism": 2373,
    "kuu": 2374,
    "▁energy": 2375,
    "eeri": 2376,
    "▁established": 2377,
    "pie": 2378,
    "по": 2379,
    "öö": 2380,
    "▁zāļu": 2381,
    "▁joita": 2382,
    "▁priede": 2383,
    "ttaa": 2384,
    "▁kä": 2385,
    "▁sil": 2386,
    "maa": 2387,
    "▁Наций": 2388,
    "▁ravimi": 2389,
    "▁November": 2390,
    "▁šių": 2391,
    "ep": 2392,
    "▁concerning": 2393,
    "ture": 2394,
    "oper": 2395,
    "▁прав": 2396,
    "▁время": 2397,
    "▁jäsenvaltioiden": 2398,
    "▁2006.": 2399,
    "▁tead": 2400,
    "aug": 2401,
    "▁Per": 2402,
    "kään": 2403,
    "▁yhteisön": 2404,
    "▁taking": 2405,
    "▁ras": 2406,
    "▁чем": 2407,
    "▁Tačiau": 2408,
    "ves": 2409,
    "tuse": 2410,
    "▁viel": 2411,
    "essa": 2412,
    "▁jį": 2413,
    "▁believe": 2414,
    "sak": 2415,
    "ajām": 2416,
    "▁Euro": 2417,
    "ima": 2418,
    "ET": 2419,
    "▁thereof": 2420,
    "ств": 2421,
    "▁vienas": 2422,
    "▁да": 2423,
    "▁innerhalb": 2424,
    "97": 2425,
    "▁kuo": 2426,
    "▁aug": 2427,
    "▁Con": 2428,
    "▁ма": 2429,
    "▁34": 2430,
    "ere": 2431,
    "▁Markt": 2432,
    "▁Jums": 2433,
    "▁group": 2434,
    "ow": 2435,
    "▁Land": 2436,
    "ūs": 2437,
    "▁нет": 2438,
    "isesti": 2439,
    "▁kesk": 2440,
    "din": 2441,
    "šanās": 2442,
    "▁võtta": 2443,
    "▁9.": 2444,
    "▁Tomēr": 2445,
    "teet": 2446,
    "▁nor": 2447,
    "▁ollut": 2448,
    "▁dabar": 2449,
    "▁kohdassa": 2450,
    "dz": 2451,
    "▁Finanz": 2452,
    "▁meil": 2453,
    "став": 2454,
    "98": 2455,
    "▁(4)": 2456,
    "▁toliau": 2457,
    "▁vienu": 2458,
    "▁nevar": 2459,
    "▁ava": 2460,
    "▁produktu": 2461,
    "▁CYP": 2462,
    "ēja": 2463,
    "tö": 2464,
    "▁result": 2465,
    "▁Г": 2466,
    "kal": 2467,
    "▁inform": 2468,
    "▁opinion": 2469,
    "AS": 2470,
    "▁12.": 2471,
    "▁type": 2472,
    "ную": 2473,
    "▁2004.": 2474,
    "▁eks": 2475,
    "▁let": 2476,
    "mes": 2477,
    "išk": 2478,
    "или": 2479,
    "▁poli": 2480,
    "atori": 2481,
    "▁hyvä": 2482,
    "olog": 2483,
    "dos": 2484,
    "ать": 2485,
    "▁palju": 2486,
    "▁effects": 2487,
    "tal": 2488,
    "▁saab": 2489,
    "▁nüüd": 2490,
    "omi": 2491,
    "eja": 2492,
    "ole": 2493,
    "ogen": 2494,
    "▁Insulin": 2495,
    "iski": 2496,
    "▁dich": 2497,
    "ņem": 2498,
    "ο": 2499,
    "▁более": 2500,
    "▁Fall": 2501,
    "▁käsi": 2502,
    "▁Republic": 2503,
    "pul": 2504,
    "▁nustatyta": 2505,
    "▁management": 2506,
    "▁zurück": 2507,
    "zo": 2508,
    "▁70": 2509,
    "pr": 2510,
    "▁де": 2511,
    "▁10.": 2512,
    "▁change": 2513,
    "▁list": 2514,
    "зи": 2515,
    "02": 2516,
    "▁programme": 2517,
    "▁sillä": 2518,
    "ēšanas": 2519,
    "▁mie": 2520,
    "▁hänen": 2521,
    "▁course": 2522,
    "▁kokku": 2523,
    "oitu": 2524,
    "▁Организации": 2525,
    "sü": 2526,
    "▁Д": 2527,
    "▁men": 2528,
    "▁37": 2529,
    "▁kla": 2530,
    "siehe": 2531,
    "”.": 2532,
    "dega": 2533,
    "▁atitinka": 2534,
    "iku": 2535,
    "16": 2536,
    "▁already": 2537,
    "▁atsi": 2538,
    "▁vartoti": 2539,
    "▁*": 2540,
    "▁Jahren": 2541,
    "▁tava": 2542,
    "▁2015": 2543,
    "▁uusi": 2544,
    "hl": 2545,
    "▁Frau": 2546,
    "mai": 2547,
    "ör": 2548,
    "▁48": 2549,
    "▁Bank": 2550,
    "don": 2551,
    "▁atsižvelgiant": 2552,
    "▁waren": 2553,
    "skai": 2554,
    "▁alles": 2555,
    "▁transporto": 2556,
    "/1": 2557,
    "▁itse": 2558,
    "ella": 2559,
    "▁11.": 2560,
    "▁amount": 2561,
    "▁adopted": 2562,
    "▁otsus": 2563,
    "▁Min": 2564,
    "▁olet": 2565,
    "ika": 2566,
    "2008": 2567,
    "▁pen": 2568,
    "ny": 2569,
    "tatud": 2570,
    "▁tiem": 2571,
    "yje": 2572,
    "schen": 2573,
    "PA": 2574,
    "ltä": 2575,
    "▁г": 2576,
    "juma": 2577,
    "str": 2578,
    "ip": 2579,
    "inius": 2580,
    "iškai": 2581,
    "▁15.": 2582,
    "▁pasākumi": 2583,
    "▁šī": 2584,
    "▁kindlaks": 2585,
    "▁iestādes": 2586,
    "▁teis": 2587,
    "taja": 2588,
    "▁yleis": 2589,
    "bau": 2590,
    "▁kahe": 2591,
    "▁varten": 2592,
    "om": 2593,
    "▁pl": 2594,
    "22": 2595,
    "▁teiste": 2596,
    "ena": 2597,
    "▁sava": 2598,
    "▁mõju": 2599,
    "gas": 2600,
    "šanos": 2601,
    "▁todėl": 2602,
    "avo": 2603,
    "OS": 2604,
    "isku": 2605,
    "▁sul": 2606,
    "▁schon": 2607,
    "па": 2608,
    "kku": 2609,
    "▁puu": 2610,
    "uši": 2611,
    "▁(2": 2612,
    "▁этого": 2613,
    "-1": 2614,
    "▁vuoden": 2615,
    "7/": 2616,
    "iją": 2617,
    "▁ega": 2618,
    "ring": 2619,
    "aika": 2620,
    "(2)": 2621,
    "▁best": 2622,
    "ukset": 2623,
    "▁got": 2624,
    "ви": 2625,
    "▁Har": 2626,
    "▁Käesolev": 2627,
    "▁sal": 2628,
    "▁nosaka": 2629,
    "▁action": 2630,
    "▁Sicherheit": 2631,
    "ются": 2632,
    "▁joiden": 2633,
    "▁done": 2634,
    "▁dalībvalstīm": 2635,
    "▁above": 2636,
    "eksi": 2637,
    "▁olemme": 2638,
    "▁kuriem": 2639,
    "mor": 2640,
    "▁seit": 2641,
    "ome": 2642,
    "▁present": 2643,
    "zen": 2644,
    "▁enter": 2645,
    "dr": 2646,
    "▁enam": 2647,
    "▁April": 2648,
    "Е": 2649,
    "(1)": 2650,
    "ность": 2651,
    "2003": 2652,
    "ба": 2653,
    "О": 2654,
    "merk": 2655,
    "▁tell": 2656,
    "ņu": 2657,
    "tiin": 2658,
    "▁turu": 2659,
    "its": 2660,
    "ition": 2661,
    "▁issue": 2662,
    "▁vielä": 2663,
    "70": 2664,
    "dama": 2665,
    "▁regulas": 2666,
    "▁land": 2667,
    "75": 2668,
    "2002": 2669,
    "▁šalių": 2670,
    "▁juba": 2671,
    "stab": 2672,
    "valt": 2673,
    "uksia": 2674,
    "▁lisä": 2675,
    "iko": 2676,
    "pus": 2677,
    "▁minä": 2678,
    "▁riikide": 2679,
    "▁another": 2680,
    "▁continue": 2681,
    "▁pal": 2682,
    "▁weiter": 2683,
    "▁dazu": 2684,
    "▁food": 2685,
    "▁esam": 2686,
    "▁required": 2687,
    "2000": 2688,
    "▁skirti": 2689,
    "kse": 2690,
    "▁tyrimų": 2691,
    "▁2017": 2692,
    "iste": 2693,
    "imai": 2694,
    "pre": 2695,
    "▁teise": 2696,
    "▁taikomas": 2697,
    "▁considered": 2698,
    "▁person": 2699,
    "▁piemēro": 2700,
    "▁today": 2701,
    "▁есть": 2702,
    "▁neue": 2703,
    "▁ли": 2704,
    "ick": 2705,
    "ios": 2706,
    "2013": 2707,
    "▁ant": 2708,
    "▁personal": 2709,
    "▁future": 2710,
    "▁deren": 2711,
    "▁стран": 2712,
    "▁Vertrag": 2713,
    "kke": 2714,
    "▁peavad": 2715,
    "▁tapa": 2716,
    "▁line": 2717,
    "▁geht": 2718,
    "во": 2719,
    "▁Priekšsēdētāja": 2720,
    "▁°": 2721,
    "▁integr": 2722,
    "▁Ziel": 2723,
    "▁lietot": 2724,
    "kü": 2725,
    "▁[4]": 2726,
    "ēs": 2727,
    "▁elu": 2728,
    "ität": 2729,
    "▁kaitse": 2730,
    "99": 2731,
    "▁vald": 2732,
    "mien": 2733,
    "▁competent": 2734,
    "osa": 2735,
    "▁Bürger": 2736,
    "▁nimel": 2737,
    "▁dienas": 2738,
    "▁technical": 2739,
    "▁Unter": 2740,
    "ļu": 2741,
    "▁seiner": 2742,
    "kis": 2743,
    "ability": 2744,
    "2005": 2745,
    "▁pirma": 2746,
    "▁cannot": 2747,
    "▁miten": 2748,
    "▁1998": 2749,
    "▁Kraft": 2750,
    "▁Ent": 2751,
    "▁darauf": 2752,
    "ymo": 2753,
    "▁hin": 2754,
    "▁months": 2755,
    "gr": 2756,
    "ase": 2757,
    "▁viņa": 2758,
    "▁duomenų": 2759,
    "▁welche": 2760,
    "▁summa": 2761,
    "nsä": 2762,
    "āla": 2763,
    "▁Si": 2764,
    "▁annuse": 2765,
    "▁Grund": 2766,
    "▁dalībvalsts": 2767,
    "tum": 2768,
    "▁tee": 2769,
    "▁30.": 2770,
    "č": 2771,
    "mistä": 2772,
    "▁days": 2773,
    "osta": 2774,
    "tr": 2775,
    "ities": 2776,
    "sent": 2777,
    "1999": 2778,
    "ма": 2779,
    "OL": 2780,
    "abi": 2781,
    "▁establishing": 2782,
    "▁amended": 2783,
    "▁St": 2784,
    "▁midagi": 2785,
    "▁kuriems": 2786,
    "▁Sp": 2787,
    "▁blood": 2788,
    "aali": 2789,
    "▁insuliini": 2790,
    "ee": 2791,
    "▁standard": 2792,
    "тор": 2793,
    "rid": 2794,
    "▁vähemalt": 2795,
    "teil": 2796,
    "▁service": 2797,
    "▁example": 2798,
    "▁areas": 2799,
    "Н": 2800,
    "▁bereits": 2801,
    "▁500": 2802,
    "mar": 2803,
    "ну": 2804,
    "tuksen": 2805,
    "eid": 2806,
    "▁weitere": 2807,
    "▁million": 2808,
    "hin": 2809,
    "▁39": 2810,
    "▁ser": 2811,
    "ping": 2812,
    "tut": 2813,
    "▁citu": 2814,
    "▁Dezember": 2815,
    "reiz": 2816,
    "ca": 2817,
    "▁siihen": 2818,
    "▁X": 2819,
    "ут": 2820,
    "▁vieno": 2821,
    "tetaan": 2822,
    "▁Um": 2823,
    "Р": 2824,
    "▁osas": 2825,
    "▁käy": 2826,
    "▁vers": 2827,
    "нов": 2828,
    "▁reference": 2829,
    "▁regional": 2830,
    "▁drei": 2831,
    "93": 2832,
    "▁pagalbos": 2833,
    "vil": 2834,
    "kro": 2835,
    ".”": 2836,
    "ал": 2837,
    "▁mas": 2838,
    "▁Behörden": 2839,
    "▁VI": 2840,
    "▁toime": 2841,
    "▁tieši": 2842,
    "▁puolesta": 2843,
    "▁Schutz": 2844,
    "kre": 2845,
    "▁Ju": 2846,
    "tais": 2847,
    "▁põllumajandus": 2848,
    "▁apsaugos": 2849,
    "▁käyttö": 2850,
    "▁määri": 2851,
    "rant": 2852,
    "uk": 2853,
    "▁Jah": 2854,
    "▁põhi": 2855,
    "▁pur": 2856,
    "▁effect": 2857,
    "▁position": 2858,
    "tamine": 2859,
    "ūt": 2860,
    "▁power": 2861,
    "▁Form": 2862,
    "▁USA": 2863,
    "▁viņš": 2864,
    "▁piemēram": 2865,
    "▁And": 2866,
    "▁Angaben": 2867,
    "2010": 2868,
    "▁datu": 2869,
    "▁lēmumu": 2870,
    "▁Так": 2871,
    "ming": 2872,
    "▁žemės": 2873,
    "▁rohkem": 2874,
    "дер": 2875,
    "lon": 2876,
    "nos": 2877,
    "пу": 2878,
    "▁sprendimas": 2879,
    "▁sistemos": 2880,
    "▁vara": 2881,
    "▁head": 2882,
    "cy": 2883,
    "▁dalībvalstu": 2884,
    "▁June": 2885,
    "▁machen": 2886,
    "xi": 2887,
    "▁sector": 2888,
    "▁Über": 2889,
    "kur": 2890,
    "▁access": 2891,
    "▁mikä": 2892,
    "▁clear": 2893,
    "tavate": 2894,
    "▁tačiau": 2895,
    "šanā": 2896,
    "dele": 2897,
    "▁authority": 2898,
    "acija": 2899,
    "▁weil": 2900,
    "utu": 2901,
    "dest": 2902,
    "vē": 2903,
    "28": 2904,
    "▁individual": 2905,
    "icht": 2906,
    "▁150": 2907,
    "▁Bu": 2908,
    "▁worden": 2909,
    "2014": 2910,
    "▁valstu": 2911,
    "igkeit": 2912,
    "á": 2913,
    "▁cases": 2914,
    "▁įskaitant": 2915,
    "▁ražošanas": 2916,
    "▁norėčiau": 2917,
    "▁nime": 2918,
    "▁el": 2919,
    "▁rahoitus": 2920,
    "▁viņu": 2921,
    "▁review": 2922,
    "kaan": 2923,
    "▁geändert": 2924,
    "cil": 2925,
    "tun": 2926,
    "kommen": 2927,
    "▁far": 2928,
    "▁edasi": 2929,
    "▁impordi": 2930,
    "īnu": 2931,
    "▁mmol": 2932,
    "süsteemi": 2933,
    ".12.": 2934,
    "▁Ex": 2935,
    "▁kartą": 2936,
    "сто": 2937,
    "▁Car": 2938,
    "2,": 2939,
    "▁lisäksi": 2940,
    "▁pass": 2941,
    "03": 2942,
    "ible": 2943,
    "▁bitte": 2944,
    "▁juhataja": 2945,
    "log": 2946,
    "kir": 2947,
    "▁visus": 2948,
    "▁šią": 2949,
    "▁Regierung": 2950,
    "▁еще": 2951,
    "Д": 2952,
    "▁Pe": 2953,
    "▁sü": 2954,
    "▁past": 2955,
    "▁sistēmas": 2956,
    "мен": 2957,
    "▁agreement": 2958,
    "▁loo": 2959,
    "võt": 2960,
    "мо": 2961,
    "▁olnud": 2962,
    "ravi": 2963,
    "Re": 2964,
    "▁dafür": 2965,
    "▁fa": 2966,
    "▁тем": 2967,
    "▁juos": 2968,
    "nių": 2969,
    "▁kohtu": 2970,
    "▁turpmāk": 2971,
    "▁value": 2972,
    "▁Ga": 2973,
    "▁zusammen": 2974,
    "cija": 2975,
    "▁rate": 2976,
    "▁status": 2977,
    "ства": 2978,
    "▁Э": 2979,
    "▁kuna": 2980,
    "▁20.": 2981,
    "▁Bezug": 2982,
    "▁koskevat": 2983,
    "ости": 2984,
    "0/": 2985,
    "RA": 2986,
    "▁problem": 2987,
    "▁selbst": 2988,
    "04": 2989,
    "▁artiklis": 2990,
    "PL": 2991,
    "tamise": 2992,
    "45": 2993,
    "āli": 2994,
    "ction": 2995,
    "▁able": 2996,
    "udu": 2997,
    "fall": 2998,
    "kkaa": 2999,
    "чи": 3000,
    "▁suun": 3001,
    "▁€": 3002,
    "tettu": 3003,
    "but": 3004,
    "▁denn": 3005,
    "▁fest": 3006,
    "ike": 3007,
    "»": 3008,
    "▁pasākumus": 3009,
    "▁02": 3010,
    "К": 3011,
    "▁San": 3012,
    "▁body": 3013,
    "▁heute": 3014,
    "▁working": 3015,
    "▁safety": 3016,
    "▁За": 3017,
    "mään": 3018,
    "▁sicher": 3019,
    "23": 3020,
    "imui": 3021,
    "tettava": 3022,
    "▁Bereich": 3023,
    "▁ūkio": 3024,
    "ib": 3025,
    "ном": 3026,
    "sh": 3027,
    "▁pieņemt": 3028,
    "▁termin": 3029,
    "▁Hei": 3030,
    "2011": 3031,
    "olo": 3032,
    "▁könnte": 3033,
    "▁tästä": 3034,
    "36": 3035,
    "kr": 3036,
    "bil": 3037,
    "▁nesu": 3038,
    "mittel": 3039,
    "▁izmanto": 3040,
    "И": 3041,
    "ļa": 3042,
    "▁antaa": 3043,
    "/3": 3044,
    "▁Ti": 3045,
    "▁light": 3046,
    "▁sano": 3047,
    "би": 3048,
    "▁results": 3049,
    "▁hyväksy": 3050,
    "▁mitme": 3051,
    "rā": 3052,
    "▁Du": 3053,
    "▁until": 3054,
    "06": 3055,
    "stand": 3056,
    "▁Buchstabe": 3057,
    "ert": 3058,
    "ants": 3059,
    "▁Ad": 3060,
    "▁tohi": 3061,
    "▁ihn": 3062,
    "▁pain": 3063,
    "▁tekst": 3064,
    "▁become": 3065,
    "▁going": 3066,
    "▁pacientams": 3067,
    "▁priemones": 3068,
    "gra": 3069,
    "ems": 3070,
    "▁vir": 3071,
    "▁01": 3072,
    "šk": 3073,
    "▁europäischen": 3074,
    "68": 3075,
    "▁gr": 3076,
    "▁para": 3077,
    "darb": 3078,
    "itte": 3079,
    "▁pitäisi": 3080,
    "īs": 3081,
    "▁Group": 3082,
    "▁members": 3083,
    "▁majandus": 3084,
    "▁sisse": 3085,
    "ord": 3086,
    "▁näin": 3087,
    "▁käyttää": 3088,
    "▁using": 3089,
    "▁Risiko": 3090,
    "▁according": 3091,
    "29": 3092,
    "▁sure": 3093,
    "▁päeva": 3094,
    "lio": 3095,
    "ос": 3096,
    "PT": 3097,
    "▁small": 3098,
    "▁oled": 3099,
    "ak": 3100,
    "ны": 3101,
    "▁aufgrund": 3102,
    "▁str": 3103,
    "aan": 3104,
    "lau": 3105,
    "пер": 3106,
    "31": 3107,
    "▁Unterstützung": 3108,
    "▁знаю": 3109,
    "прав": 3110,
    "▁great": 3111,
    "▁Ca": 3112,
    "▁reglamentą": 3113,
    "itse": 3114,
    "▁21.": 3115,
    "▁proposal": 3116,
    "▁kõige": 3117,
    "▁iepriekš": 3118,
    "▁tehty": 3119,
    "▁osale": 3120,
    "ning": 3121,
    "vt": 3122,
    "▁>": 3123,
    "▁kord": 3124,
    "▁2007.": 3125,
    "▁kuulu": 3126,
    "▁viime": 3127,
    "▁asetus": 3128,
    "▁UN": 3129,
    "kai": 3130,
    "▁atbalstu": 3131,
    "tavad": 3132,
    "FR": 3133,
    "▁bring": 3134,
    "▁institucijos": 3135,
    "▁insulin": 3136,
    "▁piemērot": 3137,
    "▁väli": 3138,
    "uc": 3139,
    "▁annettu": 3140,
    "net": 3141,
    "▁Rück": 3142,
    "▁found": 3143,
    "qua": 3144,
    "sul": 3145,
    "▁Ü": 3146,
    "▁Bestimmungen": 3147,
    "▁mazāk": 3148,
    "▁Je": 3149,
    "▁Pharma": 3150,
    "pf": 3151,
    "▁Ste": 3152,
    "ili": 3153,
    "plan": 3154,
    "▁veiklos": 3155,
    "▁epä": 3156,
    "▁lange": 3157,
    "▁iespējams": 3158,
    "▁Bedingungen": 3159,
    "esti": 3160,
    "skat": 3161,
    "nia": 3162,
    "▁full": 3163,
    "gon": 3164,
    "▁13.": 3165,
    "34": 3166,
    "▁Генеральн": 3167,
    "▁business": 3168,
    "▁pateikti": 3169,
    "”,": 3170,
    "▁17.": 3171,
    "46": 3172,
    "ша": 3173,
    "▁tunne": 3174,
    "vasta": 3175,
    "▁voivat": 3176,
    "ally": 3177,
    "α": 3178,
    "▁kurį": 3179,
    "▁pirmininke": 3180,
    "▁Ku": 3181,
    "▁meetmed": 3182,
    "cu": 3183,
    "▁prekybos": 3184,
    "eb": 3185,
    "▁Dosis": 3186,
    "94": 3187,
    "вод": 3188,
    "26": 3189,
    "umā": 3190,
    "ēl": 3191,
    "ec": 3192,
    "čio": 3193,
    "▁sniegt": 3194,
    "▁м": 3195,
    "▁этом": 3196,
    "▁darf": 3197,
    "▁section": 3198,
    "▁больше": 3199,
    "ava": 3200,
    "▁increased": 3201,
    "▁Ihnen": 3202,
    "▁eelkõige": 3203,
    "▁soll": 3204,
    "жи": 3205,
    "▁täna": 3206,
    "ote": 3207,
    "iksi": 3208,
    "▁einschließlich": 3209,
    "▁civil": 3210,
    "▁muud": 3211,
    "rate": 3212,
    "▁mean": 3213,
    "gar": 3214,
    "▁są": 3215,
    "▁dēļ": 3216,
    "AN": 3217,
    "een": 3218,
    "▁Zusammenarbeit": 3219,
    "rin": 3220,
    "▁Bi": 3221,
    "ok": 3222,
    "gul": 3223,
    "misesta": 3224,
    "▁Wirtschafts": 3225,
    "▁22.": 3226,
    "asi": 3227,
    "▁noteikumus": 3228,
    "▁Beschluss": 3229,
    "▁better": 3230,
    "▁kop": 3231,
    "▁goods": 3232,
    "▁1997": 3233,
    "▁Arbeit": 3234,
    "ppa": 3235,
    "▁turime": 3236,
    "▁sitten": 3237,
    "▁neuen": 3238,
    "▁kohaldatav": 3239,
    "▁HIV": 3240,
    "olu": 3241,
    "▁kuul": 3242,
    "ėje": 3243,
    "*": 3244,
    "iniu": 3245,
    "▁85": 3246,
    "1)": 3247,
    "▁meetmete": 3248,
    "▁additional": 3249,
    "▁costs": 3250,
    "▁arengu": 3251,
    "▁play": 3252,
    "iseen": 3253,
    "▁2020": 3254,
    "▁просто": 3255,
    "▁resources": 3256,
    "halt": 3257,
    "96": 3258,
    "▁keep": 3259,
    "utus": 3260,
    "▁были": 3261,
    "фи": 3262,
    "▁dl": 3263,
    "ots": 3264,
    "▁16.": 3265,
    "▁ehdot": 3266,
    "isation": 3267,
    "hy": 3268,
    "▁peame": 3269,
    "▁Human": 3270,
    "tab": 3271,
    "▁asia": 3272,
    ".6.": 3273,
    "▁tõ": 3274,
    "▁koskeva": 3275,
    "▁request": 3276,
    "▁Qu": 3277,
    "стр": 3278,
    "▁straipsnį": 3279,
    "▁alates": 3280,
    "▁tegevus": 3281,
    "ša": 3282,
    "вы": 3283,
    "▁toodete": 3284,
    "ными": 3285,
    "čiau": 3286,
    "arbeit": 3287,
    "īga": 3288,
    "▁off": 3289,
    "▁кон": 3290,
    "▁muiden": 3291,
    "▁einige": 3292,
    "pen": 3293,
    "▁January": 3294,
    "sim": 3295,
    "▁budget": 3296,
    "▁davon": 3297,
    "alan": 3298,
    "mā": 3299,
    "▁je": 3300,
    "essä": 3301,
    "▁kiek": 3302,
    "pild": 3303,
    "▁уже": 3304,
    "kor": 3305,
    "▁laika": 3306,
    "▁fakt": 3307,
    "En": 3308,
    "poliitika": 3309,
    "▁hinna": 3310,
    "koha": 3311,
    "▁Arzt": 3312,
    "▁ин": 3313,
    "dami": 3314,
    "lah": 3315,
    "▁eelarve": 3316,
    "▁System": 3317,
    "47": 3318,
    "last": 3319,
    "▁importo": 3320,
    "▁element": 3321,
    "▁include": 3322,
    "▁Vorschriften": 3323,
    "▁share": 3324,
    "▁henkilö": 3325,
    "avimas": 3326,
    "nik": 3327,
    "▁neat": 3328,
    "▁14.": 3329,
    "3,": 3330,
    "▁Frage": 3331,
    "una": 3332,
    "tatakse": 3333,
    "2001": 3334,
    "ted": 3335,
    "▁Ну": 3336,
    "▁sopimuksen": 3337,
    "55": 3338,
    "▁suure": 3339,
    "▁87": 3340,
    "lai": 3341,
    "▁teil": 3342,
    "rī": 3343,
    "▁partner": 3344,
    "lar": 3345,
    "ции": 3346,
    "▁2008.": 3347,
    "▁kaks": 3348,
    "▁doctor": 3349,
    "▁once": 3350,
    "▁kein": 3351,
    "▁fi": 3352,
    "▁56": 3353,
    "▁progress": 3354,
    "▁levels": 3355,
    "mok": 3356,
    "ент": 3357,
    "▁osallistu": 3358,
    "ству": 3359,
    "oon": 3360,
    "▁imports": 3361,
    "nčių": 3362,
    "fl": 3363,
    "▁prices": 3364,
    "In": 3365,
    "▁private": 3366,
    "▁remiantis": 3367,
    "TI": 3368,
    "▁tokia": 3369,
    "1,": 3370,
    "▁plasma": 3371,
    "тер": 3372,
    "▁atitinkam": 3373,
    "▁air": 3374,
    "▁pu": 3375,
    "▁здесь": 3376,
    "▁мо": 3377,
    "laik": 3378,
    "▁sondern": 3379,
    "▁state": 3380,
    "▁38": 3381,
    "▁Mon": 3382,
    "▁kom": 3383,
    "▁klar": 3384,
    "П": 3385,
    "▁Jahre": 3386,
    "lü": 3387,
    "aatti": 3388,
    "▁lõik": 3389,
    "ev": 3390,
    "kohta": 3391,
    "uus": 3392,
    "ин": 3393,
    "ciju": 3394,
    "▁liitteessä": 3395,
    "▁jābūt": 3396,
    "▁aihe": 3397,
    "sy": 3398,
    "gal": 3399,
    "▁Convention": 3400,
    "ali": 3401,
    "▁drošības": 3402,
    "rie": 3403,
    "punkt": 3404,
    "spekt": 3405,
    "▁kr": 3406,
    "fici": 3407,
    "elt": 3408,
    "▁visa": 3409,
    "▁ко": 3410,
    "erg": 3411,
    "▁sc": 3412,
    "lut": 3413,
    "▁ur": 3414,
    "▁laiku": 3415,
    "ению": 3416,
    "TA": 3417,
    "eg": 3418,
    "ef": 3419,
    "▁kiekis": 3420,
    "▁ajan": 3421,
    "▁ulko": 3422,
    "▁current": 3423,
    "▁seal": 3424,
    "aine": 3425,
    "▁valstīm": 3426,
    "▁Ltd": 3427,
    "▁industry": 3428,
    "arvo": 3429,
    "vid": 3430,
    "vus": 3431,
    "▁Länder": 3432,
    "rah": 3433,
    "▁rat": 3434,
    "stellen": 3435,
    "▁führen": 3436,
    "ierte": 3437,
    "▁arvioi": 3438,
    "▁muude": 3439,
    "▁minēto": 3440,
    "▁määrust": 3441,
    "▁oleme": 3442,
    "iä": 3443,
    "2009": 3444,
    "dic": 3445,
    "enz": 3446,
    "▁должны": 3447,
    "ник": 3448,
    "▁active": 3449,
    "▁Republik": 3450,
    "ministr": 3451,
    "▁normal": 3452,
    "▁darb": 3453,
    "ula": 3454,
    "▁[2],": 3455,
    "87": 3456,
    "▁järgi": 3457,
    "▁įtrauk": 3458,
    "▁tirgū": 3459,
    "steig": 3460,
    "▁effective": 3461,
    "ении": 3462,
    "▁Der": 3463,
    "nio": 3464,
    "▁Nein": 3465,
    "▁Tar": 3466,
    "▁šiame": 3467,
    "tom": 3468,
    "▁teksti": 3469,
    "лю": 3470,
    "2)": 3471,
    "dev": 3472,
    "▁manau": 3473,
    "▁Her": 3474,
    "▁tuleva": 3475,
    "▁44": 3476,
    "TE": 3477,
    "▁kodu": 3478,
    "▁pursuan": 3479,
    "▁gadu": 3480,
    "33": 3481,
    "▁interest": 3482,
    "▁toiminta": 3483,
    "▁mein": 3484,
    "trauk": 3485,
    "ini": 3486,
    "▁vastaan": 3487,
    "▁quality": 3488,
    "▁government": 3489,
    "▁institutions": 3490,
    "bin": 3491,
    "▁без": 3492,
    "▁kuriuos": 3493,
    "▁ihm": 3494,
    "lit": 3495,
    "▁vismaz": 3496,
    "▁2009.": 3497,
    "▁weiß": 3498,
    "isuus": 3499,
    "▁table": 3500,
    "top": 3501,
    "▁parties": 3502,
    "▁field": 3503,
    "▁liidu": 3504,
    "▁tehdä": 3505,
    "▁due": 3506,
    "итель": 3507,
    "▁täytäntöönpano": 3508,
    "▁priekš": 3509,
    "▁prevent": 3510,
    "ите": 3511,
    "stellung": 3512,
    "ndi": 3513,
    "ttiin": 3514,
    "65": 3515,
    "▁July": 3516,
    "aal": 3517,
    "▁Änderung": 3518,
    "▁Zusammenhang": 3519,
    "▁dieną": 3520,
    "▁priedo": 3521,
    "siooni": 3522,
    "▁labi": 3523,
    "▁apakšpunktu": 3524,
    "▁sagen": 3525,
    "▁devas": 3526,
    "līdz": 3527,
    "tty": 3528,
    "▁Gal": 3529,
    "▁treči": 3530,
    "▁darüber": 3531,
    "▁negali": 3532,
    "▁korda": 3533,
    "▁nurodyta": 3534,
    "▁liit": 3535,
    "▁poveikis": 3536,
    "all": 3537,
    "▁gruodžio": 3538,
    "@": 3539,
    "▁code": 3540,
    "▁kopā": 3541,
    "дел": 3542,
    "bre": 3543,
    "Č": 3544,
    "ign": 3545,
    "▁kohaldatakse": 3546,
    "jan": 3547,
    "▁95": 3548,
    "▁laiko": 3549,
    "▁šā": 3550,
    "▁tehtävä": 3551,
    "из": 3552,
    "▁(0)": 3553,
    "▁kutsu": 3554,
    "▁perusteella": 3555,
    "▁Если": 3556,
    "ries": 3557,
    "▁kal": 3558,
    "▁sniedz": 3559,
    "cel": 3560,
    "āja": 3561,
    "hm": 3562,
    "▁Erzeugnisse": 3563,
    "SE": 3564,
    "▁stat": 3565,
    "uß": 3566,
    "▁ganz": 3567,
    "▁etwas": 3568,
    "▁Th": 3569,
    "▁valmis": 3570,
    "ėk": 3571,
    "reg": 3572,
    "ule": 3573,
    "rus": 3574,
    "▁nämä": 3575,
    "▁2018": 3576,
    "▁была": 3577,
    "▁pielikuma": 3578,
    "▁persons": 3579,
    "27": 3580,
    "nie": 3581,
    "Л": 3582,
    ".1.": 3583,
    "kit": 3584,
    "▁praegu": 3585,
    "▁together": 3586,
    "вед": 3587,
    "▁darbību": 3588,
    "▁company": 3589,
    "ros": 3590,
    "ков": 3591,
    "hän": 3592,
    "▁Vorschlag": 3593,
    "▁55": 3594,
    "▁minut": 3595,
    "recht": 3596,
    "ķi": 3597,
    "▁studies": 3598,
    "▁May": 3599,
    "stus": 3600,
    "▁1995": 3601,
    "▁Grundlage": 3602,
    "nus": 3603,
    "▁tirdzniecības": 3604,
    "yt": 3605,
    "▁home": 3606,
    "▁comp": 3607,
    "töö": 3608,
    "▁oltava": 3609,
    "čiai": 3610,
    "▁Kr": 3611,
    "▁wäre": 3612,
    "▁Or": 3613,
    "politik": 3614,
    "▁65": 3615,
    "▁mag": 3616,
    "71": 3617,
    "▁My": 3618,
    "aalse": 3619,
    "▁vieną": 3620,
    "tori": 3621,
    "▁open": 3622,
    "toja": 3623,
    "▁Government": 3624,
    "▁lauk": 3625,
    "ци": 3626,
    "▁systems": 3627,
    "gehen": 3628,
    "$": 3629,
    "pit": 3630,
    "kirja": 3631,
    "▁issues": 3632,
    "▁(5)": 3633,
    "ācija": 3634,
    "dė": 3635,
    "-2": 3636,
    "vara": 3637,
    "07": 3638,
    "▁kum": 3639,
    "ētu": 3640,
    "▁luba": 3641,
    "īgā": 3642,
    "tech": 3643,
    "▁devu": 3644,
    "▁Tu": 3645,
    "▁nedrīkst": 3646,
    "eri": 3647,
    "cher": 3648,
    "▁Ei": 3649,
    "like": 3650,
    "asis": 3651,
    "ieji": 3652,
    "▁pieņem": 3653,
    "▁tax": 3654,
    "tila": 3655,
    "nti": 3656,
    "ще": 3657,
    "▁bzw": 3658,
    "eva": 3659,
    "PS": 3660,
    "▁sinu": 3661,
    "īgs": 3662,
    "▁mikro": 3663,
    "▁turva": 3664,
    "damas": 3665,
    "▁Studien": 3666,
    "arba": 3667,
    "▁88": 3668,
    "ran": 3669,
    "ST": 3670,
    "▁informacijos": 3671,
    "jää": 3672,
    "vė": 3673,
    "▁needs": 3674,
    "▁niitä": 3675,
    "▁aller": 3676,
    "▁darbu": 3677,
    "▁paredz": 3678,
    "ца": 3679,
    "сс": 3680,
    "norm": 3681,
    "odi": 3682,
    "▁18.": 3683,
    "▁Gesamt": 3684,
    "▁jūsų": 3685,
    "▁satur": 3686,
    "▁hast": 3687,
    "▁vee": 3688,
    "▁1996": 3689,
    "▁toeta": 3690,
    "programm": 3691,
    "▁potilailla": 3692,
    "▁sektori": 3693,
    "▁export": 3694,
    "▁ela": 3695,
    "лен": 3696,
    "▁teabe": 3697,
    "tru": 3698,
    "▁rad": 3699,
    "▁next": 3700,
    "▁Rechts": 3701,
    "▁Ap": 3702,
    "▁kurią": 3703,
    "skatīt": 3704,
    "▁growth": 3705,
    "▁terms": 3706,
    "бер": 3707,
    "▁run": 3708,
    "maksu": 3709,
    "▁mažiau": 3710,
    "iams": 3711,
    "put": 3712,
    "▁ven": 3713,
    "▁Tre": 3714,
    "less": 3715,
    "ajai": 3716,
    "ustatud": 3717,
    "määrä": 3718,
    "▁tavo": 3719,
    "рав": 3720,
    "▁pla": 3721,
    "▁minun": 3722,
    "qu": 3723,
    "▁again": 3724,
    "imi": 3725,
    "бо": 3726,
    "ij": 3727,
    "▁related": 3728,
    "▁betreffenden": 3729,
    "uz": 3730,
    "▁nodrošinātu": 3731,
    "umiem": 3732,
    "▁19.": 3733,
    "bas": 3734,
    "▁tajā": 3735,
    "▁koskevan": 3736,
    "▁sinä": 3737,
    "▁allow": 3738,
    "▁pitää": 3739,
    "▁mulle": 3740,
    "▁vuonna": 3741,
    "▁Brüssel": 3742,
    "▁natürlich": 3743,
    "▁age": 3744,
    "▁really": 3745,
    "fo": 3746,
    "48": 3747,
    "pil": 3748,
    "▁42": 3749,
    "▁au": 3750,
    "2012": 3751,
    "▁arvestades": 3752,
    "tern": 3753,
    "▁США": 3754,
    "92": 3755,
    "▁Mal": 3756,
    "sija": 3757,
    "ирован": 3758,
    "žo": 3759,
    "iger": 3760,
    "▁liel": 3761,
    "▁Ba": 3762,
    "halten": 3763,
    "ūd": 3764,
    "▁Tāpēc": 3765,
    "▁kovo": 3766,
    "▁Regula": 3767,
    "лись": 3768,
    "trag": 3769,
    "▁nun": 3770,
    "▁kommen": 3771,
    "ред": 3772,
    "▁local": 3773,
    "tės": 3774,
    "39": 3775,
    "▁daļa": 3776,
    "▁among": 3777,
    "kš": 3778,
    "▁administration": 3779,
    "▁Stellungnahme": 3780,
    "press": 3781,
    "▁stabil": 3782,
    "9/": 3783,
    "▁этой": 3784,
    "▁dzīvnieku": 3785,
    "▁kulu": 3786,
    "laid": 3787,
    "kšt": 3788,
    "▁Bar": 3789,
    "▁līgumu": 3790,
    "▁Energie": 3791,
    "▁research": 3792,
    "08": 3793,
    "ester": 3794,
    "▁gegenüber": 3795,
    "▁Pu": 3796,
    "rang": 3797,
    "▁konsult": 3798,
    "lisi": 3799,
    "▁padid": 3800,
    "▁Kal": 3801,
    "▁emme": 3802,
    "tama": 3803,
    "▁puheenjohtaja": 3804,
    "ari": 3805,
    "▁≥": 3806,
    "īns": 3807,
    "jat": 3808,
    "▁negalima": 3809,
    "▁tuli": 3810,
    "iskās": 3811,
    "▁veido": 3812,
    "▁oro": 3813,
    "▁kelia": 3814,
    "org": 3815,
    "▁experience": 3816,
    "де": 3817,
    "▁having": 3818,
    "▁large": 3819,
    "▁aeg": 3820,
    "▁сам": 3821,
    "▁VII": 3822,
    "▁iesniegt": 3823,
    "▁29.": 3824,
    "▁directly": 3825,
    "▁siiski": 3826,
    "ehn": 3827,
    "▁люб": 3828,
    "▁assessment": 3829,
    "▁Far": 3830,
    "▁lin": 3831,
    "▁selleks": 3832,
    "▁ziņojumu": 3833,
    "vert": 3834,
    "▁Iran": 3835,
    "ojen": 3836,
    "lės": 3837,
    "▁1000": 3838,
    "▁kaksi": 3839,
    "▁problems": 3840,
    "▁Juni": 3841,
    "ür": 3842,
    "▁viet": 3843,
    "▁zuständigen": 3844,
    "ēr": 3845,
    "69": 3846,
    "+": 3847,
    "▁mar": 3848,
    "▁crisis": 3849,
    "ool": 3850,
    "▁noteikumiem": 3851,
    "ты": 3852,
    "āta": 3853,
    "our": 3854,
    "ende": 3855,
    "rod": 3856,
    "▁companies": 3857,
    "tek": 3858,
    "49": 3859,
    "gā": 3860,
    "own": 3861,
    "▁standart": 3862,
    "ilta": 3863,
    "7.": 3864,
    "▁sisä": 3865,
    "peri": 3866,
    "цион": 3867,
    "ykl": 3868,
    "▁oleva": 3869,
    "misega": 3870,
    "▁tehtud": 3871,
    "▁project": 3872,
    "▁sl": 3873,
    "lap": 3874,
    "▁Am": 3875,
    "not": 3876,
    "▁paljon": 3877,
    "▁piešķirt": 3878,
    "ierten": 3879,
    "▁port": 3880,
    "ates": 3881,
    "▁tulo": 3882,
    "suse": 3883,
    "▁400": 3884,
    "▁taas": 3885,
    "▁October": 3886,
    "iausi": 3887,
    "▁Blut": 3888,
    "▁informaciją": 3889,
    "▁женщин": 3890,
    "ив": 3891,
    "gg": 3892,
    "weg": 3893,
    "cken": 3894,
    "▁является": 3895,
    "▁Ž": 3896,
    "ilu": 3897,
    "▁aspekt": 3898,
    "dra": 3899,
    "▁address": 3900,
    "▁CO": 3901,
    "dem": 3902,
    "▁43": 3903,
    "ībām": 3904,
    "▁annos": 3905,
    "▁д": 3906,
    "▁nõu": 3907,
    "▁France": 3908,
    "▁vil": 3909,
    "AC": 3910,
    "▁plat": 3911,
    "▁Waren": 3912,
    "▁Minister": 3913,
    "▁vote": 3914,
    "▁meeting": 3915,
    "svorschriften": 3916,
    "▁norm": 3917,
    "▁liikmesriigi": 3918,
    "▁taču": 3919,
    "lan": 3920,
    "▁beim": 3921,
    "▁role": 3922,
    "tia": 3923,
    "▁direktiivin": 3924,
    "▁ees": 3925,
    "gy": 3926,
    "sver": 3927,
    "▁vietā": 3928,
    "ski": 3929,
    "▁einmal": 3930,
    "▁something": 3931,
    "▁invest": 3932,
    "▁tööta": 3933,
    "ijā": 3934,
    "▁komiteto": 3935,
    "ema": 3936,
    "▁framework": 3937,
    "▁ange": 3938,
    "▁Tri": 3939,
    "▁puhu": 3940,
    "▁84": 3941,
    "▁nebuvo": 3942,
    "▁procedures": 3943,
    "▁las": 3944,
    "▁кто": 3945,
    "▁injection": 3946,
    "ions": 3947,
    "kord": 3948,
    "▁ни": 3949,
    "lim": 3950,
    "▁gadījumos": 3951,
    "tre": 3952,
    "▁kuriuo": 3953,
    "fu": 3954,
    "tīv": 3955,
    "ений": 3956,
    "▁ident": 3957,
    "▁paš": 3958,
    "▁всех": 3959,
    "▁Inter": 3960,
    "▁tiesības": 3961,
    "▁Kosten": 3962,
    "▁dal": 3963,
    "ту": 3964,
    "▁VIII": 3965,
    "▁vere": 3966,
    "▁įsi": 3967,
    "▁ettepaneku": 3968,
    "▁instrument": 3969,
    "jad": 3970,
    "pra": 3971,
    "enden": 3972,
    "▁New": 3973,
    "▁mon": 3974,
    "лся": 3975,
    "ак": 3976,
    "▁jaun": 3977,
    "▁raske": 3978,
    "▁vaba": 3979,
    "▁start": 3980,
    "▁tähän": 3981,
    "37": 3982,
    "ice": 3983,
    "čia": 3984,
    "▁вас": 3985,
    "▁мир": 3986,
    "ppi": 3987,
    "▁j": 3988,
    "āts": 3989,
    "▁single": 3990,
    "▁pul": 3991,
    "▁ка": 3992,
    "nčios": 3993,
    "▁täällä": 3994,
    "▁päätös": 3995,
    "▁sellele": 3996,
    "▁lik": 3997,
    "▁Yeah": 3998,
    "▁weight": 3999,
    "▁papildu": 4000,
    "▁Vis": 4001,
    "▁lassen": 4002,
    "▁kautta": 4003,
    "▁vieš": 4004,
    "▁terve": 4005,
    "при": 4006,
    "си": 4007,
    "spir": 4008,
    "▁consider": 4009,
    "44": 4010,
    "seid": 4011,
    "▁On": 4012,
    "iti": 4013,
    "▁kita": 4014,
    "▁Она": 4015,
    "ją": 4016,
    "stat": 4017,
    "▁visiem": 4018,
    "▁käyttöön": 4019,
    "▁kolm": 4020,
    "▁tällä": 4021,
    "▁viele": 4022,
    "ер": 4023,
    "▁reti": 4024,
    "ish": 4025,
    "IS": 4026,
    "varto": 4027,
    "sä": 4028,
    "▁guarantee": 4029,
    "yyli": 4030,
    "oista": 4031,
    "ι": 4032,
    "▁mat": 4033,
    "▁erittäin": 4034,
    "lė": 4035,
    "bra": 4036,
    "▁carried": 4037,
    "ний": 4038,
    "fil": 4039,
    "▁Juli": 4040,
    "▁dzīv": 4041,
    "▁jota": 4042,
    "▁thank": 4043,
    "▁peruste": 4044,
    "ug": 4045,
    "umus": 4046,
    "▁aktu": 4047,
    "▁hand": 4048,
    "▁sak": 4049,
    "▁Pra": 4050,
    "▁solution": 4051,
    "▁hope": 4052,
    "lank": 4053,
    "▁23.": 4054,
    "llisesti": 4055,
    "▁ask": 4056,
    "itāti": 4057,
    "gali": 4058,
    "▁katso": 4059,
    "▁Namen": 4060,
    "▁eesmärk": 4061,
    "system": 4062,
    "▁galėtų": 4063,
    "▁Direktīvas": 4064,
    "▁suur": 4065,
    "жа": 4066,
    "▁prosenttia": 4067,
    "▁nationalen": 4068,
    "fra": 4069,
    "▁erhalten": 4070,
    "▁esmu": 4071,
    "▁jog": 4072,
    "09": 4073,
    "▁susijusi": 4074,
    "▁oikeus": 4075,
    "iskā": 4076,
    "▁informācijas": 4077,
    "▁hä": 4078,
    "°": 4079,
    "▁sistema": 4080,
    "▁muita": 4081,
    "īn": 4082,
    "nai": 4083,
    "64": 4084,
    "lose": 4085,
    "RO": 4086,
    "▁между": 4087,
    "▁aset": 4088,
    "▁reik": 4089,
    "▁vähintään": 4090,
    "▁Journal": 4091,
    "▁vi": 4092,
    "▁Whereas": 4093,
    "Т": 4094,
    "род": 4095,
    "▁ühise": 4096,
    "vok": 4097,
    "▁veik": 4098,
    "iidi": 4099,
    "▁natural": 4100,
    "▁vaikka": 4101,
    "▁andmed": 4102,
    "produkt": 4103,
    "ėms": 4104,
    "▁citizens": 4105,
    "▁short": 4106,
    "▁Ve": 4107,
    "▁relating": 4108,
    "ąją": 4109,
    "▁komitejas": 4110,
    "▁might": 4111,
    "▁pay": 4112,
    "kun": 4113,
    "azol": 4114,
    "bal": 4115,
    "▁weniger": 4116,
    "▁siinä": 4117,
    "про": 4118,
    "▁naudoti": 4119,
    "ato": 4120,
    "efekt": 4121,
    "▁yhteis": 4122,
    "kā": 4123,
    "▁ühis": 4124,
    "▁nozīmē": 4125,
    "tag": 4126,
    "▁dra": 4127,
    "ura": 4128,
    "▁origin": 4129,
    "ию": 4130,
    "▁1994": 4131,
    "▁Im": 4132,
    ".3.": 4133,
    "▁srityje": 4134,
    "AR": 4135,
    "▁gydymo": 4136,
    "vī": 4137,
    "▁submitted": 4138,
    "ё": 4139,
    "▁serious": 4140,
    "▁visos": 4141,
    "zahl": 4142,
    "jusi": 4143,
    "▁б": 4144,
    "▁Pan": 4145,
    "▁dec": 4146,
    "▁tah": 4147,
    "▁uue": 4148,
    ".1": 4149,
    "▁pala": 4150,
    "Be": 4151,
    "▁jeder": 4152,
    "sam": 4153,
    "▁kelle": 4154,
    "▁žmogaus": 4155,
    "lang": 4156,
    "PC": 4157,
    "▁Programme": 4158,
    "tuna": 4159,
    "▁lõ": 4160,
    "rom": 4161,
    "▁draft": 4162,
    "▁28.": 4163,
    "▁kala": 4164,
    "af": 4165,
    "ėjimo": 4166,
    "▁Lage": 4167,
    "tävä": 4168,
    "▁ком": 4169,
    "▁old": 4170,
    "▁maks": 4171,
    "▁kasuta": 4172,
    "jai": 4173,
    "▁wichtig": 4174,
    "alia": 4175,
    "lē": 4176,
    "▁jolla": 4177,
    "ink": 4178,
    "▁please": 4179,
    "cor": 4180,
    "eli": 4181,
    "term": 4182,
    "▁laske": 4183,
    "▁Staaten": 4184,
    "▁Е": 4185,
    "▁sellega": 4186,
    "▁See": 4187,
    "uda": 4188,
    "▁particularly": 4189,
    "päivä": 4190,
    "66": 4191,
    "▁dalībvalstīs": 4192,
    "▁punktis": 4193,
    "pos": 4194,
    "▁content": 4195,
    "lic": 4196,
    "▁For": 4197,
    "▁standards": 4198,
    "▁hoida": 4199,
    "jate": 4200,
    "▁AUC": 4201,
    "▁veidā": 4202,
    "▁atbild": 4203,
    "dina": 4204,
    "▁major": 4205,
    "▁noteikumi": 4206,
    "▁positive": 4207,
    "ivat": 4208,
    "▁politikos": 4209,
    "▁however": 4210,
    "56": 4211,
    "ful": 4212,
    "▁always": 4213,
    "▁durchgeführt": 4214,
    "▁keskkonna": 4215,
    "▁Umwelt": 4216,
    "tää": 4217,
    "jiem": 4218,
    "иться": 4219,
    "▁show": 4220,
    "▁Verwendung": 4221,
    "mia": 4222,
    "▁oluline": 4223,
    "▁speciali": 4224,
    "dur": 4225,
    "▁Official": 4226,
    "▁üles": 4227,
    "▁site": 4228,
    "▁dozę": 4229,
    "RI": 4230,
    "Ė": 4231,
    "▁toidu": 4232,
    "ans": 4233,
    "kg": 4234,
    "▁clinical": 4235,
    "2004": 4236,
    "▁’": 4237,
    "ast": 4238,
    "ļi": 4239,
    "kut": 4240,
    "yv": 4241,
    "▁aizsardzības": 4242,
    "уб": 4243,
    "▁abge": 4244,
    "▁lot": 4245,
    "tusta": 4246,
    "▁tootja": 4247,
    "▁yet": 4248,
    "▁ausge": 4249,
    "▁olid": 4250,
    "▁mitään": 4251,
    "ana": 4252,
    "▁kil": 4253,
    "viir": 4254,
    "▁milles": 4255,
    "▁Ben": 4256,
    "▁study": 4257,
    "▁2003.": 4258,
    "▁Kan": 4259,
    "▁March": 4260,
    "▁ersten": 4261,
    "institut": 4262,
    "▁never": 4263,
    "ум": 4264,
    "eeru": 4265,
    "▁nar": 4266,
    "imme": 4267,
    "ком": 4268,
    "imų": 4269,
    "asia": 4270,
    "ats": 4271,
    "ому": 4272,
    "▁kasvu": 4273,
    "▁zem": 4274,
    "▁aina": 4275,
    "hti": 4276,
    "73": 4277,
    "hel": 4278,
    "ica": 4279,
    "▁käi": 4280,
    "▁enthalten": 4281,
    "32": 4282,
    "▁elektri": 4283,
    "▁care": 4284,
    "ender": 4285,
    "alis": 4286,
    "▁Personen": 4287,
    "▁gemeinsame": 4288,
    "▁tādu": 4289,
    "▁pacientų": 4290,
    "▁nichts": 4291,
    "89": 4292,
    "▁kraujo": 4293,
    "▁jät": 4294,
    "serv": 4295,
    "▁reikalavimus": 4296,
    "▁mane": 4297,
    "▁ис": 4298,
    "para": 4299,
    "▁maximum": 4300,
    "oc": 4301,
    "ыми": 4302,
    "zes": 4303,
    "▁kõrge": 4304,
    "▁ф": 4305,
    "▁eba": 4306,
    "▁Nach": 4307,
    "▁koostöö": 4308,
    "▁teho": 4309,
    "▁ac": 4310,
    "▁sisaldab": 4311,
    "ска": 4312,
    "▁Tādēļ": 4313,
    "▁dr": 4314,
    "▁bestimmte": 4315,
    "isto": 4316,
    "▁ilg": 4317,
    "amas": 4318,
    "▁yhteydessä": 4319,
    "▁ettei": 4320,
    "мер": 4321,
    "king": 4322,
    "▁Ländern": 4323,
    "▁1).": 4324,
    "▁mindestens": 4325,
    "▁pidä": 4326,
    "▁Auswirkungen": 4327,
    "▁har": 4328,
    "▁God": 4329,
    "хо": 4330,
    "ве": 4331,
    "▁few": 4332,
    "▁Hey": 4333,
    "▁gu": 4334,
    "▁pati": 4335,
    "▁term": 4336,
    "▁monitoring": 4337,
    "▁neturi": 4338,
    "II": 4339,
    "▁Mai": 4340,
    "38": 4341,
    "DE": 4342,
    "▁įgyvendinimo": 4343,
    "▁toote": 4344,
    "fik": 4345,
    "▁All": 4346,
    "▁dabei": 4347,
    "▁text": 4348,
    "▁Kinder": 4349,
    "malla": 4350,
    "laste": 4351,
    "▁Dis": 4352,
    "▁radio": 4353,
    "▁legislation": 4354,
    "▁OV": 4355,
    "▁Hal": 4356,
    "▁modern": 4357,
    "▁suma": 4358,
    "▁labāk": 4359,
    "bū": 4360,
    "als": 4361,
    "нес": 4362,
    "bes": 4363,
    "▁dürfen": 4364,
    "▁году": 4365,
    "▁человека": 4366,
    "▁izmantojot": 4367,
    "▁47": 4368,
    "tina": 4369,
    "▁nähtud": 4370,
    "Pa": 4371,
    "▁Hu": 4372,
    "▁low": 4373,
    "▁maan": 4374,
    "uuden": 4375,
    "▁placebo": 4376,
    "wi": 4377,
    "▁bar": 4378,
    "▁addition": 4379,
    "▁alus": 4380,
    "▁purposes": 4381,
    "▁citi": 4382,
    "juši": 4383,
    "▁joissa": 4384,
    "▁46": 4385,
    "▁Ser": 4386,
    "▁Beihilfe": 4387,
    "alt": 4388,
    "4,": 4389,
    "▁ją": 4390,
    "toimi": 4391,
    "▁всё": 4392,
    "▁pak": 4393,
    "▁little": 4394,
    "▁Wa": 4395,
    "▁piln": 4396,
    "▁importa": 4397,
    "tetty": 4398,
    "5%": 4399,
    "ъ": 4400,
    "hal": 4401,
    "▁üld": 4402,
    "▁sistēmu": 4403,
    "ellä": 4404,
    "▁kel": 4405,
    "▁kitos": 4406,
    "▁(3": 4407,
    "▁tele": 4408,
    "▁gauti": 4409,
    "▁41": 4410,
    "by": 4411,
    "▁antud": 4412,
    "▁kasutamise": 4413,
    "▁uh": 4414,
    "▁keskustelu": 4415,
    "▁kurio": 4416,
    "▁näiteks": 4417,
    "▁El": 4418,
    ".2.": 4419,
    "ек": 4420,
    "ordin": 4421,
    "▁nodrošināt": 4422,
    "▁menettely": 4423,
    "стоя": 4424,
    "▁film": 4425,
    "▁era": 4426,
    "itis": 4427,
    "▁act": 4428,
    "▁lap": 4429,
    "▁Antrag": 4430,
    "bul": 4431,
    "▁Dr": 4432,
    "ngu": 4433,
    "ат": 4434,
    "▁merkit": 4435,
    "erung": 4436,
    "▁read": 4437,
    "▁Tur": 4438,
    "▁Euratom": 4439,
    "▁whole": 4440,
    "▁festgelegt": 4441,
    "▁mani": 4442,
    "▁nori": 4443,
    "▁Auto": 4444,
    "▁arvatud": 4445,
    "▁tutkimus": 4446,
    "▁jautājumu": 4447,
    "▁poveikio": 4448,
    "satz": 4449,
    "▁stehen": 4450,
    "▁aktiv": 4451,
    "▁Fin": 4452,
    "▁punkte": 4453,
    "▁tutki": 4454,
    "▁laisv": 4455,
    "▁друг": 4456,
    "▁Nebenwirkungen": 4457,
    "ybos": 4458,
    "▁Neu": 4459,
    "▁49": 4460,
    "lö": 4461,
    "OV": 4462,
    "wand": 4463,
    "▁Lösung": 4464,
    "tettävä": 4465,
    "▁proc": 4466,
    "▁significant": 4467,
    "▁assistance": 4468,
    "▁vietos": 4469,
    "▁Internet": 4470,
    "▁vartojimo": 4471,
    "aadi": 4472,
    "schw": 4473,
    "▁kasutatakse": 4474,
    "▁tiks": 4475,
    "jumi": 4476,
    "2-": 4477,
    "79": 4478,
    "6/": 4479,
    "▁Eesti": 4480,
    "▁tagada": 4481,
    "▁Sam": 4482,
    "▁pamatojoties": 4483,
    "▁approach": 4484,
    "▁ihmis": 4485,
    "88": 4486,
    "▁им": 4487,
    "▁moni": 4488,
    "▁Tra": 4489,
    "▁Steuer": 4490,
    "▁ettenähtud": 4491,
    "▁Bal": 4492,
    "win": 4493,
    "▁kl": 4494,
    "▁kasva": 4495,
    "▁Commissioner": 4496,
    "▁veiksmų": 4497,
    "cal": 4498,
    "▁[...]": 4499,
    "▁saanud": 4500,
    "red": 4501,
    "▁komitee": 4502,
    "▁esine": 4503,
    "▁näi": 4504,
    "aria": 4505,
    "▁25.": 4506,
    "▁EEA": 4507,
    "mmer": 4508,
    "▁impact": 4509,
    "▁link": 4510,
    "▁katse": 4511,
    "ня": 4512,
    "▁gleich": 4513,
    "▁лет": 4514,
    "flu": 4515,
    "▁around": 4516,
    "▁cause": 4517,
    "▁genau": 4518,
    "igung": 4519,
    "▁War": 4520,
    "wer": 4521,
    "len": 4522,
    "▁either": 4523,
    "īts": 4524,
    "▁Į": 4525,
    "▁matter": 4526,
    "▁Frauen": 4527,
    "▁replaced": 4528,
    "liek": 4529,
    "▁received": 4530,
    "▁maisto": 4531,
    "tuste": 4532,
    "ized": 4533,
    "В": 4534,
    "▁prasības": 4535,
    "isin": 4536,
    "ther": 4537,
    "▁tõttu": 4538,
    "ksid": 4539,
    "▁hoito": 4540,
    "sal": 4541,
    "uksista": 4542,
    "/5": 4543,
    "лич": 4544,
    "▁pakendi": 4545,
    "stoff": 4546,
    "▁basic": 4547,
    "▁West": 4548,
    "2006": 4549,
    "▁vidaus": 4550,
    "▁tagad": 4551,
    "▁taga": 4552,
    "▁potential": 4553,
    "auf": 4554,
    "tās": 4555,
    "yk": 4556,
    "▁ca": 4557,
    "row": 4558,
    "67": 4559,
    "▁%.": 4560,
    "ral": 4561,
    "▁August": 4562,
    "▁sõna": 4563,
    "bie": 4564,
    "▁zāles": 4565,
    "▁2010.": 4566,
    "▁You": 4567,
    "▁hatte": 4568,
    "tē": 4569,
    "▁animal": 4570,
    "▁ku": 4571,
    "▁enthält": 4572,
    "oder": 4573,
    "seks": 4574,
    "kam": 4575,
    "▁tvarka": 4576,
    "▁money": 4577,
    "▁93": 4578,
    "í": 4579,
    "liselt": 4580,
    "▁Kol": 4581,
    "▁katra": 4582,
    "▁letzten": 4583,
    "stö": 4584,
    "▁Plan": 4585,
    "▁Einfuhr": 4586,
    "▁sellise": 4587,
    "cul": 4588,
    "▁procedūras": 4589,
    "▁jūsu": 4590,
    "klaus": 4591,
    "▁Sol": 4592,
    "iant": 4593,
    "▁sealhulgas": 4594,
    "oosi": 4595,
    "▁kind": 4596,
    "▁tieto": 4597,
    "zīm": 4598,
    "isse": 4599,
    "▁Nummer": 4600,
    "▁Они": 4601,
    "стан": 4602,
    "▁viens": 4603,
    "ight": 4604,
    "▁Gemeinschafts": 4605,
    "▁similar": 4606,
    "īta": 4607,
    "▁cor": 4608,
    "▁besteht": 4609,
    "konna": 4610,
    "▁sala": 4611,
    "▁sveikatos": 4612,
    "hdi": 4613,
    "▁numatyta": 4614,
    "▁который": 4615,
    "▁tärkeää": 4616,
    "▁kahju": 4617,
    "▁response": 4618,
    "aasta": 4619,
    "▁ilmoit": 4620,
    "▁capital": 4621,
    "▁bendrijos": 4622,
    "▁sise": 4623,
    "▁capacity": 4624,
    "▁einfach": 4625,
    "▁näiden": 4626,
    "58": 4627,
    "▁Tai": 4628,
    "▁programmes": 4629,
    "▁piiri": 4630,
    "▁grupas": 4631,
    "▁lisää": 4632,
    "▁veselības": 4633,
    "▁rot": 4634,
    "▁tre": 4635,
    "An": 4636,
    "rea": 4637,
    "▁cm": 4638,
    "ļau": 4639,
    "ран": 4640,
    "▁material": 4641,
    "▁Programm": 4642,
    "neen": 4643,
    "▁26.": 4644,
    "▁vier": 4645,
    "▁values": 4646,
    "▁Prüfung": 4647,
    "▁Taryba": 4648,
    "▁trīs": 4649,
    "rg": 4650,
    "▁poole": 4651,
    "sopimuksen": 4652,
    "ēta": 4653,
    "▁animals": 4654,
    "▁kyse": 4655,
    "amin": 4656,
    "SA": 4657,
    "▁juuni": 4658,
    "▁mus": 4659,
    "▁esimese": 4660,
    "▁Мне": 4661,
    "▁пол": 4662,
    "▁saistības": 4663,
    "▁sai": 4664,
    "лась": 4665,
    "pää": 4666,
    "▁esita": 4667,
    "стра": 4668,
    "▁meet": 4669,
    "▁wirklich": 4670,
    "▁При": 4671,
    "▁ilman": 4672,
    "rup": 4673,
    "след": 4674,
    "▁Hersteller": 4675,
    "▁subsidi": 4676,
    "▁sy": 4677,
    "▁Wettbewerb": 4678,
    "ria": 4679,
    "▁erityis": 4680,
    "▁kii": 4681,
    "ward": 4682,
    "▁atvejais": 4683,
    "llisen": 4684,
    "▁equipment": 4685,
    "nē": 4686,
    "▁investment": 4687,
    "▁training": 4688,
    "ža": 4689,
    "▁vuosi": 4690,
    "vēl": 4691,
    "▁reikėtų": 4692,
    "▁daļu": 4693,
    "▁op": 4694,
    "▁64": 4695,
    "▁jedem": 4696,
    "▁makse": 4697,
    "table": 4698,
    "▁valstybėse": 4699,
    "▁lä": 4700,
    "▁98": 4701,
    "▁бо": 4702,
    "▁folgenden": 4703,
    "▁document": 4704,
    "▁groups": 4705,
    "▁credit": 4706,
    "saa": 4707,
    "▁politikas": 4708,
    "ohje": 4709,
    "▁Про": 4710,
    "dan": 4711,
    "▁[5]": 4712,
    "▁raporti": 4713,
    "tse": 4714,
    "SC": 4715,
    "▁energijos": 4716,
    "nčio": 4717,
    "▁entsprechend": 4718,
    "ruf": 4719,
    "▁stipr": 4720,
    "▁div": 4721,
    "▁gyven": 4722,
    "▁hinsichtlich": 4723,
    "klo": 4724,
    "vii": 4725,
    "▁efforts": 4726,
    "▁очень": 4727,
    "▁subjekt": 4728,
    "▁käytetään": 4729,
    "▁adopt": 4730,
    "▁нам": 4731,
    "▁TV": 4732,
    "ete": 4733,
    "itu": 4734,
    "üs": 4735,
    "▁viņi": 4736,
    "▁eli": 4737,
    "нию": 4738,
    "▁hoidon": 4739,
    "zy": 4740,
    "ель": 4741,
    "бу": 4742,
    "märgi": 4743,
    "Ma": 4744,
    "ani": 4745,
    "ühi": 4746,
    "General": 4747,
    "▁neuvosto": 4748,
    "▁Zeitraum": 4749,
    "▁peale": 4750,
    "jų": 4751,
    "muka": 4752,
    "▁metus": 4753,
    "▁ympäristö": 4754,
    "▁häufig": 4755,
    "hol": 4756,
    "▁jõu": 4757,
    "sky": 4758,
    "ß": 4759,
    "inimas": 4760,
    "ges": 4761,
    "▁ci": 4762,
    "▁määrusega": 4763,
    "▁transfer": 4764,
    "det": 4765,
    "▁granted": 4766,
    "lage": 4767,
    "aatio": 4768,
    "▁responsible": 4769,
    "▁tera": 4770,
    "сть": 4771,
    "▁inimeste": 4772,
    "▁mina": 4773,
    "▁taotluse": 4774,
    "▁Op": 4775,
    "ложен": 4776,
    "▁direktyva": 4777,
    "▁prior": 4778,
    "▁enemmän": 4779,
    "▁Kopienu": 4780,
    "▁Seetõttu": 4781,
    "▁pakalpojumu": 4782,
    "нии": 4783,
    "Ķ": 4784,
    "▁gas": 4785,
    "▁rajoi": 4786,
    "stel": 4787,
    "▁tikrai": 4788,
    "▁Geld": 4789,
    "▁muudetakse": 4790,
    "▁publication": 4791,
    "zon": 4792,
    "nta": 4793,
    "▁Все": 4794,
    "▁nepieciešams": 4795,
    "▁economy": 4796,
    "int": 4797,
    "▁воз": 4798,
    "pras": 4799,
    "▁muutu": 4800,
    "▁Genehmigung": 4801,
    "taminen": 4802,
    "eerimise": 4803,
    "nų": 4804,
    "”)": 4805,
    "77": 4806,
    "▁mok": 4807,
    "▁nusi": 4808,
    "ņ": 4809,
    "▁visiškai": 4810,
    "▁kaudu": 4811,
    "▁Politik": 4812,
    "▁arvu": 4813,
    "▁inim": 4814,
    "siu": 4815,
    "▁environmental": 4816,
    "▁0.": 4817,
    "▁fe": 4818,
    "vež": 4819,
    "jung": 4820,
    "tust": 4821,
    "▁kalba": 4822,
    "▁verwendet": 4823,
    "ischer": 4824,
    "▁vārdā": 4825,
    "▁cik": 4826,
    "tage": 4827,
    "lichkeit": 4828,
    "▁Hel": 4829,
    "▁gleichzeitig": 4830,
    "ó": 4831,
    "▁šiem": 4832,
    "▁liikmesriikides": 4833,
    "▁Fe": 4834,
    "▁išskyrus": 4835,
    "ymas": 4836,
    "kalb": 4837,
    "ишь": 4838,
    "▁sin": 4839,
    "▁sovelletaan": 4840,
    "rt": 4841,
    "▁environment": 4842,
    "▁cent": 4843,
    "▁risks": 4844,
    "▁wollen": 4845,
    "▁kilmės": 4846,
    "▁Go": 4847,
    "▁edu": 4848,
    "Ģ": 4849,
    "ati": 4850,
    "▁Anti": 4851,
    "üül": 4852,
    "päeva": 4853,
    "8)": 4854,
    "▁väi": 4855,
    "▁noin": 4856,
    "▁Pen": 4857,
    "osi": 4858,
    "uojant": 4859,
    "▁1990": 4860,
    "▁Sal": 4861,
    "▁perus": 4862,
    "▁tiedä": 4863,
    "▁points": 4864,
    "▁preparato": 4865,
    "▁direktyvos": 4866,
    "▁cost": 4867,
    "▁määra": 4868,
    "kenn": 4869,
    "ich": 4870,
    "▁citiem": 4871,
    "▁valstybė": 4872,
    "šķi": 4873,
    "▁области": 4874,
    "ments": 4875,
    "▁tila": 4876,
    "▁disease": 4877,
    "▁kõigi": 4878,
    "low": 4879,
    "isuuden": 4880,
    "▁That": 4881,
    "bei": 4882,
    "▁unmittelbar": 4883,
    "▁hy": 4884,
    "▁bal": 4885,
    "▁после": 4886,
    "▁range": 4887,
    "ging": 4888,
    "▁ihnen": 4889,
    "▁saattaa": 4890,
    "inas": 4891,
    "▁noteikti": 4892,
    "(3)": 4893,
    "▁tuki": 4894,
    "▁puses": 4895,
    "▁birželio": 4896,
    "▁selliste": 4897,
    "▁internal": 4898,
    "AT": 4899,
    "▁luu": 4900,
    "▁uzskata": 4901,
    "▁Bedeutung": 4902,
    "olla": 4903,
    "▁tatsächlich": 4904,
    "▁Mit": 4905,
    "▁Ber": 4906,
    "anti": 4907,
    "ointi": 4908,
    "▁call": 4909,
    "riigi": 4910,
    "▁deal": 4911,
    "idi": 4912,
    "▁gamybos": 4913,
    "▁51": 4914,
    "rū": 4915,
    "istu": 4916,
    "▁cit": 4917,
    "▁Wi": 4918,
    "Ю": 4919,
    "ант": 4920,
    "tetään": 4921,
    "▁От": 4922,
    "▁Gründe": 4923,
    "▁contract": 4924,
    "llista": 4925,
    "mad": 4926,
    "ister": 4927,
    "▁approved": 4928,
    "▁criteria": 4929,
    "▁deva": 4930,
    "▁upon": 4931,
    "▁mere": 4932,
    "▁53": 4933,
    "▁model": 4934,
    "▁multi": 4935,
    "▁debate": 4936,
    "▁вер": 4937,
    "ājiem": 4938,
    "eeni": 4939,
    "▁atlikti": 4940,
    "āna": 4941,
    "▁Nationen": 4942,
    "▁kiire": 4943,
    "▁session": 4944,
    "chi": 4945,
    "▁страны": 4946,
    "▁tą": 4947,
    "▁Jā": 4948,
    "▁Arbeits": 4949,
    "gur": 4950,
    "stelle": 4951,
    "▁vajalik": 4952,
    "ция": 4953,
    "▁alg": 4954,
    "▁Sub": 4955,
    "ев": 4956,
    "▁Portugal": 4957,
    "▁medžiagos": 4958,
    "▁tal": 4959,
    "▁asian": 4960,
    "▁lauksaimniecība": 4961,
    "▁komisjonile": 4962,
    "▁heidän": 4963,
    "ilise": 4964,
    "▁kuva": 4965,
    "tettiin": 4966,
    "▁wissen": 4967,
    "▁24.": 4968,
    "naud": 4969,
    "▁54": 4970,
    "▁ABl": 4971,
    "massa": 4972,
    "▁week": 4973,
    "▁suuri": 4974,
    "▁internet": 4975,
    "ēti": 4976,
    "▁vardu": 4977,
    "▁mono": 4978,
    "inter": 4979,
    "43": 4980,
    "▁kundze": 4981,
    "стро": 4982,
    "▁several": 4983,
    "▁Ausfuhr": 4984,
    "▁Security": 4985,
    "▁purpose": 4986,
    "▁sopimus": 4987,
    "avimą": 4988,
    "▁gelten": 4989,
    "treten": 4990,
    "▁Artikels": 4991,
    "▁savā": 4992,
    "▁Мо": 4993,
    "▁medžiagų": 4994,
    "▁Sicherheits": 4995,
    "работ": 4996,
    "▁moment": 4997,
    "omen": 4998,
    "amid": 4999,
    "ātu": 5000,
    "cur": 5001,
    "▁Direktyvos": 5002,
    "▁näh": 5003,
    "ml": 5004,
    "vos": 5005,
    "ient": 5006,
    "▁riska": 5007,
    "▁sudaro": 5008,
    "▁Var": 5009,
    "▁sprendimo": 5010,
    "▁Court": 5011,
    "78": 5012,
    "▁th": 5013,
    "▁agricultural": 5014,
    "▁taikoma": 5015,
    "jau": 5016,
    "wirtschaftlichen": 5017,
    "▁дела": 5018,
    "али": 5019,
    "kat": 5020,
    "▁reduction": 5021,
    "iam": 5022,
    "▁põhjal": 5023,
    "▁Anforderungen": 5024,
    "▁liikmesriik": 5025,
    "teic": 5026,
    "iui": 5027,
    "▁Ter": 5028,
    "talo": 5029,
    "▁М": 5030,
    "ttää": 5031,
    "▁sprendimą": 5032,
    "▁sinun": 5033,
    "kava": 5034,
    "86": 5035,
    "▁hours": 5036,
    "▁poveikį": 5037,
    "čiu": 5038,
    "kais": 5039,
    "▁Dar": 5040,
    "▁Economic": 5041,
    "▁sutartį": 5042,
    "▁žmonių": 5043,
    "nieg": 5044,
    "mpi": 5045,
    "▁parlamentti": 5046,
    "tamis": 5047,
    "▁izcelsmes": 5048,
    "▁Ende": 5049,
    "вид": 5050,
    "▁naujo": 5051,
    "▁internationalen": 5052,
    "registr": 5053,
    "▁61": 5054,
    "pol": 5055,
    "med": 5056,
    "▁kinnita": 5057,
    "смотр": 5058,
    "▁Sinne": 5059,
    "▁pag": 5060,
    "▁развития": 5061,
    "▁voit": 5062,
    "▁27.": 5063,
    "▁narė": 5064,
    "41": 5065,
    "ces": 5066,
    "▁oil": 5067,
    "markt": 5068,
    "▁tip": 5069,
    "▁küll": 5070,
    "▁cover": 5071,
    "▁stop": 5072,
    "▁tostarp": 5073,
    "▁Nä": 5074,
    "spect": 5075,
    "▁minimum": 5076,
    "М": 5077,
    "itus": 5078,
    "out": 5079,
    "▁especially": 5080,
    "AK": 5081,
    "▁making": 5082,
    "šal": 5083,
    "▁päätöksen": 5084,
    "▁1992": 5085,
    "ehdo": 5086,
    "▁ost": 5087,
    "fri": 5088,
    "▁pateikia": 5089,
    "▁Ki": 5090,
    "▁idea": 5091,
    "▁kriisi": 5092,
    "▁Problem": 5093,
    "ration": 5094,
    "▁Abkommen": 5095,
    "▁selvi": 5096,
    "eta": 5097,
    "▁palun": 5098,
    "pli": 5099,
    "▁forma": 5100,
    "vasti": 5101,
    "▁Region": 5102,
    "MA": 5103,
    "▁sur": 5104,
    "6,": 5105,
    "▁asjaomase": 5106,
    "▁ümber": 5107,
    "▁vel": 5108,
    "▁tiesiogiai": 5109,
    "tric": 5110,
    "eik": 5111,
    "turu": 5112,
    "▁various": 5113,
    "▁piira": 5114,
    "▁budžeta": 5115,
    "▁šalies": 5116,
    "▁Ре": 5117,
    "▁groza": 5118,
    "▁selge": 5119,
    "▁held": 5120,
    "▁changes": 5121,
    "▁пока": 5122,
    "ents": 5123,
    "▁virus": 5124,
    "▁järelevalve": 5125,
    "▁recommended": 5126,
    "▁produktus": 5127,
    "▁(6)": 5128,
    "▁narėse": 5129,
    "poli": 5130,
    "▁listed": 5131,
    "▁entry": 5132,
    "stājas": 5133,
    "miin": 5134,
    "▁hoid": 5135,
    "▁teatavate": 5136,
    "▁vaan": 5137,
    "▁applied": 5138,
    "ского": 5139,
    "▁taikymo": 5140,
    "▁EL": 5141,
    "järjestelmän": 5142,
    "▁nuostatas": 5143,
    "▁Zeitpunkt": 5144,
    "are": 5145,
    "▁Erwägung": 5146,
    "6%": 5147,
    "setzung": 5148,
    "▁included": 5149,
    "▁vienā": 5150,
    "▁paslaugų": 5151,
    "▁def": 5152,
    "▁president": 5153,
    "sete": 5154,
    "▁greater": 5155,
    "▁Behörde": 5156,
    "žin": 5157,
    "mäßig": 5158,
    "aasi": 5159,
    "▁600": 5160,
    "▁lietošanai": 5161,
    "▁lõiget": 5162,
    "▁svarīgi": 5163,
    "uti": 5164,
    "▁bu": 5165,
    "▁04": 5166,
    "▁valvonta": 5167,
    "▁traucējumi": 5168,
    "▁solche": 5169,
    "▁Bau": 5170,
    "▁aika": 5171,
    "▁education": 5172,
    "▁süsteemi": 5173,
    "▁regards": 5174,
    "▁laikyti": 5175,
    "emia": 5176,
    "▁Pi": 5177,
    "▁nachstehend": 5178,
    "▁52": 5179,
    "▁annual": 5180,
    "jiet": 5181,
    "▁aizstāj": 5182,
    "deks": 5183,
    "▁89": 5184,
    "pal": 5185,
    "▁Israel": 5186,
    "band": 5187,
    "part": 5188,
    "▁Fragen": 5189,
    "▁Zoll": 5190,
    "tunut": 5191,
    "eh": 5192,
    "▁saugumo": 5193,
    "▁maailma": 5194,
    "kil": 5195,
    "ской": 5196,
    "oto": 5197,
    "▁tarkoitettu": 5198,
    "▁vähenda": 5199,
    "▁reported": 5200,
    "▁vitro": 5201,
    "ham": 5202,
    "▁kurias": 5203,
    "▁andmete": 5204,
    "tavat": 5205,
    "▁wish": 5206,
    "sektori": 5207,
    "iamas": 5208,
    "▁Januar": 5209,
    "=": 5210,
    "▁Ühenduse": 5211,
    "way": 5212,
    "3)": 5213,
    "rac": 5214,
    "isierung": 5215,
    "▁times": 5216,
    "▁live": 5217,
    "▁policies": 5218,
    "ход": 5219,
    "itz": 5220,
    "▁cenu": 5221,
    "lop": 5222,
    "▁teisių": 5223,
    "tojen": 5224,
    "▁žino": 5225,
    "▁могут": 5226,
    "▁media": 5227,
    "mir": 5228,
    "лу": 5229,
    "mission": 5230,
    "▁yhdessä": 5231,
    "▁Überwachung": 5232,
    "can": 5233,
    "▁Pie": 5234,
    "▁Ä": 5235,
    "▁Nu": 5236,
    "▁те": 5237,
    "ošā": 5238,
    "kko": 5239,
    "▁sertifik": 5240,
    "īgo": 5241,
    "jās": 5242,
    "ур": 5243,
    "▁lab": 5244,
    "ikka": 5245,
    "▁sir": 5246,
    "organism": 5247,
    "▁valdymo": 5248,
    "▁mėn": 5249,
    "ange": 5250,
    "▁tarvitse": 5251,
    "▁covered": 5252,
    "▁Fund": 5253,
    "ила": 5254,
    "tön": 5255,
    "▁pasākumu": 5256,
    "▁Ма": 5257,
    "ständig": 5258,
    "▁jāat": 5259,
    "mark": 5260,
    "▁могу": 5261,
    "▁aprakst": 5262,
    "likum": 5263,
    "▁pārstāv": 5264,
    "▁vielleicht": 5265,
    "▁return": 5266,
    "komp": 5267,
    "▁reason": 5268,
    "▁contact": 5269,
    "aalne": 5270,
    "trop": 5271,
    "▁essential": 5272,
    "▁Okay": 5273,
    "rist": 5274,
    "oria": 5275,
    "▁final": 5276,
    "54": 5277,
    "▁procedūru": 5278,
    "▁GmbH": 5279,
    "▁kū": 5280,
    "▁pagalba": 5281,
    "jimo": 5282,
    "▁India": 5283,
    "▁Ch": 5284,
    "▁vaikut": 5285,
    "▁sto": 5286,
    "▁paino": 5287,
    "kė": 5288,
    "jien": 5289,
    "▁remain": 5290,
    "▁sh": 5291,
    "▁official": 5292,
    "▁yhtä": 5293,
    "74": 5294,
    "ление": 5295,
    "nit": 5296,
    "▁markets": 5297,
    "▁stellt": 5298,
    "▁Deutschland": 5299,
    "▁Agency": 5300,
    "▁Development": 5301,
    "▁teema": 5302,
    "▁prasībām": 5303,
    "▁developing": 5304,
    "▁network": 5305,
    "ступ": 5306,
    "▁kysy": 5307,
    "клю": 5308,
    "tamist": 5309,
    "malt": 5310,
    "av": 5311,
    "cro": 5312,
    "▁bist": 5313,
    "▁должен": 5314,
    "▁geben": 5315,
    "anne": 5316,
    "iska": 5317,
    "▁falls": 5318,
    "US": 5319,
    "вин": 5320,
    "▁1993": 5321,
    "▁себя": 5322,
    "▁duomenys": 5323,
    "ща": 5324,
    "▁exchange": 5325,
    "▁bendra": 5326,
    "endi": 5327,
    "▁stellen": 5328,
    "▁99": 5329,
    "▁citas": 5330,
    "▁higher": 5331,
    "Ц": 5332,
    "itātes": 5333,
    "▁58": 5334,
    "pt": 5335,
    "▁padar": 5336,
    "kond": 5337,
    "▁2011.": 5338,
    "gang": 5339,
    "▁vėl": 5340,
    "▁minētās": 5341,
    "▁suderin": 5342,
    "▁juo": 5343,
    "hör": 5344,
    "▁los": 5345,
    "▁fast": 5346,
    "▁з": 5347,
    "▁Älä": 5348,
    "▁operator": 5349,
    "prof": 5350,
    "tamista": 5351,
    "usega": 5352,
    "char": 5353,
    "51": 5354,
    "▁politische": 5355,
    "Q": 5356,
    "sit": 5357,
    "ировать": 5358,
    "ough": 5359,
    "▁noudatta": 5360,
    "▁oral": 5361,
    "▁talous": 5362,
    "▁KN": 5363,
    "ossa": 5364,
    "▁vak": 5365,
    "pla": 5366,
    "▁kul": 5367,
    "бли": 5368,
    "ata": 5369,
    "▁tāpēc": 5370,
    "▁party": 5371,
    "▁gonna": 5372,
    "▁cilvēku": 5373,
    "ления": 5374,
    "kri": 5375,
    "▁flu": 5376,
    "▁nodrošina": 5377,
    "раз": 5378,
    "▁Gra": 5379,
    "▁voll": 5380,
    "зна": 5381,
    "▁tādējādi": 5382,
    "▁papild": 5383,
    "▁tām": 5384,
    "▁dažā": 5385,
    "▁km": 5386,
    "▁pārtikas": 5387,
    "▁ж": 5388,
    "valtio": 5389,
    "▁eksporta": 5390,
    "▁Ir": 5391,
    "OJ": 5392,
    "▁kaina": 5393,
    "▁где": 5394,
    "▁isegi": 5395,
    "ucht": 5396,
    "oh": 5397,
    "▁direct": 5398,
    "▁там": 5399,
    "▁Pone": 5400,
    "nės": 5401,
    "▁Ok": 5402,
    "wo": 5403,
    "▁target": 5404,
    "ālo": 5405,
    "▁Gebiet": 5406,
    "▁intended": 5407,
    "▁audit": 5408,
    "▁Vereinte": 5409,
    "empi": 5410,
    "▁America": 5411,
    "▁lead": 5412,
    "cijas": 5413,
    "▁priimti": 5414,
    "▁korkea": 5415,
    "unternehmen": 5416,
    "uv": 5417,
    "ope": 5418,
    "▁Winthrop": 5419,
    "tused": 5420,
    "teiden": 5421,
    "▁ved": 5422,
    "rich": 5423,
    "ģ": 5424,
    "▁saman": 5425,
    "ock": 5426,
    "▁four": 5427,
    "дей": 5428,
    "▁bendr": 5429,
    "▁nehmen": 5430,
    "▁haittavaikutuks": 5431,
    "lainen": 5432,
    "uko": 5433,
    "▁below": 5434,
    "▁ietekme": 5435,
    "100": 5436,
    "лось": 5437,
    "eseen": 5438,
    "со": 5439,
    "▁mark": 5440,
    "▁ш": 5441,
    "▁vastuu": 5442,
    "▁tabletti": 5443,
    "mber": 5444,
    "▁saat": 5445,
    "leid": 5446,
    "▁population": 5447,
    "▁tark": 5448,
    "▁Fi": 5449,
    "▁bieži": 5450,
    "▁Haushalts": 5451,
    "▁нужно": 5452,
    "42": 5453,
    "izēt": 5454,
    "ified": 5455,
    "psi": 5456,
    "cent": 5457,
    "IC": 5458,
    "ālu": 5459,
    "▁administrative": 5460,
    "kosten": 5461,
    "▁draug": 5462,
    "▁kopumā": 5463,
    "▁things": 5464,
    "▁lapse": 5465,
    "teks": 5466,
    "▁pad": 5467,
    "▁sisältää": 5468,
    "▁key": 5469,
    "▁nam": 5470,
    "▁teada": 5471,
    "▁vaisto": 5472,
    "▁Office": 5473,
    "▁ekspordi": 5474,
    "▁lieto": 5475,
    "▁talk": 5476,
    "▁taikomos": 5477,
    "▁equal": 5478,
    "▁talle": 5479,
    "▁priekšlikumu": 5480,
    "▁Turklāt": 5481,
    "▁būdu": 5482,
    "▁voisi": 5483,
    "▁com": 5484,
    "▁neno": 5485,
    "▁nesa": 5486,
    "īšana": 5487,
    "lust": 5488,
    "са": 5489,
    "▁pasak": 5490,
    "ры": 5491,
    "▁kaikkia": 5492,
    "▁mies": 5493,
    "▁limit": 5494,
    "dzi": 5495,
    "▁deine": 5496,
    "▁92": 5497,
    "lid": 5498,
    "▁usko": 5499,
    "▁sąlygos": 5500,
    "▁Kingdom": 5501,
    "elu": 5502,
    "yys": 5503,
    "uota": 5504,
    "▁62": 5505,
    "▁apstiprināt": 5506,
    "ских": 5507,
    "▁protect": 5508,
    "72": 5509,
    "▁projekt": 5510,
    "▁weeks": 5511,
    "▁išsi": 5512,
    "▁behalf": 5513,
    "▁meetmeid": 5514,
    "ēji": 5515,
    "gleich": 5516,
    "▁Articles": 5517,
    "▁pasākumiem": 5518,
    "ybės": 5519,
    "ket": 5520,
    "▁mērķis": 5521,
    "▁forward": 5522,
    "ides": 5523,
    "▁favour": 5524,
    "▁visą": 5525,
    "▁šādi": 5526,
    "▁medicinal": 5527,
    "▁info": 5528,
    "▁noteikt": 5529,
    "far": 5530,
    "▁lõpp": 5531,
    "▁mais": 5532,
    "▁vėliau": 5533,
    "▁angewendet": 5534,
    "▁iestādēm": 5535,
    "▁allem": 5536,
    "▁sausio": 5537,
    "mato": 5538,
    "каз": 5539,
    "▁gyvūnų": 5540,
    "▁attiecīgi": 5541,
    "▁kurioje": 5542,
    "▁Gl": 5543,
    "likku": 5544,
    "ship": 5545,
    "ančių": 5546,
    "▁provides": 5547,
    "▁dozės": 5548,
    "kos": 5549,
    "▁rink": 5550,
    "▁added": 5551,
    "▁Finland": 5552,
    "▁Liste": 5553,
    "▁projektu": 5554,
    "91": 5555,
    "▁iestāde": 5556,
    "▁Ergebnisse": 5557,
    "▁face": 5558,
    "▁svarbu": 5559,
    "legen": 5560,
    "▁ago": 5561,
    "▁Lisaks": 5562,
    "▁sosiaali": 5563,
    ".11.": 5564,
    "▁tegutse": 5565,
    "ītu": 5566,
    "▁institucija": 5567,
    "kop": 5568,
    "▁много": 5569,
    "▁unioni": 5570,
    "▁juuri": 5571,
    "▁teile": 5572,
    "▁operation": 5573,
    "ös": 5574,
    "ziel": 5575,
    "▁250": 5576,
    "▁Т": 5577,
    "▁welcome": 5578,
    "▁thus": 5579,
    "▁office": 5580,
    "▁iekļaut": 5581,
    "▁investigation": 5582,
    "SS": 5583,
    "▁üksnes": 5584,
    "▁pool": 5585,
    "▁перед": 5586,
    "▁atitinkamai": 5587,
    "▁regarding": 5588,
    "āti": 5589,
    "▁design": 5590,
    "▁Secretary": 5591,
    "▁uudelleen": 5592,
    "▁noteikts": 5593,
    "ėli": 5594,
    "ną": 5595,
    "tam": 5596,
    "▁red": 5597,
    "▁caur": 5598,
    "казыва": 5599,
    "▁сейчас": 5600,
    "▁kurš": 5601,
    "zent": 5602,
    "▁Lie": 5603,
    "▁Umsetzung": 5604,
    "▁alusta": 5605,
    "mel": 5606,
    "▁hard": 5607,
    "▁disp": 5608,
    "vent": 5609,
    "inblick": 5610,
    "дол": 5611,
    "▁sehen": 5612,
    "▁Padome": 5613,
    "▁susitarimo": 5614,
    "▁neap": 5615,
    "▁iespējas": 5616,
    "▁paredzēts": 5617,
    "▁love": 5618,
    "ooni": 5619,
    "▁parlament": 5620,
    "ovi": 5621,
    "ization": 5622,
    "▁Par": 5623,
    "▁annetun": 5624,
    "gl": 5625,
    "▁liegt": 5626,
    "▁benefit": 5627,
    "59": 5628,
    "▁91/414/": 5629,
    "▁pats": 5630,
    "▁То": 5631,
    "/6": 5632,
    "▁existing": 5633,
    "▁haldus": 5634,
    "ona": 5635,
    "▁peace": 5636,
    "▁rest": 5637,
    "▁vie": 5638,
    "▁katru": 5639,
    "py": 5640,
    "▁šim": 5641,
    "▁loa": 5642,
    "loģisk": 5643,
    "▁Handels": 5644,
    "misest": 5645,
    "▁visit": 5646,
    "tko": 5647,
    "▁kir": 5648,
    "setzen": 5649,
    "▁aastat": 5650,
    "vuus": 5651,
    "▁nuomonę": 5652,
    "▁tarpeen": 5653,
    "schutz": 5654,
    "▁offer": 5655,
    "▁hal": 5656,
    "rok": 5657,
    "sol": 5658,
    "lock": 5659,
    "uni": 5660,
    "▁building": 5661,
    "rank": 5662,
    "▁ran": 5663,
    "}": 5664,
    "▁tev": 5665,
    "▁führt": 5666,
    "vän": 5667,
    "day": 5668,
    "▁nepieciešama": 5669,
    "ese": 5670,
    "amos": 5671,
    "▁turn": 5672,
    "▁yhden": 5673,
    "▁Wochen": 5674,
    "▁Weise": 5675,
    "antis": 5676,
    "▁2013.": 5677,
    "▁intra": 5678,
    "▁olivat": 5679,
    "▁mielestäni": 5680,
    "chan": 5681,
    "▁pacientu": 5682,
    "määra": 5683,
    "atsioon": 5684,
    "ency": 5685,
    "▁vesi": 5686,
    "▁2002.": 5687,
    "до": 5688,
    "▁pressure": 5689,
    "zē": 5690,
    "▁stimul": 5691,
    "▁alue": 5692,
    "šo": 5693,
    "▁sau": 5694,
    "▁ehkä": 5695,
    "▁gehen": 5696,
    "▁kohe": 5697,
    "▁edelleen": 5698,
    "▁hinaus": 5699,
    "▁bekannt": 5700,
    "▁aru": 5701,
    "▁alkoholi": 5702,
    "tinka": 5703,
    "iva": 5704,
    "kot": 5705,
    "▁Со": 5706,
    "▁па": 5707,
    "dauer": 5708,
    "▁attīstības": 5709,
    "▁asja": 5710,
    "▁vorgesehenen": 5711,
    "smaßnahmen": 5712,
    "uoju": 5713,
    "▁saņem": 5714,
    "▁juuli": 5715,
    "▁Fahrzeug": 5716,
    "tz": 5717,
    "▁ди": 5718,
    "▁gener": 5719,
    "▁72": 5720,
    "▁vēlos": 5721,
    "ttua": 5722,
    "▁põ": 5723,
    "▁Japan": 5724,
    "▁lihtsalt": 5725,
    "iais": 5726,
    "▁Hilfe": 5727,
    "▁pr": 5728,
    "▁panākt": 5729,
    "▁отношении": 5730,
    "▁ütle": 5731,
    "▁jede": 5732,
    "▁proposed": 5733,
    "rek": 5734,
    "uudet": 5735,
    "▁käsitleva": 5736,
    "юсь": 5737,
    "63": 5738,
    "▁garant": 5739,
    "▁svarbi": 5740,
    "▁priežiūros": 5741,
    "8%": 5742,
    "▁Ш": 5743,
    "▁įmonės": 5744,
    "▁hätte": 5745,
    "▁tärkeä": 5746,
    "▁valo": 5747,
    "▁reports": 5748,
    "oci": 5749,
    "puoli": 5750,
    "ons": 5751,
    "▁т": 5752,
    "▁līmenis": 5753,
    "▁Kor": 5754,
    "▁notwendig": 5755,
    "āju": 5756,
    "tol": 5757,
    "▁poliitika": 5758,
    "ification": 5759,
    "▁IU": 5760,
    "mais": 5761,
    "▁даже": 5762,
    "▁kāda": 5763,
    "▁sąlygas": 5764,
    "mie": 5765,
    "щ": 5766,
    "▁должно": 5767,
    "▁Vereinigte": 5768,
    "▁пар": 5769,
    "▁vietoje": 5770,
    "ējā": 5771,
    "▁documents": 5772,
    "tie": 5773,
    "кон": 5774,
    "▁Gen": 5775,
    "ėmis": 5776,
    "▁iespēja": 5777,
    "▁attiecīgo": 5778,
    "Ī": 5779,
    "▁sanoi": 5780,
    "▁Bayer": 5781,
    "cc": 5782,
    "▁välillä": 5783,
    "▁uzņēmumu": 5784,
    "▁täiendava": 5785,
    "▁Russia": 5786,
    "ėja": 5787,
    "▁sõ": 5788,
    "—": 5789,
    "▁Jūs": 5790,
    "▁defined": 5791,
    "▁komiteja": 5792,
    "▁dozė": 5793,
    "▁īstenot": 5794,
    "▁teisė": 5795,
    "▁küsimus": 5796,
    "▁līmeni": 5797,
    ".4.": 5798,
    "▁tegevuse": 5799,
    "▁120": 5800,
    "used": 5801,
    "▁doing": 5802,
    "▁keinen": 5803,
    "ano": 5804,
    "▁OL": 5805,
    "▁activity": 5806,
    "▁Bio": 5807,
    "▁līmenī": 5808,
    "pas": 5809,
    "▁peri": 5810,
    "prāt": 5811,
    "▁close": 5812,
    "kk": 5813,
    "▁суд": 5814,
    "nach": 5815,
    "▁approval": 5816,
    "▁atskir": 5817,
    "▁taikyti": 5818,
    "▁trombo": 5819,
    "▁Sen": 5820,
    "▁cr": 5821,
    "▁politischen": 5822,
    "bals": 5823,
    "▁korva": 5824,
    "määr": 5825,
    "▁radīt": 5826,
    "▁nuolat": 5827,
    "▁strong": 5828,
    "▁Wasser": 5829,
    "▁puhe": 5830,
    "opa": 5831,
    "▁Post": 5832,
    "▁arutelu": 5833,
    "▁pastāv": 5834,
    "▁Pal": 5835,
    "▁produktiem": 5836,
    "▁bērniem": 5837,
    "▁certificate": 5838,
    "▁maha": 5839,
    "▁До": 5840,
    "▁tunnista": 5841,
    "▁known": 5842,
    "▁Las": 5843,
    "īšanas": 5844,
    "tuu": 5845,
    "▁demand": 5846,
    "▁küsimuse": 5847,
    "▁vieta": 5848,
    "▁kehit": 5849,
    "▁lapsi": 5850,
    "▁вам": 5851,
    "viin": 5852,
    "▁daļas": 5853,
    "rad": 5854,
    "▁containing": 5855,
    "▁por": 5856,
    "▁check": 5857,
    "kia": 5858,
    "▁näe": 5859,
    "ова": 5860,
    "▁binding": 5861,
    "ley": 5862,
    "til": 5863,
    "▁korra": 5864,
    "▁Poli": 5865,
    "▁avoid": 5866,
    "ambi": 5867,
    "▁Ihre": 5868,
    "▁Br": 5869,
    "▁57": 5870,
    "▁personas": 5871,
    "▁Rolle": 5872,
    "▁Probleme": 5873,
    "jumiem": 5874,
    "▁zwar": 5875,
    "{": 5876,
    "▁staff": 5877,
    "SI": 5878,
    "▁Kas": 5879,
    "▁ekonomikos": 5880,
    "▁instruments": 5881,
    "iili": 5882,
    "▁э": 5883,
    "too": 5884,
    "▁kerran": 5885,
    "▁võimalda": 5886,
    "kie": 5887,
    "raum": 5888,
    "▁CN": 5889,
    "▁teavita": 5890,
    "▁jaunu": 5891,
    "ize": 5892,
    "htu": 5893,
    "vuse": 5894,
    "rk": 5895,
    "öffentlichen": 5896,
    "misestä": 5897,
    "▁minua": 5898,
    "▁этот": 5899,
    "▁jāiz": 5900,
    "▁Mor": 5901,
    "anz": 5902,
    "▁likvid": 5903,
    "▁liepos": 5904,
    "õl": 5905,
    "▁gel": 5906,
    "▁kaut": 5907,
    "tukset": 5908,
    "▁raja": 5909,
    "▁ker": 5910,
    "car": 5911,
    "▁arsti": 5912,
    "laufen": 5913,
    "зв": 5914,
    "▁communication": 5915,
    "▁müügi": 5916,
    "▁Handel": 5917,
    "▁kap": 5918,
    "▁taisykles": 5919,
    "▁parem": 5920,
    "▁funds": 5921,
    "▁karto": 5922,
    "cion": 5923,
    "▁blakusparādības": 5924,
    "▁59": 5925,
    "oša": 5926,
    "▁edasta": 5927,
    "▁kiti": 5928,
    "šči": 5929,
    "▁valstybėms": 5930,
    "▁muun": 5931,
    "▁tada": 5932,
    "▁sofern": 5933,
    "träge": 5934,
    "▁šalis": 5935,
    "▁scheme": 5936,
    "▁lygi": 5937,
    "81": 5938,
    "hinna": 5939,
    "ņa": 5940,
    "▁73": 5941,
    "nom": 5942,
    "▁lietojot": 5943,
    "▁kuitenkaan": 5944,
    "tyy": 5945,
    "сси": 5946,
    "▁beiden": 5947,
    "вал": 5948,
    "ošanas": 5949,
    "▁veiks": 5950,
    "▁punkts": 5951,
    "▁ekonomikas": 5952,
    "▁līmeņa": 5953,
    "▁unserer": 5954,
    "▁dvi": 5955,
    "▁February": 5956,
    "▁bent": 5957,
    "nahme": 5958,
    "▁pet": 5959,
    "▁stand": 5960,
    "lam": 5961,
    "▁specified": 5962,
    "▁Lebensmittel": 5963,
    "▁five": 5964,
    "▁associated": 5965,
    "ис": 5966,
    "пи": 5967,
    "▁establishment": 5968,
    "gram": 5969,
    "▁saņemt": 5970,
    "▁game": 5971,
    "▁veikla": 5972,
    "▁daļā": 5973,
    "тив": 5974,
    "▁iespēju": 5975,
    "▁erst": 5976,
    "▁vartojant": 5977,
    "▁politika": 5978,
    "ālā": 5979,
    "▁dz": 5980,
    "sko": 5981,
    "▁firm": 5982,
    "prat": 5983,
    "alue": 5984,
    "▁toetuse": 5985,
    "▁Assembly": 5986,
    "вать": 5987,
    "või": 5988,
    "▁kasutamist": 5989,
    "▁difficult": 5990,
    "kom": 5991,
    "iš": 5992,
    "▁sutrikimai": 5993,
    "▁nuostatos": 5994,
    "seen": 5995,
    "raud": 5996,
    "▁politin": 5997,
    "▁liittyvät": 5998,
    "▁kellel": 5999,
    "▁besser": 6000,
    "nehmen": 6001,
    "▁balance": 6002,
    "cijos": 6003,
    "▁EEE": 6004,
    "era": 6005,
    "▁reach": 6006,
    "▁http": 6007,
    "▁bestimmten": 6008,
    "▁naha": 6009,
    "▁month": 6010,
    "▁central": 6011,
    "▁Air": 6012,
    "▁log": 6013,
    "▁Dž": 6014,
    "▁analiz": 6015,
    "gabe": 6016,
    "ndid": 6017,
    "▁gaisa": 6018,
    "▁mõned": 6019,
    "▁Ihren": 6020,
    "▁tipa": 6021,
    "▁kaikkien": 6022,
    "▁elä": 6023,
    "▁room": 6024,
    "▁try": 6025,
    "mės": 6026,
    "▁uuri": 6027,
    "▁nepri": 6028,
    "▁Х": 6029,
    "▁Ed": 6030,
    "▁testi": 6031,
    "▁teda": 6032,
    "▁vorliegenden": 6033,
    "▁päeval": 6034,
    "▁gegebenenfalls": 6035,
    "чен": 6036,
    "▁kurām": 6037,
    "▁opt": 6038,
    "▁pievienot": 6039,
    "тр": 6040,
    "▁Das": 6041,
    "▁sollen": 6042,
    "▁projects": 6043,
    "▁sää": 6044,
    "ск": 6045,
    "▁later": 6046,
    "▁klient": 6047,
    "▁taha": 6048,
    "miste": 6049,
    "▁kommt": 6050,
    "▁olete": 6051,
    "▁tritt": 6052,
    "▁artiklassa": 6053,
    "▁ema": 6054,
    "led": 6055,
    "▁stark": 6056,
    "▁Gemeinschaften": 6057,
    "▁valdžios": 6058,
    "▁Ausschuss": 6059,
    "▁mahdollista": 6060,
    "▁könnten": 6061,
    "leg": 6062,
    "ido": 6063,
    "▁ter": 6064,
    "▁kalt": 6065,
    "IT": 6066,
    "▁family": 6067,
    "▁longer": 6068,
    "▁dessen": 6069,
    "▁susijusių": 6070,
    "▁fixed": 6071,
    "▁Act": 6072,
    "žr": 6073,
    "▁move": 6074,
    "▁payment": 6075,
    "▁fen": 6076,
    "▁towards": 6077,
    "▁noteikumu": 6078,
    "rio": 6079,
    "▁atbilstoši": 6080,
    "▁Gar": 6081,
    "85": 6082,
    "▁хочу": 6083,
    "▁tap": 6084,
    "▁recent": 6085,
    "▁kehtestatakse": 6086,
    "liz": 6087,
    "tį": 6088,
    "▁detsembri": 6089,
    "jus": 6090,
    "▁izmaksas": 6091,
    "▁meta": 6092,
    "▁sea": 6093,
    "▁dienos": 6094,
    "▁Tage": 6095,
    "▁будут": 6096,
    "▁aufge": 6097,
    "▁supply": 6098,
    "▁ieguldījumu": 6099,
    "▁67": 6100,
    "▁member": 6101,
    "▁план": 6102,
    "▁gyv": 6103,
    "▁haluaisin": 6104,
    "▁nedēļā": 6105,
    "▁World": 6106,
    "ąjį": 6107,
    "говор": 6108,
    "▁raames": 6109,
    "▁del": 6110,
    "▁один": 6111,
    "▁reizi": 6112,
    "▁ainoastaan": 6113,
    "FI": 6114,
    "aar": 6115,
    "▁vaikea": 6116,
    "▁Germany": 6117,
    "yri": 6118,
    "▁hydro": 6119,
    "▁finden": 6120,
    "▁koncentracija": 6121,
    "▁Not": 6122,
    "▁therapy": 6123,
    "▁affect": 6124,
    "ova": 6125,
    "ģe": 6126,
    "▁producers": 6127,
    "▁often": 6128,
    "▁rank": 6129,
    "mēr": 6130,
    "▁asendatakse": 6131,
    "μ": 6132,
    "▁Kapitel": 6133,
    "атель": 6134,
    "▁avulla": 6135,
    "▁ongelma": 6136,
    "schlag": 6137,
    "▁Dia": 6138,
    "amme": 6139,
    "kad": 6140,
    "▁tasa": 6141,
    "▁program": 6142,
    "▁prad": 6143,
    "▁otsust": 6144,
    "гл": 6145,
    "▁74": 6146,
    "▁atsak": 6147,
    "▁viskas": 6148,
    "▁baig": 6149,
    "UN": 6150,
    "▁priedas": 6151,
    "▁Regelung": 6152,
    "oties": 6153,
    "▁tarjoa": 6154,
    "▁turvallisuus": 6155,
    "▁Fu": 6156,
    "83": 6157,
    "▁pētījumos": 6158,
    "▁tabletes": 6159,
    "cē": 6160,
    "▁Kontrolle": 6161,
    "lat": 6162,
    "▁veikia": 6163,
    "▁called": 6164,
    "▁žinoma": 6165,
    "▁Ч": 6166,
    "▁sav": 6167,
    "▁competition": 6168,
    "▁fat": 6169,
    "▁šioje": 6170,
    "▁National": 6171,
    "▁online": 6172,
    "▁muitas": 6173,
    "IL": 6174,
    "Ā": 6175,
    "▁hemo": 6176,
    "▁implementing": 6177,
    "▁substances": 6178,
    "▁Brussels": 6179,
    "▁Liit": 6180,
    "▁nieru": 6181,
    "▁lēmuma": 6182,
    "▁закон": 6183,
    "▁atzinumu": 6184,
    "▁2012.": 6185,
    "▁Protocol": 6186,
    "▁väl": 6187,
    "▁gemacht": 6188,
    "yy": 6189,
    "▁medžiaga": 6190,
    "Ж": 6191,
    "▁Jahres": 6192,
    "ceļ": 6193,
    "▁konkreetse": 6194,
    "▁jam": 6195,
    "▁juhtu": 6196,
    "▁kurus": 6197,
    "▁järel": 6198,
    "пад": 6199,
    "hren": 6200,
    "пре": 6201,
    "▁Einzel": 6202,
    "otto": 6203,
    "▁Trans": 6204,
    "▁valid": 6205,
    "▁treated": 6206,
    "▁farm": 6207,
    "▁kontrolės": 6208,
    "ц": 6209,
    "▁nature": 6210,
    "▁Zugang": 6211,
    "zug": 6212,
    "▁atbilstīgi": 6213,
    "ziert": 6214,
    "pide": 6215,
    "▁paku": 6216,
    "cho": 6217,
    "▁charge": 6218,
    "▁nustatytos": 6219,
    "▁вид": 6220,
    "▁1)": 6221,
    "▁detailed": 6222,
    "IV": 6223,
    "57": 6224,
    "▁levi": 6225,
    "bank": 6226,
    "▁paper": 6227,
    "▁räägi": 6228,
    "amo": 6229,
    "▁events": 6230,
    "▁Untersuchung": 6231,
    "▁hab": 6232,
    "▁foreign": 6233,
    "▁varas": 6234,
    "jis": 6235,
    "5000": 6236,
    "▁frei": 6237,
    "енных": 6238,
    "▁Leben": 6239,
    "▁kust": 6240,
    "grad": 6241,
    "▁eksporto": 6242,
    "AL": 6243,
    "▁syn": 6244,
    "NA": 6245,
    "iff": 6246,
    "▁Gründung": 6247,
    "IP": 6248,
    "▁decisions": 6249,
    "ux": 6250,
    "▁pagrįst": 6251,
    "fü": 6252,
    "▁sinua": 6253,
    "▁izņemot": 6254,
    "▁kitas": 6255,
    "лет": 6256,
    "▁kontroles": 6257,
    "▁apakšpunktā": 6258,
    "▁ECB": 6259,
    "cas": 6260,
    "ismus": 6261,
    "▁needed": 6262,
    "▁reduce": 6263,
    "▁tietojen": 6264,
    "idega": 6265,
    "▁julk": 6266,
    "▁argument": 6267,
    "staat": 6268,
    "inu": 6269,
    "ден": 6270,
    "valu": 6271,
    "▁Mann": 6272,
    "site": 6273,
    "reich": 6274,
    "▁schnell": 6275,
    "ozė": 6276,
    "▁Regulā": 6277,
    "▁põhjus": 6278,
    "▁saadud": 6279,
    "ising": 6280,
    "▁laaj": 6281,
    "▁tolli": 6282,
    "▁meiner": 6283,
    "▁Situation": 6284,
    "ится": 6285,
    "▁attiecīgā": 6286,
    "▁große": 6287,
    "▁õige": 6288,
    "▁steht": 6289,
    "▁sowohl": 6290,
    "▁ameti": 6291,
    "▁team": 6292,
    "▁Special": 6293,
    "▁Ebene": 6294,
    "▁suu": 6295,
    "usten": 6296,
    "▁operations": 6297,
    "sektor": 6298,
    "▁fo": 6299,
    ".“": 6300,
    "gestellt": 6301,
    "▁связи": 6302,
    "рак": 6303,
    "▁popul": 6304,
    "▁novērtē": 6305,
    "kalt": 6306,
    "schließen": 6307,
    "▁Ко": 6308,
    "▁võetud": 6309,
    "burg": 6310,
    "gos": 6311,
    "▁ban": 6312,
    "▁Wir": 6313,
    "▁Tä": 6314,
    "▁rūp": 6315,
    "āji": 6316,
    "▁einzu": 6317,
    "ąsias": 6318,
    "▁pavadinimas": 6319,
    "▁Men": 6320,
    "▁rada": 6321,
    "▁lower": 6322,
    "▁authorisation": 6323,
    "▁virš": 6324,
    "▁importance": 6325,
    "▁territory": 6326,
    "▁citām": 6327,
    "▁event": 6328,
    "▁teisę": 6329,
    "▁society": 6330,
    "▁tave": 6331,
    "bericht": 6332,
    "▁lii": 6333,
    "▁vähem": 6334,
    "▁otse": 6335,
    "▁Party": 6336,
    "▁fully": 6337,
    "▁įvertin": 6338,
    "▁produktai": 6339,
    "ett": 6340,
    "▁interferon": 6341,
    "▁hästi": 6342,
    "auk": 6343,
    "▁Хорошо": 6344,
    "ющих": 6345,
    "▁six": 6346,
    "кой": 6347,
    "ста": 6348,
    "▁promote": 6349,
    "▁suuren": 6350,
    "tiec": 6351,
    "▁Zahl": 6352,
    "▁weiterhin": 6353,
    "▁struktūr": 6354,
    "▁sage": 6355,
    "▁ü": 6356,
    "iivse": 6357,
    "▁fishing": 6358,
    "muut": 6359,
    "▁kādu": 6360,
    "istus": 6361,
    "ально": 6362,
    "▁led": 6363,
    "toodete": 6364,
    "tvark": 6365,
    "šiem": 6366,
    "▁profit": 6367,
    "▁average": 6368,
    "гла": 6369,
    "▁etwa": 6370,
    "▁Oktober": 6371,
    "▁šiandien": 6372,
    "▁pasiek": 6373,
    "▁teises": 6374,
    "▁сказал": 6375,
    "▁werde": 6376,
    "▁lõpeta": 6377,
    "likult": 6378,
    "▁evidence": 6379,
    "▁орган": 6380,
    "▁vaistini": 6381,
    "84": 6382,
    "dot": 6383,
    "±": 6384,
    "ret": 6385,
    "▁eel": 6386,
    "▁Organ": 6387,
    "500": 6388,
    "Б": 6389,
    "▁standarta": 6390,
    "▁issued": 6391,
    "▁tipo": 6392,
    "▁rizikos": 6393,
    "īc": 6394,
    "yr": 6395,
    "▁although": 6396,
    "▁nuclear": 6397,
    "▁Social": 6398,
    "▁daily": 6399,
    "▁isiku": 6400,
    "joje": 6401,
    "▁fair": 6402,
    "▁государства": 6403,
    "sign": 6404,
    "▁strategy": 6405,
    "niecības": 6406,
    "dab": 6407,
    "▁kiit": 6408,
    "▁spo": 6409,
    "▁etu": 6410,
    "PI": 6411,
    "tiem": 6412,
    "meni": 6413,
    "▁Fischerei": 6414,
    "▁deleg": 6415,
    "▁Ac": 6416,
    "▁thing": 6417,
    "▁Ur": 6418,
    "▁Mer": 6419,
    "nieku": 6420,
    "ajam": 6421,
    "▁vec": 6422,
    "▁create": 6423,
    "▁lyg": 6424,
    "▁Fassung": 6425,
    "▁tyrimo": 6426,
    "hing": 6427,
    "▁Zulassung": 6428,
    "korra": 6429,
    "āls": 6430,
    "▁waste": 6431,
    "▁права": 6432,
    "lung": 6433,
    "▁pig": 6434,
    "rind": 6435,
    "▁sugar": 6436,
    "endus": 6437,
    "▁išmok": 6438,
    "▁offen": 6439,
    "▁Nor": 6440,
    "▁vari": 6441,
    "▁skirtas": 6442,
    "▁naudo": 6443,
    "▁своей": 6444,
    "▁Gemeinsame": 6445,
    "īm": 6446,
    "▁missä": 6447,
    "▁entsprechen": 6448,
    "▁Dan": 6449,
    "▁Yes": 6450,
    "▁parts": 6451,
    "▁lennu": 6452,
    "▁свою": 6453,
    "▁juht": 6454,
    "▁nustatytas": 6455,
    "lig": 6456,
    "▁Ка": 6457,
    "▁kolmanda": 6458,
    "▁meillä": 6459,
    "▁EEZ": 6460,
    "▁rec": 6461,
    "menettely": 6462,
    "▁duty": 6463,
    "▁Об": 6464,
    "▁эти": 6465,
    "RT": 6466,
    "▁plant": 6467,
    "▁aim": 6468,
    "▁kõikide": 6469,
    "▁pysty": 6470,
    "pea": 6471,
    "ogeen": 6472,
    "▁veikti": 6473,
    "▁96": 6474,
    "4-": 6475,
    "▁šeit": 6476,
    "kontsentratsioon": 6477,
    "▁file": 6478,
    "▁Irbesartan": 6479,
    "zie": 6480,
    "mpaa": 6481,
    "▁young": 6482,
    "ix": 6483,
    "ong": 6484,
    "▁kauba": 6485,
    "ką": 6486,
    "▁gewährt": 6487,
    "▁vakar": 6488,
    "▁taisyklės": 6489,
    "▁toimeaine": 6490,
    "▁valtion": 6491,
    "▁Rechnung": 6492,
    "▁attention": 6493,
    "▁ota": 6494,
    "▁muudetud": 6495,
    "ville": 6496,
    "ota": 6497,
    "▁vakcin": 6498,
    "▁improve": 6499,
    "▁Verbraucher": 6500,
    "▁lääkevalmiste": 6501,
    "▁hervor": 6502,
    "etaan": 6503,
    "▁mõjuta": 6504,
    "▁Herrn": 6505,
    "komitee": 6506,
    "▁Industrie": 6507,
    "▁võimalus": 6508,
    "rė": 6509,
    "▁palielināt": 6510,
    "▁vehicle": 6511,
    "▁narėms": 6512,
    "eben": 6513,
    "▁Bra": 6514,
    "iņu": 6515,
    "▁sulle": 6516,
    "agi": 6517,
    "isessa": 6518,
    "▁ii": 6519,
    "▁täysin": 6520,
    "tarp": 6521,
    "▁yhteistyö": 6522,
    "ono": 6523,
    "▁daran": 6524,
    "76": 6525,
    "▁программ": 6526,
    "▁этих": 6527,
    "▁vähene": 6528,
    "▁Part": 6529,
    "▁appear": 6530,
    "▁samaa": 6531,
    "▁tokio": 6532,
    "ēšanu": 6533,
    "▁Lai": 6534,
    "▁establish": 6535,
    "TO": 6536,
    "▁military": 6537,
    "▁cap": 6538,
    "▁įsigalioja": 6539,
    "▁izraisīt": 6540,
    "▁pask": 6541,
    "säännö": 6542,
    "ėtų": 6543,
    "▁teadus": 6544,
    "eti": 6545,
    "▁ise": 6546,
    "▁2001/": 6547,
    "▁macht": 6548,
    "▁involved": 6549,
    "ably": 6550,
    "▁focus": 6551,
    "fonds": 6552,
    "▁wenig": 6553,
    "▁eurot": 6554,
    "zel": 6555,
    "▁sport": 6556,
    "▁panaikin": 6557,
    "▁objectives": 6558,
    "▁limited": 6559,
    "▁vol": 6560,
    "▁klo": 6561,
    "▁pakk": 6562,
    "▁Kü": 6563,
    "ntis": 6564,
    "важ": 6565,
    "acc": 6566,
    "▁others": 6567,
    "▁iesaistīt": 6568,
    "▁principle": 6569,
    "чет": 6570,
    "▁Sąjunga": 6571,
    "EF": 6572,
    "▁других": 6573,
    "▁mol": 6574,
    "esni": 6575,
    "pēt": 6576,
    "▁South": 6577,
    "▁государств": 6578,
    "▁responsibility": 6579,
    "▁hyper": 6580,
    "▁regulā": 6581,
    "hä": 6582,
    "utta": 6583,
    "▁mõne": 6584,
    "▁Ausschusses": 6585,
    "▁kre": 6586,
    "▁principles": 6587,
    "▁pvz": 6588,
    "isesta": 6589,
    "▁gemeinsamen": 6590,
    "▁izveido": 6591,
    "ooli": 6592,
    "MI": 6593,
    "рен": 6594,
    "▁isikute": 6595,
    "▁lei": 6596,
    "EM": 6597,
    "▁vispār": 6598,
    "suunnitelma": 6599,
    "▁performance": 6600,
    "▁pasakyti": 6601,
    "ист": 6602,
    "tischen": 6603,
    "▁05": 6604,
    "▁gesagt": 6605,
    "▁Vertrags": 6606,
    "▁teik": 6607,
    "▁lēmums": 6608,
    "▁sasniegt": 6609,
    "ētas": 6610,
    "▁1234/2007": 6611,
    "die": 6612,
    "uksiin": 6613,
    "▁erhält": 6614,
    "▁Str": 6615,
    "▁Ausgaben": 6616,
    "▁original": 6617,
    "▁[6]": 6618,
    "▁unterstützen": 6619,
    "time": 6620,
    "▁rule": 6621,
    "▁šiuos": 6622,
    "▁šāda": 6623,
    "▁gli": 6624,
    "▁ensi": 6625,
    "▁боль": 6626,
    "selben": 6627,
    "aciją": 6628,
    "▁mērķi": 6629,
    "▁markkina": 6630,
    "▁pirk": 6631,
    "/2006": 6632,
    "▁seen": 6633,
    "▁freedom": 6634,
    "▁vietas": 6635,
    "▁soon": 6636,
    "▁žem": 6637,
    "▁bas": 6638,
    "▁lip": 6639,
    "über": 6640,
    "▁handelt": 6641,
    "▁joint": 6642,
    "▁record": 6643,
    "▁jung": 6644,
    "kuju": 6645,
    "▁(≥": 6646,
    "▁kehtestatud": 6647,
    "▁yhteen": 6648,
    "ppu": 6649,
    "▁Punkt": 6650,
    "▁Bendrijų": 6651,
    "▁mel": 6652,
    ".5.": 6653,
    "džio": 6654,
    "▁gadam": 6655,
    "▁jiems": 6656,
    "▁debt": 6657,
    "finans": 6658,
    "▁direkt": 6659,
    "sugu": 6660,
    "▁kontakt": 6661,
    "▁valmista": 6662,
    "▁aikaan": 6663,
    "▁Ji": 6664,
    "▁против": 6665,
    "▁teavet": 6666,
    "▁answer": 6667,
    "ETY": 6668,
    "▁käyttöä": 6669,
    "▁sw": 6670,
    "▁amendments": 6671,
    "▁fight": 6672,
    "vää": 6673,
    "▁child": 6674,
    "▁kokonais": 6675,
    "▁безопасности": 6676,
    "ktor": 6677,
    "▁programmi": 6678,
    "▁toteutta": 6679,
    "▁лиц": 6680,
    "▁parasti": 6681,
    "▁Malta": 6682,
    "pära": 6683,
    "▁järgmist": 6684,
    "toa": 6685,
    "▁lahus": 6686,
    "eesi": 6687,
    "▁würden": 6688,
    "▁ч": 6689,
    "vest": 6690,
    "▁top": 6691,
    "politiikan": 6692,
    "abol": 6693,
    "▁left": 6694,
    "▁Cha": 6695,
    "cept": 6696,
    "▁il": 6697,
    "STA": 6698,
    "▁empfohlen": 6699,
    "▁olevat": 6700,
    "▁Amtsblatt": 6701,
    "▁всего": 6702,
    "gus": 6703,
    "▁käytettävä": 6704,
    "▁можно": 6705,
    "▁raštu": 6706,
    "ppe": 6707,
    "side": 6708,
    "▁interests": 6709,
    "▁ему": 6710,
    "▁вопросам": 6711,
    "isiert": 6712,
    "▁rakendamise": 6713,
    "werte": 6714,
    "iniais": 6715,
    "реш": 6716,
    "▁vaistų": 6717,
    "▁direktīvas": 6718,
    "▁siten": 6719,
    "pha": 6720,
    "pū": 6721,
    "▁esimerkiksi": 6722,
    "▁heaks": 6723,
    "▁Де": 6724,
    "steuer": 6725,
    "▁Weg": 6726,
    "▁Strategie": 6727,
    "MP": 6728,
    "ED": 6729,
    "▁erreicht": 6730,
    "▁krit": 6731,
    "▁suurem": 6732,
    "▁pilnībā": 6733,
    "damos": 6734,
    "oidu": 6735,
    "▁combination": 6736,
    "▁sanofi": 6737,
    "чно": 6738,
    "▁kiinni": 6739,
    "▁conflict": 6740,
    "▁RE": 6741,
    "▁edellä": 6742,
    "▁follows": 6743,
    "▁direktiiv": 6744,
    "▁fr": 6745,
    "tische": 6746,
    "▁maksājumu": 6747,
    "aste": 6748,
    "▁torju": 6749,
    "▁vajaduse": 6750,
    "▁bestimmt": 6751,
    "▁Za": 6752,
    "▁pik": 6753,
    "▁Nicht": 6754,
    "tamiseks": 6755,
    "▁bodies": 6756,
    "▁Haupt": 6757,
    "vit": 6758,
    "▁Che": 6759,
    "▁Ziele": 6760,
    "▁ship": 6761,
    "“,": 6762,
    "Ver": 6763,
    "ūz": 6764,
    "ней": 6765,
    "4)": 6766,
    "ät": 6767,
    "ttanut": 6768,
    "lase": 6769,
    "сп": 6770,
    "lip": 6771,
    "▁līguma": 6772,
    "▁Вот": 6773,
    "rig": 6774,
    "TR": 6775,
    "▁tokiu": 6776,
    "▁īpašu": 6777,
    "▁mene": 6778,
    "йте": 6779,
    "▁san": 6780,
    "Veröffentlichung": 6781,
    "▁school": 6782,
    "▁motor": 6783,
    "▁lento": 6784,
    "▁EWR": 6785,
    "▁nauj": 6786,
    "▁призна": 6787,
    "▁pievieno": 6788,
    "▁Direktīvu": 6789,
    "▁olukorra": 6790,
    "sopimukse": 6791,
    "zija": 6792,
    "skie": 6793,
    "▁laikas": 6794,
    "▁niistä": 6795,
    "нима": 6796,
    "▁disc": 6797,
    "kredit": 6798,
    "▁Ky": 6799,
    "▁besonders": 6800,
    "▁grupės": 6801,
    "dyti": 6802,
    "eerimis": 6803,
    "centr": 6804,
    "▁Förderung": 6805,
    "▁paredzēta": 6806,
    "essen": 6807,
    "▁Mrs": 6808,
    "stituci": 6809,
    "▁цен": 6810,
    "▁Miks": 6811,
    "ация": 6812,
    "▁vuotta": 6813,
    "▁class": 6814,
    "▁materials": 6815,
    "ēšana": 6816,
    "▁Einfuhren": 6817,
    "▁video": 6818,
    "▁context": 6819,
    "▁Ken": 6820,
    "zī": 6821,
    "▁Wirkung": 6822,
    "аль": 6823,
    "▁öelda": 6824,
    "▁representative": 6825,
    "ah": 6826,
    "▁Bewertung": 6827,
    "▁institucijų": 6828,
    "kiri": 6829,
    "▁amending": 6830,
    "ajan": 6831,
    "ēd": 6832,
    "lepingu": 6833,
    "▁Möglichkeit": 6834,
    "▁03": 6835,
    "▁ihrem": 6836,
    "▁kõiki": 6837,
    "▁Ли": 6838,
    "kompens": 6839,
    "▁cenas": 6840,
    "▁bendro": 6841,
    "uste": 6842,
    "einander": 6843,
    "dro": 6844,
    "asti": 6845,
    "▁reikalavimų": 6846,
    "▁itself": 6847,
    "▁ekspert": 6848,
    "▁package": 6849,
    "▁norādīt": 6850,
    "▁arv": 6851,
    "lv": 6852,
    "▁develop": 6853,
    "▁Verbindung": 6854,
    "▁tokių": 6855,
    "▁reglamente": 6856,
    "▁tõhusa": 6857,
    "▁fundamental": 6858,
    "nnut": 6859,
    "oksen": 6860,
    "\")": 6861,
    "liec": 6862,
    "inta": 6863,
    "▁pako": 6864,
    "vuoro": 6865,
    "ksen": 6866,
    "gebiet": 6867,
    "▁Līguma": 6868,
    "▁nozares": 6869,
    "▁väline": 6870,
    "ость": 6871,
    "rgi": 6872,
    "ējo": 6873,
    "▁kand": 6874,
    "▁measure": 6875,
    "ėjimas": 6876,
    "▁agreements": 6877,
    "▁jāpa": 6878,
    "lliset": 6879,
    "▁sand": 6880,
    "AM": 6881,
    "saimnie": 6882,
    "▁steigimo": 6883,
    "▁rates": 6884,
    "▁robež": 6885,
    "▁seuraavasti": 6886,
    "дет": 6887,
    "sioon": 6888,
    "▁aktus": 6889,
    "▁pitkä": 6890,
    "teilung": 6891,
    "nnan": 6892,
    "▁London": 6893,
    "▁кор": 6894,
    "▁nepie": 6895,
    "▁määratud": 6896,
    "ējiem": 6897,
    "▁sit": 6898,
    "▁visās": 6899,
    "▁wa": 6900,
    "siin": 6901,
    "▁63": 6902,
    "ymą": 6903,
    "▁arvan": 6904,
    "misele": 6905,
    "pot": 6906,
    "▁Tier": 6907,
    "▁März": 6908,
    "▁Cmax": 6909,
    "▁loss": 6910,
    "IA": 6911,
    "▁achieve": 6912,
    "пол": 6913,
    "sar": 6914,
    "gla": 6915,
    "▁cita": 6916,
    "▁employment": 6917,
    "▁fla": 6918,
    "▁opportunity": 6919,
    "alle": 6920,
    "▁muka": 6921,
    "▁pol": 6922,
    "▁paket": 6923,
    "assa": 6924,
    "kaal": 6925,
    "▁indem": 6926,
    "kle": 6927,
    "ojus": 6928,
    "▁spalio": 6929,
    "▁subparagraph": 6930,
    "▁liha": 6931,
    "▁analysis": 6932,
    "▁reg": 6933,
    "▁agree": 6934,
    "kaitse": 6935,
    "▁ni": 6936,
    "▁kuud": 6937,
    "▁kahden": 6938,
    "▁Protokoll": 6939,
    "nõud": 6940,
    "taria": 6941,
    "▁užtikrina": 6942,
    "ban": 6943,
    "▁mut": 6944,
    "▁siht": 6945,
    "liini": 6946,
    "▁Latvia": 6947,
    "▁richtig": 6948,
    "unk": 6949,
    "▁2001.": 6950,
    "ABl": 6951,
    "Ko": 6952,
    "▁asjaolu": 6953,
    "▁pirmo": 6954,
    "uutta": 6955,
    "▁feel": 6956,
    "▁vaara": 6957,
    "гу": 6958,
    "▁vahe": 6959,
    "▁uzņēmumiem": 6960,
    "eren": 6961,
    "▁heart": 6962,
    "▁pane": 6963,
    "CP": 6964,
    "rd": 6965,
    "▁ženkl": 6966,
    "се": 6967,
    "▁Injektion": 6968,
    "ай": 6969,
    "бра": 6970,
    "tauti": 6971,
    "▁behandelt": 6972,
    "▁gydyti": 6973,
    "▁rinkoje": 6974,
    "▁substance": 6975,
    "▁rather": 6976,
    "▁elin": 6977,
    "▁method": 6978,
    "▁aukšt": 6979,
    "weit": 6980,
    "▁Krise": 6981,
    "▁This": 6982,
    "▁tavalla": 6983,
    "▁reng": 6984,
    "ации": 6985,
    "▁grūt": 6986,
    "▁bra": 6987,
    "450": 6988,
    "▁1991": 6989,
    "▁lielāka": 6990,
    "▁verbindlich": 6991,
    "▁importu": 6992,
    "▁suhte": 6993,
    "llisia": 6994,
    "maž": 6995,
    "AP": 6996,
    "chung": 6997,
    "▁programmas": 6998,
    "lind": 6999,
    "▁jõustub": 7000,
    "десят": 7001,
    "▁domestic": 7002,
    "92/": 7003,
    "▁contains": 7004,
    "iinin": 7005,
    "▁Person": 7006,
    "▁interes": 7007,
    "▁täglich": 7008,
    "▁size": 7009,
    "▁vanden": 7010,
    "▁eksportē": 7011,
    "jant": 7012,
    "▁Finanzierung": 7013,
    "main": 7014,
    "▁Produkt": 7015,
    "▁Kosovo": 7016,
    "haft": 7017,
    "▁Ро": 7018,
    "uok": 7019,
    "bor": 7020,
    "▁kitą": 7021,
    "▁(7)": 7022,
    "▁tegi": 7023,
    "▁rent": 7024,
    "▁этим": 7025,
    "“)": 7026,
    "▁Kui": 7027,
    "jū": 7028,
    "▁Mitglieder": 7029,
    "mē": 7030,
    "▁märk": 7031,
    "doz": 7032,
    "▁мира": 7033,
    "zar": 7034,
    "▁took": 7035,
    "▁occur": 7036,
    "▁süsti": 7037,
    "▁understand": 7038,
    "▁atžvilgiu": 7039,
    "▁half": 7040,
    "▁notiek": 7041,
    "▁Höhe": 7042,
    "CO": 7043,
    "raha": 7044,
    "▁800": 7045,
    "▁Fällen": 7046,
    "▁Спасибо": 7047,
    "▁release": 7048,
    "▁Erklärung": 7049,
    "▁sä": 7050,
    "schein": 7051,
    "▁produkto": 7052,
    "▁alt": 7053,
    "▁consideration": 7054,
    "▁Wert": 7055,
    "ists": 7056,
    "enda": 7057,
    "statud": 7058,
    "umb": 7059,
    "▁risku": 7060,
    "pel": 7061,
    "▁laikotarpiu": 7062,
    "▁preču": 7063,
    "▁Vergleich": 7064,
    "▁aega": 7065,
    "erzeugnisse": 7066,
    "▁dienu": 7067,
    "▁Meinung": 7068,
    "▁Kre": 7069,
    "щи": 7070,
    "▁Gr": 7071,
    "▁rahvusvahelise": 7072,
    "▁previous": 7073,
    "▁91": 7074,
    "▁plāno": 7075,
    "▁prekių": 7076,
    "cess": 7077,
    "бы": 7078,
    "▁Bas": 7079,
    "▁документ": 7080,
    "rag": 7081,
    "нос": 7082,
    "▁sistemą": 7083,
    "verfahren": 7084,
    "vie": 7085,
    "aid": 7086,
    "▁Verbesserung": 7087,
    "▁reasons": 7088,
    "▁parād": 7089,
    "ūra": 7090,
    "▁seuraava": 7091,
    "▁Island": 7092,
    "▁structure": 7093,
    "▁skaičius": 7094,
    "kių": 7095,
    "▁skaits": 7096,
    "61": 7097,
    "▁86": 7098,
    "zep": 7099,
    "▁keel": 7100,
    "weisen": 7101,
    "▁iesniedz": 7102,
    "▁separate": 7103,
    "ious": 7104,
    "uoto": 7105,
    "isista": 7106,
    "īgas": 7107,
    "▁hiper": 7108,
    "hvi": 7109,
    "führung": 7110,
    "▁tender": 7111,
    "▁свои": 7112,
    "▁Kredit": 7113,
    "▁zeigt": 7114,
    "▁bereit": 7115,
    "schluss": 7116,
    "▁Enbrel": 7117,
    "овать": 7118,
    "ators": 7119,
    "▁него": 7120,
    "▁actually": 7121,
    "▁valmiste": 7122,
    "ank": 7123,
    "▁деятельности": 7124,
    "▁provision": 7125,
    "▁Ang": 7126,
    "uotas": 7127,
    "▁nurodyti": 7128,
    "▁хорошо": 7129,
    "▁customs": 7130,
    "▁galutin": 7131,
    "▁esindaja": 7132,
    "▁away": 7133,
    "▁Haluan": 7134,
    "dienste": 7135,
    "mul": 7136,
    "▁õigusaktide": 7137,
    "▁leave": 7138,
    "▁lietošanu": 7139,
    "▁(5": 7140,
    "▁ever": 7141,
    "▁Conference": 7142,
    "▁skin": 7143,
    "▁volume": 7144,
    "▁toivo": 7145,
    "▁Verwaltungs": 7146,
    "▁lau": 7147,
    "▁abil": 7148,
    "oita": 7149,
    "īz": 7150,
    "▁alati": 7151,
    "▁iegūt": 7152,
    "slēg": 7153,
    "▁maintain": 7154,
    "▁juhi": 7155,
    "3%": 7156,
    "▁Bro": 7157,
    "▁lääke": 7158,
    "NL": 7159,
    "луч": 7160,
    "▁ietver": 7161,
    "īda": 7162,
    "▁piemērojama": 7163,
    "▁viss": 7164,
    "▁jõud": 7165,
    "▁syö": 7166,
    "▁priklauso": 7167,
    "▁них": 7168,
    "▁deklar": 7169,
    "fr": 7170,
    "▁published": 7171,
    "▁которая": 7172,
    "▁samal": 7173,
    "▁paties": 7174,
    "ētā": 7175,
    "▁pašu": 7176,
    "▁Ireland": 7177,
    "ēts": 7178,
    "▁anna": 7179,
    "▁europäische": 7180,
    "īja": 7181,
    "šķī": 7182,
    "▁avalda": 7183,
    "ож": 7184,
    "▁Vabariigi": 7185,
    "▁cross": 7186,
    "rix": 7187,
    "▁Comb": 7188,
    "▁Verpflichtungen": 7189,
    "▁hänet": 7190,
    "▁kansalais": 7191,
    "▁eu": 7192,
    "▁Health": 7193,
    "жива": 7194,
    "▁enintään": 7195,
    "▁nodokļu": 7196,
    "iņas": 7197,
    "▁suuda": 7198,
    "▁toimet": 7199,
    "▁toimia": 7200,
    "▁Stunden": 7201,
    "▁insulino": 7202,
    "▁analüüsi": 7203,
    "▁exist": 7204,
    "▁dati": 7205,
    "▁gydymą": 7206,
    "▁valtio": 7207,
    "▁weit": 7208,
    "▁marketing": 7209,
    "q": 7210,
    "▁inkstų": 7211,
    "▁indicated": 7212,
    "▁atlikt": 7213,
    "▁reflect": 7214,
    "▁shown": 7215,
    "▁radi": 7216,
    "▁mees": 7217,
    "▁lay": 7218,
    "▁Product": 7219,
    "▁actions": 7220,
    "▁clearly": 7221,
    "▁Hiina": 7222,
    "järjestelmä": 7223,
    "comm": 7224,
    "trakt": 7225,
    "▁71": 7226,
    "▁whose": 7227,
    "vaid": 7228,
    "▁allerdings": 7229,
    "▁peaksid": 7230,
    "▁veida": 7231,
    "▁PIE": 7232,
    "▁kõikides": 7233,
    "▁immediately": 7234,
    "▁vides": 7235,
    "▁neile": 7236,
    "▁kompetentā": 7237,
    "ед": 7238,
    "▁koskevien": 7239,
    "▁aknu": 7240,
    "▁organisation": 7241,
    "▁comply": 7242,
    "▁Sto": 7243,
    "▁lääkäri": 7244,
    "▁enough": 7245,
    "▁perustamis": 7246,
    "▁liegen": 7247,
    "▁terapijas": 7248,
    "▁4).": 7249,
    "-2-": 7250,
    "▁Kin": 7251,
    "gesichts": 7252,
    "▁tir": 7253,
    "▁vērtības": 7254,
    "▁pareng": 7255,
    "▁teosta": 7256,
    "sicherheit": 7257,
    "prosessi": 7258,
    "▁hol": 7259,
    "▁diplom": 7260,
    "ological": 7261,
    "▁väärtus": 7262,
    "reichen": 7263,
    "▁IntronA": 7264,
    "eten": 7265,
    "▁faktori": 7266,
    "▁kannalta": 7267,
    "EX": 7268,
    "▁šau": 7269,
    "▁teisi": 7270,
    "▁viimase": 7271,
    "▁renal": 7272,
    "▁užsi": 7273,
    "▁neil": 7274,
    "▁период": 7275,
    "ėjusi": 7276,
    "▁nothing": 7277,
    "▁paid": 7278,
    "7%": 7279,
    "▁mass": 7280,
    "ded": 7281,
    "pic": 7282,
    "▁balt": 7283,
    "▁Mus": 7284,
    "ču": 7285,
    "▁procedūra": 7286,
    "▁tunni": 7287,
    "ijų": 7288,
    "džių": 7289,
    "▁kokkuleppe": 7290,
    "▁neli": 7291,
    "▁Comp": 7292,
    "MO": 7293,
    "▁jäsenvaltiot": 7294,
    "▁todella": 7295,
    "faktor": 7296,
    "▁voimme": 7297,
    "cis": 7298,
    "▁pramonės": 7299,
    "▁sistēma": 7300,
    "lok": 7301,
    "mbol": 7302,
    "ttavat": 7303,
    "tinen": 7304,
    "▁direktyvą": 7305,
    "▁Mag": 7306,
    "▁tietoja": 7307,
    "teilen": 7308,
    "▁einge": 7309,
    "▁sinulla": 7310,
    "▁доклад": 7311,
    "▁pädeva": 7312,
    "▁Organisation": 7313,
    "▁viso": 7314,
    "▁Mel": 7315,
    "▁Parties": 7316,
    "CT": 7317,
    "KK": 7318,
    "▁samazināt": 7319,
    "▁contribution": 7320,
    "tinės": 7321,
    "▁words": 7322,
    "▁metais": 7323,
    "▁Onko": 7324,
    "kust": 7325,
    "▁случае": 7326,
    "glob": 7327,
    "lių": 7328,
    "▁takaisin": 7329,
    "▁Flug": 7330,
    "▁Wort": 7331,
    "▁kodanike": 7332,
    "▁Mil": 7333,
    "ijai": 7334,
    "OM": 7335,
    "2%": 7336,
    "▁tulemus": 7337,
    "▁оста": 7338,
    "cr": 7339,
    "▁biudžeto": 7340,
    "▁įgyvendinti": 7341,
    "▁insulīna": 7342,
    "▁poly": 7343,
    "uosi": 7344,
    "▁Inhalt": 7345,
    "▁negative": 7346,
    "▁Jä": 7347,
    "▁mieltä": 7348,
    "▁Rights": 7349,
    "▁skirtu": 7350,
    "ME": 7351,
    "▁Zi": 7352,
    "▁nozarē": 7353,
    "▁sonstige": 7354,
    "▁manufacturer": 7355,
    "▁What": 7356,
    "бор": 7357,
    "PR": 7358,
    "▁book": 7359,
    "tuksia": 7360,
    "▁vehicles": 7361,
    "OR": 7362,
    "īdu": 7363,
    "▁testa": 7364,
    "▁kaubandus": 7365,
    "iuose": 7366,
    "position": 7367,
    "▁paras": 7368,
    "▁77": 7369,
    "lēm": 7370,
    "vol": 7371,
    "▁kinni": 7372,
    "▁authorised": 7373,
    "▁recht": 7374,
    "▁parlamendi": 7375,
    "neiden": 7376,
    "žas": 7377,
    "▁reduced": 7378,
    "▁riippu": 7379,
    "▁Eurooppa": 7380,
    "CC": 7381,
    "▁tuonti": 7382,
    "▁severe": 7383,
    "AB": 7384,
    "geben": 7385,
    "▁izteikt": 7386,
    "▁образом": 7387,
    "iks": 7388,
    "▁šādas": 7389,
    "▁Mitglied": 7390,
    ".9.": 7391,
    "▁įvair": 7392,
    "▁House": 7393,
    "▁Rom": 7394,
    "▁galimybę": 7395,
    "▁82": 7396,
    "▁sagatavo": 7397,
    "▁imtis": 7398,
    "gan": 7399,
    "▁observed": 7400,
    "▁rapporteur": 7401,
    "▁centre": 7402,
    "це": 7403,
    "gesetzt": 7404,
    "▁siia": 7405,
    "sur": 7406,
    "▁laste": 7407,
    "õigus": 7408,
    "пло": 7409,
    "oksa": 7410,
    "ācijā": 7411,
    "▁require": 7412,
    "▁izveidot": 7413,
    "▁paziņo": 7414,
    "▁determined": 7415,
    "ils": 7416,
    "▁US": 7417,
    "▁note": 7418,
    "▁produkta": 7419,
    "werk": 7420,
    "▁cilvēkiem": 7421,
    "The": 7422,
    "dies": 7423,
    "aani": 7424,
    "▁способ": 7425,
    "▁draud": 7426,
    "игр": 7427,
    "ained": 7428,
    "68/": 7429,
    "▁sales": 7430,
    "dig": 7431,
    "▁tomēr": 7432,
    "uck": 7433,
    "▁esitada": 7434,
    "▁folgt": 7435,
    "▁(19": 7436,
    "-5": 7437,
    "▁didesnė": 7438,
    "▁jaunā": 7439,
    "ģē": 7440,
    "▁Kir": 7441,
    "▁voima": 7442,
    "#": 7443,
    "▁состав": 7444,
    "▁joulukuuta": 7445,
    "ņi": 7446,
    "▁Management": 7447,
    "tinių": 7448,
    "€": 7449,
    "▁Ukraine": 7450,
    "max": 7451,
    "▁iestāžu": 7452,
    "▁Spe": 7453,
    "▁immun": 7454,
    "cijā": 7455,
    "▁atbalsts": 7456,
    "▁sisu": 7457,
    "▁ūdens": 7458,
    "▁skyrių": 7459,
    "▁taikant": 7460,
    "iama": 7461,
    "▁Anna": 7462,
    "▁võime": 7463,
    "▁vastaa": 7464,
    "▁uute": 7465,
    "▁Teilen": 7466,
    "▁Herstellung": 7467,
    "▁gewährleisten": 7468,
    "▁vēlāk": 7469,
    "St": 7470,
    "▁applications": 7471,
    "glo": 7472,
    "▁naudojimo": 7473,
    "▁seura": 7474,
    "sverfahren": 7475,
    "stant": 7476,
    "ettava": 7477,
    "▁kauppa": 7478,
    "▁ket": 7479,
    "bus": 7480,
    "▁sabiedrības": 7481,
    "▁vaikutus": 7482,
    "annos": 7483,
    "▁contribute": 7484,
    "▁zināt": 7485,
    "▁produced": 7486,
    "▁kehtesta": 7487,
    "▁kiekį": 7488,
    "▁kirjalikult": 7489,
    "ped": 7490,
    "▁ütles": 7491,
    "▁103": 7492,
    "▁suori": 7493,
    "▁informē": 7494,
    "ntys": 7495,
    "▁represent": 7496,
    "▁2-": 7497,
    "[": 7498,
    "▁American": 7499,
    "▁nieko": 7500,
    "▁nuostatų": 7501,
    "▁Ak": 7502,
    "▁parą": 7503,
    "≤": 7504,
    "▁Fr": 7505,
    "kio": 7506,
    "sort": 7507,
    "▁bevor": 7508,
    "▁elektron": 7509,
    "unud": 7510,
    "▁seko": 7511,
    "▁geb": 7512,
    "▁līdzekļu": 7513,
    "▁се": 7514,
    "▁kri": 7515,
    "▁Standard": 7516,
    "▁obligations": 7517,
    "▁вос": 7518,
    "▁konkret": 7519,
    "▁oikea": 7520,
    "▁veids": 7521,
    "tten": 7522,
    "▁patvirtin": 7523,
    "majandus": 7524,
    "täht": 7525,
    "uksessa": 7526,
    "▁lietošana": 7527,
    "nenud": 7528,
    "CS": 7529,
    "betrieb": 7530,
    "▁Bestimmung": 7531,
    "▁tegelikult": 7532,
    "▁riik": 7533,
    "Pro": 7534,
    "▁syy": 7535,
    "oxid": 7536,
    "ged": 7537,
    "▁palīdzību": 7538,
    "varu": 7539,
    "▁sina": 7540,
    "▁täielikult": 7541,
    "▁symptoms": 7542,
    "CAS": 7543,
    "▁toinen": 7544,
    "▁tapauksessa": 7545,
    "▁Position": 7546,
    "▁kuriame": 7547,
    "▁regime": 7548,
    "gro": 7549,
    "▁2014.": 7550,
    "▁proposals": 7551,
    "rück": 7552,
    "▁add": 7553,
    "nei": 7554,
    "tė": 7555,
    "▁З": 7556,
    "Š": 7557,
    "▁ch": 7558,
    "▁päivän": 7559,
    "прос": 7560,
    "▁panaši": 7561,
    "▁päritolu": 7562,
    "▁merkittävä": 7563,
    "▁Kau": 7564,
    "innen": 7565,
    "EP": 7566,
    "ид": 7567,
    "▁atnaujin": 7568,
    "DP": 7569,
    "▁Kontroll": 7570,
    "▁tähendab": 7571,
    "▁institution": 7572,
    "öl": 7573,
    "▁refund": 7574,
    "▁nosacījumi": 7575,
    "▁глав": 7576,
    "▁Zo": 7577,
    "▁Kapital": 7578,
    "▁numero": 7579,
    "▁kredīt": 7580,
    "▁Joint": 7581,
    "hlor": 7582,
    "▁yhteisö": 7583,
    "liik": 7584,
    "▁мой": 7585,
    "▁visai": 7586,
    "▁Savienībā": 7587,
    "▁Eli": 7588,
    "▁dort": 7589,
    "▁movement": 7590,
    "tarif": 7591,
    "frei": 7592,
    "▁pateik": 7593,
    "▁teki": 7594,
    "čius": 7595,
    "▁apakš": 7596,
    "▁big": 7597,
    "▁4.2": 7598,
    "▁jeden": 7599,
    "▁arrangements": 7600,
    "▁bringen": 7601,
    "aks": 7602,
    "sehen": 7603,
    "▁thought": 7604,
    "▁deutlich": 7605,
    "▁hidro": 7606,
    "чита": 7607,
    "▁Pakistan": 7608,
    "сь": 7609,
    "▁suggest": 7610,
    "▁eng": 7611,
    "niai": 7612,
    "▁gegeben": 7613,
    "▁tirgu": 7614,
    "fang": 7615,
    "▁dibināšanas": 7616,
    "preise": 7617,
    "inys": 7618,
    "ее": 7619,
    "▁Vir": 7620,
    "▁tähelepanu": 7621,
    "vies": 7622,
    "▁exceed": 7623,
    "▁uzskatu": 7624,
    "▁App": 7625,
    "▁palvelu": 7626,
    "mini": 7627,
    "▁asema": 7628,
    "вет": 7629,
    "▁pielikumu": 7630,
    "▁enää": 7631,
    "▁Wer": 7632,
    "▁foto": 7633,
    "▁reglamentu": 7634,
    "ept": 7635,
    "▁questions": 7636,
    "▁mine": 7637,
    "жен": 7638,
    "ikos": 7639,
    "likud": 7640,
    "▁Sir": 7641,
    "▁cel": 7642,
    "▁tokios": 7643,
    "рез": 7644,
    "▁Ph": 7645,
    "▁consumption": 7646,
    "oze": 7647,
    "▁pārbaudes": 7648,
    "▁bro": 7649,
    "▁keskmise": 7650,
    "тов": 7651,
    "▁arviointi": 7652,
    "▁päevas": 7653,
    "▁tuotanto": 7654,
    "▁pakuotės": 7655,
    "gą": 7656,
    "Eiropa": 7657,
    "▁Interesse": 7658,
    "īti": 7659,
    "▁didn": 7660,
    "pien": 7661,
    "▁fonda": 7662,
    "▁joprojām": 7663,
    "▁neį": 7664,
    "ette": 7665,
    "▁hoch": 7666,
    "▁vajadzīga": 7667,
    "▁näy": 7668,
    "▁border": 7669,
    "▁outside": 7670,
    "luse": 7671,
    "▁Ze": 7672,
    "▁kava": 7673,
    "шли": 7674,
    "▁asi": 7675,
    "▁store": 7676,
    "cular": 7677,
    "MS": 7678,
    "tegevuse": 7679,
    "▁tiesiog": 7680,
    "▁jāveic": 7681,
    "▁auszu": 7682,
    "redz": 7683,
    "1%": 7684,
    "viä": 7685,
    "▁septembri": 7686,
    "▁gegužės": 7687,
    "ttujen": 7688,
    "▁projekti": 7689,
    "▁Korea": 7690,
    "▁visiems": 7691,
    "betroffenen": 7692,
    "▁Q": 7693,
    "▁compliance": 7694,
    "non": 7695,
    "▁Preis": 7696,
    "▁acid": 7697,
    "▁luettelo": 7698,
    "▁šodien": 7699,
    "▁määrata": 7700,
    "tyksen": 7701,
    "▁professional": 7702,
    "▁tādēļ": 7703,
    "▁negu": 7704,
    "▁hoita": 7705,
    "els": 7706,
    "mail": 7707,
    "▁MÜÜGILOA": 7708,
    "▁valdkonnas": 7709,
    "▁šalys": 7710,
    "▁хотел": 7711,
    "▁methods": 7712,
    "▁agreed": 7713,
    "▁nais": 7714,
    "▁visose": 7715,
    "▁Zukunft": 7716,
    "▁threat": 7717,
    "AD": 7718,
    "▁IX": 7719,
    "▁kontroll": 7720,
    "▁partneri": 7721,
    "▁määruses": 7722,
    "▁ettevõtte": 7723,
    "▁kasutamine": 7724,
    "дем": 7725,
    "zeug": 7726,
    "▁Africa": 7727,
    "▁joten": 7728,
    "inant": 7729,
    "rot": 7730,
    "▁teine": 7731,
    "еть": 7732,
    "▁pranešimą": 7733,
    "auto": 7734,
    "▁Preise": 7735,
    "▁stage": 7736,
    "казал": 7737,
    "▁66": 7738,
    "▁technology": 7739,
    "соответствии": 7740,
    "▁Kriterien": 7741,
    "▁teikia": 7742,
    "pur": 7743,
    "▁receive": 7744,
    "▁olevien": 7745,
    "▁condition": 7746,
    "▁preparation": 7747,
    "erin": 7748,
    "▁unabhängig": 7749,
    "▁submit": 7750,
    "▁soovitus": 7751,
    "▁formal": 7752,
    "▁decide": 7753,
    "järjestely": 7754,
    "oire": 7755,
    "▁padaryti": 7756,
    "▁seuraavat": 7757,
    "▁encourage": 7758,
    "▁kurz": 7759,
    "▁stress": 7760,
    "▁тех": 7761,
    "druck": 7762,
    "▁trump": 7763,
    "ец": 7764,
    "▁сделал": 7765,
    "▁annoksen": 7766,
    "▁ietekmi": 7767,
    "жу": 7768,
    "▁Gesellschaft": 7769,
    "▁developed": 7770,
    "▁paar": 7771,
    "▁follow": 7772,
    "saka": 7773,
    "▁tro": 7774,
    "▁социальн": 7775,
    "Di": 7776,
    "▁hakka": 7777,
    "▁objective": 7778,
    "▁letter": 7779,
    "▁enable": 7780,
    "▁leicht": 7781,
    "▁erforderlichen": 7782,
    "82": 7783,
    "▁ISO": 7784,
    "▁kaalu": 7785,
    "▁Sozial": 7786,
    "plat": 7787,
    "▁overall": 7788,
    "мет": 7789,
    "▁negotiations": 7790,
    "▁death": 7791,
    "▁laadi": 7792,
    "▁eh": 7793,
    "▁sinulle": 7794,
    "nov": 7795,
    "▁Belgi": 7796,
    "▁siduv": 7797,
    "▁holding": 7798,
    "▁programos": 7799,
    "▁strateegia": 7800,
    "nat": 7801,
    "▁Typ": 7802,
    "▁buteliuk": 7803,
    "▁130": 7804,
    "EÜT": 7805,
    "▁volinik": 7806,
    "▁seuraa": 7807,
    "▁kyseisen": 7808,
    "▁Taigi": 7809,
    "tiktu": 7810,
    "▁esat": 7811,
    "heim": 7812,
    "ušas": 7813,
    "62": 7814,
    "▁jautājums": 7815,
    "lab": 7816,
    "alus": 7817,
    "▁schriftlich": 7818,
    "▁glaube": 7819,
    "▁tegele": 7820,
    "uosius": 7821,
    "▁mü": 7822,
    "▁gerade": 7823,
    "уп": 7824,
    "▁79": 7825,
    "▁резолюции": 7826,
    "▁step": 7827,
    "▁įmonių": 7828,
    "veic": 7829,
    "loo": 7830,
    "▁huvi": 7831,
    "▁asutuste": 7832,
    "▁moodusta": 7833,
    "▁ничего": 7834,
    "Г": 7835,
    "▁festgesetzt": 7836,
    "дав": 7837,
    "SV": 7838,
    "prie": 7839,
    "▁fünf": 7840,
    "kaup": 7841,
    "▁jāie": 7842,
    "▁lang": 7843,
    "ansa": 7844,
    "iniams": 7845,
    "▁tukea": 7846,
    "▁Kombination": 7847,
    "▁Frist": 7848,
    "bild": 7849,
    "▁Komm": 7850,
    "▁Vertreter": 7851,
    "▁neiz": 7852,
    "imet": 7853,
    "▁людей": 7854,
    "▁teeb": 7855,
    "auja": 7856,
    "▁alternative": 7857,
    "▁providing": 7858,
    "▁Ö": 7859,
    "▁PRI": 7860,
    "▁Betrieb": 7861,
    "EA": 7862,
    "▁road": 7863,
    "▁Sha": 7864,
    "bit": 7865,
    "▁sutarties": 7866,
    "▁sunku": 7867,
    "▁hipo": 7868,
    "inei": 7869,
    "▁vielas": 7870,
    "ISTRĀCIJAS": 7871,
    "ybė": 7872,
    "▁saavuta": 7873,
    "▁Seepärast": 7874,
    "mid": 7875,
    "ttelu": 7876,
    "▁august": 7877,
    "▁anksčiau": 7878,
    "нибудь": 7879,
    "nčius": 7880,
    "▁надо": 7881,
    "▁Verfügung": 7882,
    "▁haluan": 7883,
    "ума": 7884,
    "uotų": 7885,
    "Ge": 7886,
    "▁laikin": 7887,
    "▁kito": 7888,
    "▁Parlamentas": 7889,
    "▁teid": 7890,
    "▁projekta": 7891,
    "isiä": 7892,
    "▁Wirtschaft": 7893,
    "▁Ukraina": 7894,
    "▁tasandil": 7895,
    "▁Rechte": 7896,
    "“.": 7897,
    "▁laik": 7898,
    "▁Board": 7899,
    "▁liiga": 7900,
    "▁reizes": 7901,
    "▁balsoju": 7902,
    "▁currently": 7903,
    "liha": 7904,
    "tājs": 7905,
    "▁teave": 7906,
    "▁vakava": 7907,
    "uudesta": 7908,
    "▁climate": 7909,
    "▁nurodytų": 7910,
    "kää": 7911,
    "▁pasirink": 7912,
    "▁komponent": 7913,
    "▁night": 7914,
    "KP": 7915,
    "▁Hä": 7916,
    "▁anderer": 7917,
    "▁sätete": 7918,
    "körper": 7919,
    "▁item": 7920,
    "▁formul": 7921,
    "▁81": 7922,
    "▁gesch": 7923,
    "▁vaata": 7924,
    "▁измен": 7925,
    "▁lack": 7926,
    "▁piešķir": 7927,
    "unter": 7928,
    "stamise": 7929,
    "▁Monaten": 7930,
    "▁korras": 7931,
    "ivi": 7932,
    "▁буду": 7933,
    "▁cut": 7934,
    "▁tikrų": 7935,
    "folge": 7936,
    "▁IP": 7937,
    "annus": 7938,
    "▁exercise": 7939,
    "▁Herz": 7940,
    "kum": 7941,
    "AV": 7942,
    "kül": 7943,
    "sätze": 7944,
    "▁võt": 7945,
    "koja": 7946,
    "▁её": 7947,
    "ņēmu": 7948,
    "▁сегодня": 7949,
    "▁serum": 7950,
    "▁EC": 7951,
    "▁johon": 7952,
    "▁agenda": 7953,
    "▁kuinka": 7954,
    "prop": 7955,
    "kogu": 7956,
    "maßnahmen": 7957,
    "▁saus": 7958,
    "▁Sil": 7959,
    "▁refer": 7960,
    "▁Kopienā": 7961,
    "▁John": 7962,
    "▁sastāv": 7963,
    "▁pradėti": 7964,
    "▁lukien": 7965,
    "▁ста": 7966,
    "▁Dosierung": 7967,
    "▁blok": 7968,
    "vet": 7969,
    "▁vapaa": 7970,
    "▁(0,": 7971,
    "kardi": 7972,
    "šas": 7973,
    "▁Han": 7974,
    "cycl": 7975,
    "hem": 7976,
    "▁kepenų": 7977,
    "▁progres": 7978,
    "▁community": 7979,
    "▁tulla": 7980,
    "▁hü": 7981,
    "▁house": 7982,
    "▁komisār": 7983,
    "▁cukura": 7984,
    "CA": 7985,
    "▁klinischen": 7986,
    "wirtschaft": 7987,
    "4%": 7988,
    "voll": 7989,
    "тя": 7990,
    "▁expenditure": 7991,
    "▁voida": 7992,
    "typ": 7993,
    "▁dzīvo": 7994,
    "▁wobei": 7995,
    "▁šia": 7996,
    "NS": 7997,
    "▁Director": 7998,
    "▁tel": 7999,
    "führen": 8000,
    "▁2000.": 8001,
    "▁koostööd": 8002,
    "▁workers": 8003,
    "▁vaikams": 8004,
    "fung": 8005,
    "▁beobachtet": 8006,
    "udi": 8007,
    "▁svarbus": 8008,
    "andi": 8009,
    "▁vähe": 8010,
    "▁сделать": 8011,
    "▁gestellt": 8012,
    "▁rein": 8013,
    "▁eko": 8014,
    "▁reikalavimai": 8015,
    "▁han": 8016,
    "ись": 8017,
    "▁veiklą": 8018,
    "▁problema": 8019,
    "žiu": 8020,
    "▁French": 8021,
    "▁Medi": 8022,
    "▁miljoni": 8023,
    "▁serve": 8024,
    "▁flow": 8025,
    "jimas": 8026,
    "▁aruande": 8027,
    "rand": 8028,
    "▁tootmis": 8029,
    "▁igal": 8030,
    "мент": 8031,
    "▁įraš": 8032,
    "▁Verwaltung": 8033,
    "spar": 8034,
    "▁Tabelle": 8035,
    "▁Haut": 8036,
    "▁page": 8037,
    "▁loetletud": 8038,
    "▁skaidri": 8039,
    "NR": 8040,
    "▁statistika": 8041,
    "fal": 8042,
    "▁gadiem": 8043,
    "maton": 8044,
    "▁kuigi": 8045,
    "▁koskee": 8046,
    "ėjai": 8047,
    "▁failure": 8048,
    "stipr": 8049,
    "▁Bei": 8050,
    "▁korralda": 8051,
    "gri": 8052,
    "ttaisi": 8053,
    "▁kart": 8054,
    "▁angemessene": 8055,
    "▁bad": 8056,
    "▁ohutus": 8057,
    "▁susitik": 8058,
    "▁regions": 8059,
    "raten": 8060,
    "▁päivää": 8061,
    "▁Bre": 8062,
    "▁puh": 8063,
    "▁veidu": 8064,
    "ительно": 8065,
    "▁kalastus": 8066,
    "▁noriu": 8067,
    "▁duomenis": 8068,
    "▁happen": 8069,
    "AF": 8070,
    "kļu": 8071,
    "▁hind": 8072,
    "лов": 8073,
    "▁которых": 8074,
    "▁adoption": 8075,
    "ования": 8076,
    "▁tarptautin": 8077,
    "▁correct": 8078,
    "tsiooni": 8079,
    "9%": 8080,
    "tojas": 8081,
    "IR": 8082,
    "off": 8083,
    "▁mobil": 8084,
    "▁EB": 8085,
    "▁mentioned": 8086,
    "▁Authority": 8087,
    "▁saata": 8088,
    "▁taisyklių": 8089,
    "▁Cor": 8090,
    "▁kitais": 8091,
    "sive": 8092,
    "▁māj": 8093,
    "существ": 8094,
    "▁tvirt": 8095,
    "-3": 8096,
    "▁padėti": 8097,
    "konkur": 8098,
    "ībai": 8099,
    "▁näha": 8100,
    "▁aivan": 8101,
    "▁saņēm": 8102,
    "▁neuro": 8103,
    "NI": 8104,
    "Me": 8105,
    "ināšanu": 8106,
    "▁nädala": 8107,
    "reak": 8108,
    "▁pakeisti": 8109,
    "▁mai": 8110,
    "ман": 8111,
    "sbehörde": 8112,
    "hääl": 8113,
    "▁над": 8114,
    "▁compared": 8115,
    "▁suteikti": 8116,
    "ošu": 8117,
    "toon": 8118,
    "▁tänään": 8119,
    "hind": 8120,
    "▁ciet": 8121,
    "darbo": 8122,
    "▁liian": 8123,
    "▁kuukauden": 8124,
    "▁Ihr": 8125,
    "lement": 8126,
    "▁Гр": 8127,
    "▁vorgelegt": 8128,
    "star": 8129,
    "▁samas": 8130,
    "▁Code": 8131,
    "▁fol": 8132,
    "▁jälgi": 8133,
    "▁tų": 8134,
    "▁kaota": 8135,
    "▁Arab": 8136,
    "▁Madam": 8137,
    "▁teinud": 8138,
    "53": 8139,
    "nö": 8140,
    "iešu": 8141,
    "oissa": 8142,
    "voima": 8143,
    "▁tuen": 8144,
    "bereich": 8145,
    "▁organizations": 8146,
    "▁kilpailu": 8147,
    "▁расс": 8148,
    "▁art": 8149,
    "▁base": 8150,
    "▁öffentliche": 8151,
    "loc": 8152,
    "▁leidinyje": 8153,
    "▁laikotarpį": 8154,
    "▁reiškia": 8155,
    "sorb": 8156,
    "ėjau": 8157,
    "▁kartus": 8158,
    "▁discussion": 8159,
    "▁ba": 8160,
    "▁reguleeri": 8161,
    "▁complete": 8162,
    "▁susijusios": 8163,
    "▁ру": 8164,
    "▁nõuetele": 8165,
    "▁Änderungen": 8166,
    "yyttä": 8167,
    "▁kanta": 8168,
    "▁hoffe": 8169,
    "isuutta": 8170,
    "vār": 8171,
    "atšķir": 8172,
    "▁minulle": 8173,
    "▁Überprüfung": 8174,
    "▁käsittely": 8175,
    "ināšanas": 8176,
    "cies": 8177,
    "▁näitä": 8178,
    "−": 8179,
    "▁vorgesehen": 8180,
    "▁Iz": 8181,
    "▁erheblich": 8182,
    "ināšana": 8183,
    "▁designed": 8184,
    "dor": 8185,
    "▁space": 8186,
    "▁UK": 8187,
    "berg": 8188,
    "▁arvuta": 8189,
    "▁via": 8190,
    "ālās": 8191,
    "▁hall": 8192,
    "CE": 8193,
    "▁вопрос": 8194,
    "▁põhimõtte": 8195,
    "fect": 8196,
    "▁domā": 8197,
    "▁tarvittaessa": 8198,
    "▁своих": 8199,
    "▁Че": 8200,
    "▁täytyy": 8201,
    "▁lähte": 8202,
    "▁tunnus": 8203,
    "▁teritorijā": 8204,
    "▁grozījumi": 8205,
    "▁zugelassen": 8206,
    "▁лучше": 8207,
    "▁milk": 8208,
    "▁Besondere": 8209,
    "▁history": 8210,
    "▁Amt": 8211,
    "ел": 8212,
    "▁žmonėms": 8213,
    "mann": 8214,
    "▁ViraferonPeg": 8215,
    "SK": 8216,
    "▁allein": 8217,
    "ikke": 8218,
    "▁unit": 8219,
    "työ": 8220,
    "▁liiku": 8221,
    "üle": 8222,
    "▁states": 8223,
    "▁Seega": 8224,
    "▁atļaut": 8225,
    "LO": 8226,
    "▁wegen": 8227,
    "à": 8228,
    "▁paša": 8229,
    "ndatud": 8230,
    "ряд": 8231,
    "▁vastavus": 8232,
    "iivi": 8233,
    "hydr": 8234,
    "▁function": 8235,
    "▁keskus": 8236,
    "legung": 8237,
    "bare": 8238,
    "нут": 8239,
    "▁krā": 8240,
    "▁arvates": 8241,
    "▁PegIntron": 8242,
    "kkä": 8243,
    "▁всем": 8244,
    "▁presented": 8245,
    "è": 8246,
    "▁Qualität": 8247,
    "isa": 8248,
    "licher": 8249,
    "▁programa": 8250,
    "koodi": 8251,
    "▁tõsi": 8252,
    "▁kainos": 8253,
    "▁processing": 8254,
    "â": 8255,
    "riski": 8256,
    "ßt": 8257,
    "▁tund": 8258,
    "▁cilvēka": 8259,
    "▁Prä": 8260,
    "lija": 8261,
    "▁sveik": 8262,
    "▁vienmēr": 8263,
    "▁festgestellt": 8264,
    "▁miljardi": 8265,
    "▁euroa": 8266,
    "▁ELT": 8267,
    "lask": 8268,
    "etin": 8269,
    "▁licences": 8270,
    "▁wollte": 8271,
    "elių": 8272,
    "gener": 8273,
    "▁Para": 8274,
    "nnassa": 8275,
    "▁pärit": 8276,
    "нер": 8277,
    "▁paskirt": 8278,
    "▁Lib": 8279,
    "obi": 8280,
    "ciją": 8281,
    "kol": 8282,
    "ional": 8283,
    "▁liga": 8284,
    "▁97/": 8285,
    "▁taiko": 8286,
    "▁Schritt": 8287,
    "▁novembri": 8288,
    "jamo": 8289,
    "▁efektyv": 8290,
    "▁kuriais": 8291,
    "yksiä": 8292,
    "▁duties": 8293,
    "▁Vorsicht": 8294,
    "▁English": 8295,
    "tuva": 8296,
    "▁häntä": 8297,
    "cke": 8298,
    "▁jäsenvaltio": 8299,
    "▁švirkš": 8300,
    "▁Gas": 8301,
    "щих": 8302,
    "vaba": 8303,
    "▁asutus": 8304,
    "chlorid": 8305,
    "▁kunagi": 8306,
    "ace": 8307,
    "▁проблем": 8308,
    "▁everything": 8309,
    "▁valu": 8310,
    "▁Resolution": 8311,
    "▁works": 8312,
    "▁aiheuttaa": 8313,
    "▁форм": 8314,
    ".8.": 8315,
    "▁võrreldes": 8316,
    "▁ierobežot": 8317,
    "▁sustainable": 8318,
    "▁initial": 8319,
    "▁78": 8320,
    "▁vajalikud": 8321,
    "▁klausimas": 8322,
    "auti": 8323,
    "pakk": 8324,
    "▁Beispiel": 8325,
    "▁Ban": 8326,
    "▁disk": 8327,
    "▁taotle": 8328,
    "▁eeskirjade": 8329,
    "▁atrodas": 8330,
    "0%": 8331,
    "▁pasiekti": 8332,
    "▁Kun": 8333,
    "tamisesta": 8334,
    "▁pir": 8335,
    "▁ettevõtja": 8336,
    "ysi": 8337,
    "vention": 8338,
    "phy": 8339,
    "▁akc": 8340,
    "▁tonni": 8341,
    "▁asu": 8342,
    "▁Festlegung": 8343,
    "▁высок": 8344,
    "▁nevis": 8345,
    "куп": 8346,
    "▁otetaan": 8347,
    "▁sotsiaal": 8348,
    "▁pean": 8349,
    "tamaan": 8350,
    "▁Col": 8351,
    "▁suurenda": 8352,
    "▁tuote": 8353,
    "▁ky": 8354,
    "▁paredzēti": 8355,
    "▁jāsa": 8356,
    "▁seega": 8357,
    "▁saugos": 8358,
    "▁adjustment": 8359,
    "▁Romania": 8360,
    "skaidr": 8361,
    "▁vaati": 8362,
    "лага": 8363,
    "▁metal": 8364,
    "▁tahes": 8365,
    "▁suoja": 8366,
    "▁помощи": 8367,
    "tanud": 8368,
    "▁vienlaikus": 8369,
    "▁käsitle": 8370,
    "▁Совета": 8371,
    "▁daudzumu": 8372,
    "▁mor": 8373,
    "▁laying": 8374,
    "▁otettava": 8375,
    "▁geeignete": 8376,
    "etil": 8377,
    "▁tulli": 8378,
    "rahasto": 8379,
    "▁glu": 8380,
    "▁bleiben": 8381,
    "▁Transport": 8382,
    "▁76": 8383,
    "gaben": 8384,
    "▁südame": 8385,
    "▁šīm": 8386,
    "нь": 8387,
    "▁Russian": 8388,
    "▁kiekio": 8389,
    "app": 8390,
    "▁Studie": 8391,
    "▁pieni": 8392,
    "▁Turk": 8393,
    "▁punkt": 8394,
    "▁themselves": 8395,
    "ėję": 8396,
    "ology": 8397,
    "▁priemonė": 8398,
    "▁card": 8399,
    "▁valstīs": 8400,
    "▁nepageidaujam": 8401,
    "reserv": 8402,
    "▁Komisiju": 8403,
    "▁neu": 8404,
    "▁relation": 8405,
    "une": 8406,
    "▁savaitę": 8407,
    "▁Совет": 8408,
    "▁įstatym": 8409,
    "▁Russland": 8410,
    "ском": 8411,
    "toime": 8412,
    "handel": 8413,
    "länder": 8414,
    "▁šos": 8415,
    "etu": 8416,
    "▁hohe": 8417,
    "▁asutamislepingu": 8418,
    "alla": 8419,
    "77/": 8420,
    "▁vertės": 8421,
    "▁notification": 8422,
    "▁geltenden": 8423,
    "▁Sar": 8424,
    "▁Kommissar": 8425,
    "▁rake": 8426,
    "▁reakcijas": 8427,
    "▁свобод": 8428,
    "tapa": 8429,
    "▁participation": 8430,
    "▁nyky": 8431,
    "taks": 8432,
    "▁species": 8433,
    "▁tingimused": 8434,
    "▁käigus": 8435,
    "▁komitetas": 8436,
    "öh": 8437,
    "гра": 8438,
    "▁järgmise": 8439,
    "▁saistīti": 8440,
    "▁darin": 8441,
    "fach": 8442,
    "▁varat": 8443,
    "▁должна": 8444,
    "▁tehdyn": 8445,
    "▁Verkehrs": 8446,
    "zig": 8447,
    "▁nebija": 8448,
    "▁menetluse": 8449,
    "▁laiks": 8450,
    "▁option": 8451,
    "▁annab": 8452,
    "▁tegema": 8453,
    "▁Kenntnis": 8454,
    "▁finansų": 8455,
    "▁vahetult": 8456,
    "▁Teatajas": 8457,
    "lassen": 8458,
    "▁Thema": 8459,
    "ya": 8460,
    "▁kasutus": 8461,
    "▁sähkö": 8462,
    "▁Sektor": 8463,
    "▁дня": 8464,
    "▁saira": 8465,
    "▁komissiolle": 8466,
    "▁commercial": 8467,
    "▁50%": 8468,
    "▁liittyvä": 8469,
    "▁neiš": 8470,
    "esi": 8471,
    "▁päätöslauselma": 8472,
    "emea": 8473,
    "▁Hy": 8474,
    "▁lapkričio": 8475,
    "▁hatten": 8476,
    "itas": 8477,
    "▁kyseise": 8478,
    "▁angenommen": 8479,
    "lieto": 8480,
    "▁signal": 8481,
    "▁grupa": 8482,
    "omas": 8483,
    "оз": 8484,
    "▁recommendations": 8485,
    "▁söö": 8486,
    "▁patvirtina": 8487,
    "urs": 8488,
    "▁turiu": 8489,
    "▁odot": 8490,
    "▁citā": 8491,
    "тен": 8492,
    "▁136": 8493,
    "▁runā": 8494,
    "▁išteklių": 8495,
    "рь": 8496,
    "▁likely": 8497,
    "▁drug": 8498,
    "▁independent": 8499,
    "▁eläin": 8500,
    "chlor": 8501,
    "▁kokia": 8502,
    "▁hold": 8503,
    "▁häired": 8504,
    "▁ligos": 8505,
    "▁makes": 8506,
    "onia": 8507,
    "▁naudojant": 8508,
    "▁expected": 8509,
    "▁viikon": 8510,
    "▁travel": 8511,
    "▁orient": 8512,
    "×": 8513,
    "▁Во": 8514,
    "▁Kat": 8515,
    "tāji": 8516,
    "▁tinkamai": 8517,
    "▁1999.": 8518,
    "▁loetelu": 8519,
    "tāju": 8520,
    "▁meaning": 8521,
    "thy": 8522,
    "▁practice": 8523,
    "▁Vēstnesī": 8524,
    "▁käesolevas": 8525,
    "▁nosacījumiem": 8526,
    "▁aufgeführten": 8527,
    "▁[3],": 8528,
    "inėje": 8529,
    "tivat": 8530,
    "ada": 8531,
    "tritt": 8532,
    "▁esu": 8533,
    "▁соответствующи": 8534,
    "▁rahva": 8535,
    "▁rugsėjo": 8536,
    "▁pagamin": 8537,
    "▁realis": 8538,
    "▁asins": 8539,
    "▁writing": 8540,
    "▁carry": 8541,
    "/10": 8542,
    "цы": 8543,
    "▁eksport": 8544,
    "▁valitsus": 8545,
    "▁einzige": 8546,
    "▁160": 8547,
    "▁olemassa": 8548,
    "▁Menschenrechte": 8549,
    "ру": 8550,
    "▁Kontakt": 8551,
    "▁sample": 8552,
    "▁addressed": 8553,
    "▁Einklang": 8554,
    "▁praneša": 8555,
    "▁olulise": 8556,
    "▁EG": 8557,
    "▁sumažinti": 8558,
    "▁Asia": 8559,
    "▁tõus": 8560,
    "кол": 8561,
    "▁Nord": 8562,
    "▁пункт": 8563,
    "ukseen": 8564,
    "imp": 8565,
    "▁grip": 8566,
    "▁Ah": 8567,
    "▁päivä": 8568,
    "▁committee": 8569,
    "▁Limited": 8570,
    "▁(6": 8571,
    "▁Abkommens": 8572,
    "kkeen": 8573,
    "Se": 8574,
    "▁adequate": 8575,
    "▁ettevõtete": 8576,
    "ает": 8577,
    "▁Комитет": 8578,
    "▁reactions": 8579,
    "▁pavad": 8580,
    "▁laati": 8581,
    "▁avaliku": 8582,
    "▁nustatoma": 8583,
    "▁nurodytos": 8584,
    "▁kerto": 8585,
    "▁che": 8586,
    "uotu": 8587,
    "▁menetlus": 8588,
    "▁esant": 8589,
    "▁assist": 8590,
    "MT": 8591,
    "▁virs": 8592,
    "▁annetaan": 8593,
    "▁tokie": 8594,
    "▁rib": 8595,
    "▁vēst": 8596,
    "▁работы": 8597,
    "▁Don": 8598,
    "▁minētā": 8599,
    "ėme": 8600,
    "▁след": 8601,
    "пе": 8602,
    "▁tulu": 8603,
    "elta": 8604,
    "trin": 8605,
    "metil": 8606,
    "▁pārvadā": 8607,
    "▁aizsardzību": 8608,
    "инг": 8609,
    "▁tests": 8610,
    "ять": 8611,
    "ül": 8612,
    "▁energ": 8613,
    "▁kehti": 8614,
    "▁She": 8615,
    "▁teen": 8616,
    "▁illegal": 8617,
    "▁uuringus": 8618,
    "▁paranda": 8619,
    "vista": 8620,
    "sum": 8621,
    "▁järgmiste": 8622,
    "kv": 8623,
    "втор": 8624,
    "▁problēmas": 8625,
    "duse": 8626,
    "▁stāvokli": 8627,
    "▁adverse": 8628,
    "▁übermittelt": 8629,
    "yyden": 8630,
    "▁exposure": 8631,
    "▁requested": 8632,
    "▁tootmise": 8633,
    "▁patsientide": 8634,
    "eiß": 8635,
    "ООН": 8636,
    "▁5%": 8637,
    "▁Landes": 8638,
    "▁lasten": 8639,
    "NG": 8640,
    "▁tehnisk": 8641,
    "▁finansiāl": 8642,
    "58/": 8643,
    "▁trešā": 8644,
    "asutamislepingut": 8645,
    "▁directive": 8646,
    "▁izstrādāt": 8647,
    "ytų": 8648,
    "▁Saksa": 8649,
    "gatav": 8650,
    "▁asetuksessa": 8651,
    "лы": 8652,
    "▁Schwe": 8653,
    "▁Dokument": 8654,
    "▁pacienti": 8655,
    "▁104": 8656,
    "▁pienen": 8657,
    "onis": 8658,
    "▁www": 8659,
    "▁проект": 8660,
    "▁programmu": 8661,
    "▁pacientai": 8662,
    "▁väike": 8663,
    "▁declaration": 8664,
    "▁цел": 8665,
    "trūk": 8666,
    "stiku": 8667,
    "▁тоже": 8668,
    "VA": 8669,
    "ero": 8670,
    "OT": 8671,
    "▁Parteien": 8672,
    "▁größere": 8673,
    "▁erlassen": 8674,
    "▁Ausnahme": 8675,
    "▁matters": 8676,
    "▁pateikta": 8677,
    "▁fruit": 8678,
    "▁nolīguma": 8679,
    "▁perusta": 8680,
    "▁susiję": 8681,
    "▁seetõttu": 8682,
    "▁ollen": 8683,
    "▁blog": 8684,
    "▁Ansicht": 8685,
    "▁leisti": 8686,
    "menetelmä": 8687,
    "▁benefits": 8688,
    "▁pun": 8689,
    "▁Austria": 8690,
    "▁rii": 8691,
    "▁системы": 8692,
    "▁gute": 8693,
    "▁Miksi": 8694,
    "▁09": 8695,
    "▁ietekmē": 8696,
    "кс": 8697,
    "▁standardi": 8698,
    "▁piedāvā": 8699,
    "▁asiassa": 8700,
    "▁otsi": 8701,
    "ELT": 8702,
    "▁medical": 8703,
    "(4)": 8704,
    "▁author": 8705,
    "rew": 8706,
    "▁2019": 8707,
    "▁jedes": 8708,
    "▁tegemist": 8709,
    "▁York": 8710,
    "uksesta": 8711,
    "▁lī": 8712,
    "▁visām": 8713,
    "▁enda": 8714,
    "вести": 8715,
    "▁Van": 8716,
    "▁ring": 8717,
    "▁Эй": 8718,
    "▁1%": 8719,
    "schl": 8720,
    "▁Wahl": 8721,
    "▁maailman": 8722,
    "tuks": 8723,
    "mil": 8724,
    "▁sivu": 8725,
    "▁quantities": 8726,
    "▁girl": 8727,
    "▁Fran": 8728,
    "▁entirety": 8729,
    "▁paaugstināt": 8730,
    "▁super": 8731,
    "▁zālēm": 8732,
    "▁Chi": 8733,
    "TP": 8734,
    "▁laeva": 8735,
    "▁verschiedenen": 8736,
    "over": 8737,
    "▁elektro": 8738,
    "▁rakenda": 8739,
    "tzt": 8740,
    "▁coming": 8741,
    "▁EMP": 8742,
    "▁Bestandteile": 8743,
    "▁jäsenvaltioissa": 8744,
    "▁patient": 8745,
    "▁balandžio": 8746,
    "▁praš": 8747,
    "▁elements": 8748,
    "▁möglicherweise": 8749,
    "▁jāno": 8750,
    "lagen": 8751,
    "▁Го": 8752,
    "▁тр": 8753,
    "▁break": 8754,
    "hed": 8755,
    "▁hõlma": 8756,
    "нее": 8757,
    "▁knowledge": 8758,
    "▁suteikia": 8759,
    "▁zinām": 8760,
    "▁Therapie": 8761,
    "чь": 8762,
    "пис": 8763,
    "▁großen": 8764,
    "▁maiden": 8765,
    "▁VÕ": 8766,
    "richten": 8767,
    "grup": 8768,
    "ären": 8769,
    "▁bendrą": 8770,
    "bro": 8771,
    "▁kredito": 8772,
    "sõidu": 8773,
    "▁save": 8774,
    "▁protams": 8775,
    "CR": 8776,
    "▁ievad": 8777,
    "TNU": 8778,
    "▁forms": 8779,
    "▁liela": 8780,
    "▁obtained": 8781,
    "▁Chinese": 8782,
    "elli": 8783,
    "▁eraldi": 8784,
    "galv": 8785,
    "▁tarka": 8786,
    "▁Information": 8787,
    "zol": 8788,
    "▁situācija": 8789,
    "matta": 8790,
    "rö": 8791,
    "▁pateikt": 8792,
    "▁Spa": 8793,
    "бе": 8794,
    "▁kerro": 8795,
    "idele": 8796,
    "▁вз": 8797,
    "▁mokesčių": 8798,
    "▁paprastai": 8799,
    "▁Ort": 8800,
    "▁notice": 8801,
    "▁voimaan": 8802,
    "▁true": 8803,
    "MĖ": 8804,
    "▁medicines": 8805,
    "▁Belgia": 8806,
    "▁vielu": 8807,
    "▁job": 8808,
    "▁направлен": 8809,
    "ificē": 8810,
    "▁стар": 8811,
    "barkeit": 8812,
    "▁järgmine": 8813,
    "▁tahan": 8814,
    "siir": 8815,
    "FA": 8816,
    "rink": 8817,
    "▁didesnis": 8818,
    "▁regulations": 8819,
    "▁valvo": 8820,
    "▁(8)": 8821,
    "▁tragen": 8822,
    "▁ebenfalls": 8823,
    "▁skirta": 8824,
    "▁majority": 8825,
    "▁diabet": 8826,
    "▁ausreichend": 8827,
    "▁concern": 8828,
    "▁sign": 8829,
    "▁теперь": 8830,
    "vald": 8831,
    "▁мер": 8832,
    "▁сессии": 8833,
    "juhtimis": 8834,
    "systems": 8835,
    "▁koks": 8836,
    "▁име": 8837,
    "rata": 8838,
    "▁toetus": 8839,
    "▁achieved": 8840,
    "▁ilme": 8841,
    "▁article": 8842,
    "▁halten": 8843,
    "inās": 8844,
    "programmi": 8845,
    "▁võimaluse": 8846,
    "▁diskrimin": 8847,
    "▁lietu": 8848,
    "rog": 8849,
    "▁hyvät": 8850,
    "▁tādā": 8851,
    "post": 8852,
    "takaa": 8853,
    "VI": 8854,
    "▁prezident": 8855,
    "īdi": 8856,
    "▁millest": 8857,
    "▁laikoma": 8858,
    "▁arvoisa": 8859,
    "▁gene": 8860,
    "▁komand": 8861,
    "▁suurema": 8862,
    "▁94": 8863,
    "▁labiau": 8864,
    "▁attiecīgās": 8865,
    "▁tariff": 8866,
    "▁Nē": 8867,
    "▁josta": 8868,
    "▁kli": 8869,
    "▁25%": 8870,
    "▁micro": 8871,
    "zīmē": 8872,
    "isti": 8873,
    "▁lü": 8874,
    "▁Entschließung": 8875,
    "гул": 8876,
    "rīko": 8877,
    "▁Bezeichnung": 8878,
    "▁artiklit": 8879,
    "▁rinką": 8880,
    "▁Leistung": 8881,
    "▁võta": 8882,
    "▁vajadzētu": 8883,
    "един": 8884,
    "▁finansini": 8885,
    "▁69": 8886,
    "▁ainu": 8887,
    "▁ārstēšanas": 8888,
    "sele": 8889,
    "suhte": 8890,
    "▁meno": 8891,
    "▁decided": 8892,
    "▁Wirkstoff": 8893,
    "▁luk": 8894,
    "tehingu": 8895,
    "▁applicant": 8896,
    "summa": 8897,
    "▁comments": 8898,
    "▁referent": 8899,
    "▁kõnealuste": 8900,
    "▁punkto": 8901,
    "▁tyrimai": 8902,
    "образ": 8903,
    "▁toimintaa": 8904,
    "▁Tatsache": 8905,
    "▁Кон": 8906,
    "uka": 8907,
    "ering": 8908,
    "▁attiecīgajā": 8909,
    "▁ātr": 8910,
    "▁Ладно": 8911,
    "▁income": 8912,
    "ikku": 8913,
    "▁bit": 8914,
    "▁laws": 8915,
    "▁Luft": 8916,
    "kipu": 8917,
    "▁rodo": 8918,
    "▁Millionen": 8919,
    "▁NATO": 8920,
    "ML": 8921,
    "▁edistä": 8922,
    "stehen": 8923,
    "▁ieguv": 8924,
    "▁Lä": 8925,
    "▁dumping": 8926,
    "desse": 8927,
    "▁alueella": 8928,
    "▁monet": 8929,
    "▁[7]": 8930,
    "▁oficialiajam": 8931,
    "ically": 8932,
    "äre": 8933,
    "▁consultation": 8934,
    "▁selline": 8935,
    "▁Central": 8936,
    "▁financing": 8937,
    "fähig": 8938,
    "тра": 8939,
    "▁wider": 8940,
    "pet": 8941,
    "\"?": 8942,
    "▁nepriklauso": 8943,
    "▁Oficiālaj": 8944,
    "▁рамках": 8945,
    "▁žvejybos": 8946,
    "mille": 8947,
    "▁Mindest": 8948,
    "▁figure": 8949,
    "▁skatin": 8950,
    "lais": 8951,
    "▁jūr": 8952,
    "▁leidžia": 8953,
    "▁noteikta": 8954,
    "▁norāda": 8955,
    "pir": 8956,
    "llisten": 8957,
    "▁sonstigen": 8958,
    "▁Gefahr": 8959,
    "illi": 8960,
    "▁neeru": 8961,
    "▁išsam": 8962,
    "▁tevi": 8963,
    "▁pakeitimais": 8964,
    "masta": 8965,
    "▁право": 8966,
    "wir": 8967,
    "▁kraujyje": 8968,
    "valiokunna": 8969,
    "▁lengva": 8970,
    "tul": 8971,
    "isella": 8972,
    "цен": 8973,
    "koht": 8974,
    "person": 8975,
    "▁факт": 8976,
    "▁East": 8977,
    "тель": 8978,
    "▁struktūra": 8979,
    "▁EK": 8980,
    "▁gla": 8981,
    "▁Mitgliedstaats": 8982,
    "▁gehört": 8983,
    "▁MYYNTILUVAN": 8984,
    "▁jährlich": 8985,
    "▁asutuse": 8986,
    "▁valitse": 8987,
    "▁uuringutes": 8988,
    "▁ravim": 8989,
    "▁unless": 8990,
    "▁entsprechenden": 8991,
    "▁aptuveni": 8992,
    "oblig": 8993,
    "▁protokolli": 8994,
    "▁norma": 8995,
    "▁poor": 8996,
    "▁makro": 8997,
    "chem": 8998,
    "▁objekt": 8999,
    "71/": 9000,
    "▁strādā": 9001,
    "▁loppu": 9002,
    "▁tarjo": 9003,
    "▁self": 9004,
    "▁finance": 9005,
    "▁kra": 9006,
    "aktiv": 9007,
    "▁päätty": 9008,
    "▁lielu": 9009,
    "väline": 9010,
    "▁õiguse": 9011,
    "▁early": 9012,
    "▁tervikuna": 9013,
    "▁sotsiaalse": 9014,
    "▁Respublikos": 9015,
    "SO": 9016,
    "▁politiku": 9017,
    "▁rezultātā": 9018,
    "Wirtschaftszweig": 9019,
    "▁sisälly": 9020,
    "▁vastava": 9021,
    "▁gesamten": 9022,
    "▁Почему": 9023,
    "▁gentlemen": 9024,
    "ун": 9025,
    "▁Afrika": 9026,
    "▁oktoobri": 9027,
    "▁liike": 9028,
    "▁Па": 9029,
    "▁Kollegen": 9030,
    "▁Annahme": 9031,
    "▁erreichen": 9032,
    "iline": 9033,
    "ėjus": 9034,
    "▁Tom": 9035,
    "▁Park": 9036,
    "▁Interessen": 9037,
    "тельно": 9038,
    "▁Erkrankungen": 9039,
    "▁einzelnen": 9040,
    "руш": 9041,
    "▁68": 9042,
    "▁Siksi": 9043,
    "▁inimese": 9044,
    "kru": 9045,
    "▁никогда": 9046,
    "▁external": 9047,
    "▁vielen": 9048,
    "▁evaluation": 9049,
    "▁dienų": 9050,
    "▁eingeführt": 9051,
    "▁CHMP": 9052,
    "▁sąlygų": 9053,
    "▁качестве": 9054,
    "▁nekavējoties": 9055,
    "▁ensimmäisen": 9056,
    "vabadus": 9057,
    "▁Те": 9058,
    "▁investor": 9059,
    "▁aplinkos": 9060,
    "▁periods": 9061,
    "▁esittelijä": 9062,
    "▁готов": 9063,
    "▁pagrindin": 9064,
    "▁scientific": 9065,
    "ŅĒ": 9066,
    "▁suosi": 9067,
    "▁almost": 9068,
    "▁iso": 9069,
    "▁pack": 9070,
    "ющие": 9071,
    "kuse": 9072,
    "▁Ст": 9073,
    "▁сообщ": 9074,
    "ников": 9075,
    "zem": 9076,
    "▁Hand": 9077,
    "▁Beihilfen": 9078,
    "▁galīg": 9079,
    "▁regulē": 9080,
    "SL": 9081,
    "▁Menge": 9082,
    "moka": 9083,
    "▁jäsenvaltion": 9084,
    "kann": 9085,
    "▁sound": 9086,
    "▁yksityis": 9087,
    "▁language": 9088,
    "▁unterstützt": 9089,
    "struktur": 9090,
    "ntiems": 9091,
    "▁wichtige": 9092,
    "▁anything": 9093,
    "wal": 9094,
    "elio": 9095,
    "▁Königreich": 9096,
    "▁visā": 9097,
    "nčią": 9098,
    "▁ik": 9099,
    "hoito": 9100,
    "▁потому": 9101,
    "▁üht": 9102,
    "▁sogar": 9103,
    "opi": 9104,
    "▁raport": 9105,
    "inä": 9106,
    "▁koguse": 9107,
    "asutuse": 9108,
    "▁dot": 9109,
    "▁Bon": 9110,
    "▁There": 9111,
    "▁lakt": 9112,
    "▁сторон": 9113,
    "DC": 9114,
    "vär": 9115,
    "▁kannat": 9116,
    "▁brauchen": 9117,
    "▁sorry": 9118,
    "▁kontroli": 9119,
    "▁besondere": 9120,
    "trof": 9121,
    "▁Ger": 9122,
    "Berichterstatter": 9123,
    "▁toimub": 9124,
    "stāv": 9125,
    "▁koti": 9126,
    "▁ekonominės": 9127,
    "▁säily": 9128,
    "uojama": 9129,
    "▁damage": 9130,
    "▁būtiski": 9131,
    "иль": 9132,
    "āka": 9133,
    "▁success": 9134,
    "▁loom": 9135,
    "energia": 9136,
    "vust": 9137,
    "▁Mitteilung": 9138,
    "▁110": 9139,
    "under": 9140,
    "organ": 9141,
    "▁Monate": 9142,
    "meid": 9143,
    "▁berücksichtigt": 9144,
    "ров": 9145,
    "KO": 9146,
    "ские": 9147,
    "▁sirds": 9148,
    "aeg": 9149,
    "▁olin": 9150,
    "▁daryti": 9151,
    "▁2015.": 9152,
    "inimą": 9153,
    "▁zvejas": 9154,
    "toliau": 9155,
    "▁Natur": 9156,
    "▁implement": 9157,
    "▁ещё": 9158,
    "▁piisavalt": 9159,
    "ulf": 9160,
    "▁Vä": 9161,
    "lation": 9162,
    "▁betrifft": 9163,
    "▁zusätzliche": 9164,
    "dosis": 9165,
    "▁ratkaisu": 9166,
    "▁nebe": 9167,
    "▁annust": 9168,
    "▁Estonia": 9169,
    "spiegel": 9170,
    "▁Anpassung": 9171,
    "▁types": 9172,
    "DI": 9173,
    "мы": 9174,
    "rik": 9175,
    "võrd": 9176,
    "▁ikka": 9177,
    "ela": 9178,
    "hoid": 9179,
    "projekt": 9180,
    "▁liite": 9181,
    "▁Привет": 9182,
    "▁tekita": 9183,
    "vaizd": 9184,
    "вая": 9185,
    "hüdr": 9186,
    "▁Demokratie": 9187,
    "itud": 9188,
    "▁parod": 9189,
    "▁целях": 9190,
    "▁pateikiama": 9191,
    "▁Gerb": 9192,
    "▁īstenošanas": 9193,
    "▁expressed": 9194,
    "▁ühel": 9195,
    "ана": 9196,
    "▁vastutus": 9197,
    "▁vienti": 9198,
    "▁prop": 9199,
    "▁valstis": 9200,
    "daten": 9201,
    "▁samalla": 9202,
    "▁court": 9203,
    "&": 9204,
    "▁Son": 9205,
    "fordern": 9206,
    "iņ": 9207,
    "▁järeldus": 9208,
    "ttamaan": 9209,
    "▁throughout": 9210,
    "kala": 9211,
    "▁minutes": 9212,
    "uja": 9213,
    "oši": 9214,
    "stada": 9215,
    "▁procesu": 9216,
    "pes": 9217,
    "▁seinem": 9218,
    "рат": 9219,
    "▁sāk": 9220,
    "▁stay": 9221,
    "▁tahaksin": 9222,
    "ива": 9223,
    "▁okay": 9224,
    "▁Leber": 9225,
    "▁Mission": 9226,
    "▁человек": 9227,
    "stoffe": 9228,
    "rug": 9229,
    "▁reģistr": 9230,
    "▁wirtschaftliche": 9231,
    "▁tut": 9232,
    "▁ladies": 9233,
    "▁kaikissa": 9234,
    "▁electronic": 9235,
    "tamisen": 9236,
    "bendradarbiavimo": 9237,
    "ymu": 9238,
    "▁hindamise": 9239,
    "2016": 9240,
    "▁jotain": 9241,
    "▁bri": 9242,
    "▁Pl": 9243,
    "▁Star": 9244,
    "▁uzraudzības": 9245,
    "ody": 9246,
    "▁ero": 9247,
    "▁Initiative": 9248,
    "ikud": 9249,
    "▁strengthen": 9250,
    "▁lubatud": 9251,
    "uotos": 9252,
    "▁mõtle": 9253,
    "▁plėtros": 9254,
    "▁vabasta": 9255,
    "▁circumstances": 9256,
    "krit": 9257,
    "strādā": 9258,
    "▁elimin": 9259,
    "niku": 9260,
    "▁uuringu": 9261,
    "▁meile": 9262,
    "▁democracy": 9263,
    "▁cukraus": 9264,
    "▁pripažin": 9265,
    "▁neuvo": 9266,
    "▁Personal": 9267,
    "loogi": 9268,
    "▁vaikuttaa": 9269,
    "▁concerns": 9270,
    "▁Staats": 9271,
    "ivät": 9272,
    "amino": 9273,
    "енные": 9274,
    "īšanu": 9275,
    "tinė": 9276,
    "▁paredzēto": 9277,
    "▁Win": 9278,
    "▁kohaldamise": 9279,
    "▁prisi": 9280,
    "▁kāds": 9281,
    "▁savi": 9282,
    "▁looma": 9283,
    "▁nepār": 9284,
    "spaud": 9285,
    "▁insgesamt": 9286,
    "▁festgelegten": 9287,
    "▁Sonder": 9288,
    "ches": 9289,
    "villa": 9290,
    "vā": 9291,
    "ский": 9292,
    "▁jāuz": 9293,
    "reaktsioon": 9294,
    "▁stra": 9295,
    "ėjimą": 9296,
    "▁такой": 9297,
    "▁järjest": 9298,
    "▁buy": 9299,
    "▁180": 9300,
    "▁rakst": 9301,
    "▁flo": 9302,
    "ями": 9303,
    "ėsi": 9304,
    "▁Partner": 9305,
    "▁uudis": 9306,
    "▁уровне": 9307,
    "▁Saksamaa": 9308,
    "Ü": 9309,
    "▁(<": 9310,
    "▁inhibitori": 9311,
    "▁dėmesį": 9312,
    "либо": 9313,
    "▁saavu": 9314,
    "▁turėti": 9315,
    "▁obwohl": 9316,
    "▁saad": 9317,
    "▁assets": 9318,
    "▁hemoglobiini": 9319,
    "ārā": 9320,
    "▁grupā": 9321,
    "koncentr": 9322,
    "▁īpaša": 9323,
    "▁paramos": 9324,
    "bereit": 9325,
    "▁erste": 9326,
    "▁huomaut": 9327,
    "Berücksichtigung": 9328,
    "▁Einführung": 9329,
    "▁mēr": 9330,
    "▁nustato": 9331,
    "▁virz": 9332,
    "▁muß": 9333,
    "▁billion": 9334,
    "āra": 9335,
    "▁concluded": 9336,
    "ījumu": 9337,
    "ybę": 9338,
    "zz": 9339,
    "▁laiką": 9340,
    "ём": 9341,
    "▁fish": 9342,
    "▁toisen": 9343,
    "▁vajadzības": 9344,
    "▁lit": 9345,
    "brauc": 9346,
    "▁pārvaldības": 9347,
    "žym": 9348,
    "▁1-": 9349,
    "▁ārstēt": 9350,
    "nce": 9351,
    "NT": 9352,
    "▁sudar": 9353,
    "▁Kur": 9354,
    "laisia": 9355,
    "▁kohas": 9356,
    "ējam": 9357,
    "ON": 9358,
    "ural": 9359,
    "▁стороны": 9360,
    "▁regulation": 9361,
    "MIS": 9362,
    "poole": 9363,
    "▁äri": 9364,
    "▁described": 9365,
    "▁statt": 9366,
    "▁prepared": 9367,
    "▁End": 9368,
    "stuse": 9369,
    "EMEA": 9370,
    "▁sega": 9371,
    "▁miljonit": 9372,
    "▁pasaules": 9373,
    "graph": 9374,
    "▁selten": 9375,
    "▁rakstiski": 9376,
    "▁stock": 9377,
    "▁suinteresuot": 9378,
    "▁Briselē": 9379,
    "acijų": 9380,
    "▁munuaisten": 9381,
    "▁актив": 9382,
    "▁eigenen": 9383,
    "▁Maßnahme": 9384,
    "fahren": 9385,
    "bildung": 9386,
    "τ": 9387,
    "kapital": 9388,
    "▁bul": 9389,
    "▁Anteil": 9390,
    "▁siksi": 9391,
    "▁kasu": 9392,
    "▁fuel": 9393,
    "▁viita": 9394,
    "▁mln": 9395,
    "▁noteikto": 9396,
    "▁administered": 9397,
    "ēni": 9398,
    "▁numatytos": 9399,
    "▁solid": 9400,
    "▁feed": 9401,
    "▁kapitali": 9402,
    "▁įrody": 9403,
    "▁pamatot": 9404,
    "vahendite": 9405,
    "▁vessels": 9406,
    "ryhmän": 9407,
    "▁alakohdan": 9408,
    "gor": 9409,
    "▁taikomi": 9410,
    "▁laikantis": 9411,
    "▁Geschäfts": 9412,
    "▁privalomas": 9413,
    "▁galvenokārt": 9414,
    "ribo": 9415,
    "▁paikallis": 9416,
    "▁pagaidu": 9417,
    "inot": 9418,
    "▁parent": 9419,
    "▁emissions": 9420,
    "▁Unterabsatz": 9421,
    "▁aiškiai": 9422,
    "▁ERLASSEN": 9423,
    "Ar": 9424,
    "▁nesi": 9425,
    "▁source": 9426,
    "▁įgyvendin": 9427,
    "tieto": 9428,
    "▁unterschiedlich": 9429,
    "▁teenuste": 9430,
    "drošin": 9431,
    "▁kiiresti": 9432,
    "▁simptomi": 9433,
    "▁living": 9434,
    "▁Schul": 9435,
    "▁description": 9436,
    "▁жив": 9437,
    "▁keda": 9438,
    "беж": 9439,
    "▁relative": 9440,
    "▁Tél": 9441,
    "▁sicherzustellen": 9442,
    "▁töötajate": 9443,
    "▁причин": 9444,
    "jumā": 9445,
    "▁Deshalb": 9446,
    "ших": 9447,
    "▁Beschäftigung": 9448,
    "▁tietoa": 9449,
    "▁pääse": 9450,
    "▁keegi": 9451,
    "▁Kä": 9452,
    "▁gebracht": 9453,
    "▁einigen": 9454,
    "▁жизни": 9455,
    "▁деле": 9456,
    "▁viz": 9457,
    "ирования": 9458,
    "▁jūnija": 9459,
    "elis": 9460,
    "▁keski": 9461,
    "▁noteiktu": 9462,
    "▁cu": 9463,
    "▁taotlus": 9464,
    "kant": 9465,
    "▁flight": 9466,
    "▁meisten": 9467,
    "▁grant": 9468,
    "▁Präsidentin": 9469,
    "▁sent": 9470,
    "gyven": 9471,
    "▁Warum": 9472,
    "дж": 9473,
    "▁vandens": 9474,
    "▁synty": 9475,
    "потреб": 9476,
    "ете": 9477,
    "▁Когда": 9478,
    "▁statement": 9479,
    "UK": 9480,
    "▁gab": 9481,
    "▁send": 9482,
    "▁came": 9483,
    "▁järgmised": 9484,
    "ktion": 9485,
    "▁Test": 9486,
    "▁Sea": 9487,
    "нди": 9488,
    "▁Centre": 9489,
    "īgāk": 9490,
    "▁viite": 9491,
    "▁bedeutet": 9492,
    "▁125": 9493,
    "▁arvesta": 9494,
    "▁pārsniedz": 9495,
    "▁bērnu": 9496,
    "▁включая": 9497,
    "pres": 9498,
    "▁seadus": 9499,
    "▁infection": 9500,
    "wort": 9501,
    "▁kopējo": 9502,
    "CH": 9503,
    "üsse": 9504,
    "▁dabartin": 9505,
    "▁privalo": 9506,
    "äsi": 9507,
    "▁toetust": 9508,
    "▁meri": 9509,
    "▁sekund": 9510,
    "wirkung": 9511,
    "▁konkurentsi": 9512,
    "▁Bri": 9513,
    "▁slimības": 9514,
    "▁rekombinant": 9515,
    "minister": 9516,
    "▁vesel": 9517,
    "▁оп": 9518,
    "-(": 9519,
    "▁operating": 9520,
    "▁uus": 9521,
    "ttle": 9522,
    "▁kättesaadav": 9523,
    "kiu": 9524,
    "▁berichtet": 9525,
    "▁Alter": 9526,
    "haltung": 9527,
    "▁eingesetzt": 9528,
    "▁pasiūlymą": 9529,
    "▁kehitys": 9530,
    "rub": 9531,
    "▁tervise": 9532,
    "▁возможно": 9533,
    "▁puudu": 9534,
    "▁vyksta": 9535,
    "▁Iš": 9536,
    "▁через": 9537,
    "▁правительства": 9538,
    "▁erfolgt": 9539,
    "▁pavyzdžiui": 9540,
    "▁piir": 9541,
    "▁konsolid": 9542,
    "▁Kesk": 9543,
    "▁обще": 9544,
    "форм": 9545,
    "▁Betriebs": 9546,
    "▁viņiem": 9547,
    "▁tean": 9548,
    "▁выбор": 9549,
    "▁Kla": 9550,
    "▁pažeid": 9551,
    "▁sąlygomis": 9552,
    "īnas": 9553,
    "▁особенно": 9554,
    "▁Dauer": 9555,
    "▁extent": 9556,
    "▁star": 9557,
    "▁beta": 9558,
    "▁tul": 9559,
    "▁privāt": 9560,
    "laitokse": 9561,
    "▁wahr": 9562,
    "▁Tro": 9563,
    "yttä": 9564,
    "▁Iraq": 9565,
    "tark": 9566,
    "häiriö": 9567,
    "▁процесс": 9568,
    "▁crime": 9569,
    "▁clean": 9570,
    "eemia": 9571,
    "▁meid": 9572,
    "meter": 9573,
    "angio": 9574,
    "▁personu": 9575,
    "▁gain": 9576,
    "▁agent": 9577,
    "▁Oli": 9578,
    "▁Jung": 9579,
    "лог": 9580,
    "MUSI": 9581,
    "жал": 9582,
    "▁107": 9583,
    "▁išlaidų": 9584,
    "ieties": 9585,
    "▁kiekviena": 9586,
    "овой": 9587,
    "ниц": 9588,
    "▁порядке": 9589,
    "▁ziņojumā": 9590,
    "У": 9591,
    "▁osta": 9592,
    "▁provisional": 9593,
    "▁scope": 9594,
    "īds": 9595,
    "▁представлен": 9596,
    "▁med": 9597,
    "▁inspection": 9598,
    "▁Bildung": 9599,
    "▁tutkimuksissa": 9600,
    "mised": 9601,
    "▁Кто": 9602,
    "elämä": 9603,
    "▁kopējā": 9604,
    "▁greičiau": 9605,
    "▁wor": 9606,
    "▁leben": 9607,
    "▁SIS": 9608,
    "▁pareišk": 9609,
    "▁definition": 9610,
    "▁Ana": 9611,
    "▁tyr": 9612,
    "▁ответ": 9613,
    "▁siekiama": 9614,
    "▁kulude": 9615,
    "LV": 9616,
    "▁dažu": 9617,
    "▁nõuete": 9618,
    "▁sisälty": 9619,
    "▁tuleneva": 9620,
    "hydro": 9621,
    "▁Februar": 9622,
    "gh": 9623,
    "предел": 9624,
    "▁herra": 9625,
    "▁accept": 9626,
    "rūp": 9627,
    "▁sovi": 9628,
    "ejä": 9629,
    "oda": 9630,
    "▁Ly": 9631,
    "ID": 9632,
    "liefer": 9633,
    "▁Lisa": 9634,
    "000000": 9635,
    "septi": 9636,
    "▁manusta": 9637,
    "▁juurde": 9638,
    "тся": 9639,
    "▁teikti": 9640,
    "rite": 9641,
    "VL": 9642,
    "▁jautājumiem": 9643,
    "▁kasutamiseks": 9644,
    "▁Informations": 9645,
    "\";": 9646,
    "эн": 9647,
    "ney": 9648,
    "▁vienet": 9649,
    "▁год": 9650,
    "▁tü": 9651,
    "▁annettava": 9652,
    "▁begin": 9653,
    "▁representatives": 9654,
    "truk": 9655,
    "▁Stra": 9656,
    "▁millele": 9657,
    "▁respond": 9658,
    "▁vienam": 9659,
    "▁Est": 9660,
    "▁factor": 9661,
    "▁sufficient": 9662,
    "utatud": 9663,
    "SF": 9664,
    "▁tõst": 9665,
    "08/": 9666,
    "iseksi": 9667,
    "▁Wieder": 9668,
    "DA": 9669,
    "▁Frei": 9670,
    "▁treffen": 9671,
    "▁along": 9672,
    "▁Regionen": 9673,
    "▁lygio": 9674,
    "▁Und": 9675,
    "▁sudaryt": 9676,
    "sisalduse": 9677,
    "▁Afghanistan": 9678,
    "▁nolīgumu": 9679,
    "▁tärkei": 9680,
    "▁Ren": 9681,
    "▁fan": 9682,
    "▁bur": 9683,
    "▁loomade": 9684,
    "▁seerumi": 9685,
    "▁Chapter": 9686,
    "▁Vien": 9687,
    "▁(10": 9688,
    "▁attack": 9689,
    "bio": 9690,
    "▁знаешь": 9691,
    "euro": 9692,
    "▁tāda": 9693,
    "ohjelma": 9694,
    "▁Organisationen": 9695,
    "▁Gesetz": 9696,
    "▁alkuperä": 9697,
    "luoki": 9698,
    "hun": 9699,
    "▁uzliek": 9700,
    "▁muista": 9701,
    "▁unbe": 9702,
    "▁cha": 9703,
    "▁Ros": 9704,
    "▁Beitrag": 9705,
    "▁direktīva": 9706,
    "▁tuotteiden": 9707,
    "▁võrra": 9708,
    "▁taseme": 9709,
    "▁žmonės": 9710,
    "▁лишь": 9711,
    "▁kysymys": 9712,
    "pass": 9713,
    "korraldus": 9714,
    "itsi": 9715,
    "ämme": 9716,
    "▁teel": 9717,
    "▁relations": 9718,
    "▁ilmne": 9719,
    "▁persona": 9720,
    "▁uo": 9721,
    "▁emp": 9722,
    "āzes": 9723,
    "▁haigus": 9724,
    "▁zuletzt": 9725,
    "▁produktams": 9726,
    "▁Stelle": 9727,
    "▁biudžet": 9728,
    "▁internationale": 9729,
    "67/": 9730,
    "▁pajėg": 9731,
    "eln": 9732,
    "▁accordingly": 9733,
    "▁juhtudel": 9734,
    "mahdollis": 9735,
    "atory": 9736,
    "▁though": 9737,
    "nāk": 9738,
    "▁Arzneimittels": 9739,
    "▁safe": 9740,
    "▁hypo": 9741,
    "▁četr": 9742,
    "▁Aranesp": 9743,
    "verkehr": 9744,
    "▁ryhmä": 9745,
    "▁Mengen": 9746,
    "▁Zwecke": 9747,
    "▁dėlto": 9748,
    "▁adapt": 9749,
    "ением": 9750,
    "tiko": 9751,
    "▁käsitleb": 9752,
    "kultūr": 9753,
    "▁farmako": 9754,
    "▁europa": 9755,
    "▁ok": 9756,
    "dukt": 9757,
    "▁Wirksamkeit": 9758,
    "tulo": 9759,
    "2015": 9760,
    "▁konnte": 9761,
    "▁määratletud": 9762,
    "▁работа": 9763,
    "alen": 9764,
    "izācijas": 9765,
    "▁võetakse": 9766,
    "matto": 9767,
    "▁jätk": 9768,
    "▁erfüllt": 9769,
    "кт": 9770,
    "▁sõltu": 9771,
    "▁patikrin": 9772,
    "▁pagalbą": 9773,
    "▁fraktsiooni": 9774,
    "▁võtma": 9775,
    "iskas": 9776,
    "brīv": 9777,
    "▁numbers": 9778,
    "▁norādīts": 9779,
    "▁Bir": 9780,
    "ziehen": 9781,
    "▁Lithuania": 9782,
    "▁procesa": 9783,
    "▁attīstību": 9784,
    "▁suteikta": 9785,
    "▁resolutsiooni": 9786,
    "▁infrastructure": 9787,
    "▁sovelta": 9788,
    "▁3-": 9789,
    "▁approximately": 9790,
    "▁meklē": 9791,
    "▁kerta": 9792,
    "▁Hol": 9793,
    "▁saatu": 9794,
    "▁lahendus": 9795,
    "mmin": 9796,
    "▁võtab": 9797,
    "▁transporta": 9798,
    "▁silmas": 9799,
    "▁auftreten": 9800,
    "▁širdies": 9801,
    "text": 9802,
    "▁technischen": 9803,
    "▁jūras": 9804,
    "▁storage": 9805,
    "▁eesistuja": 9806,
    "▁Hor": 9807,
    "▁temp": 9808,
    "▁Insuman": 9809,
    "paikka": 9810,
    "ņiem": 9811,
    "▁Eiropā": 9812,
    "375": 9813,
    "▁paskelbimo": 9814,
    "нуть": 9815,
    "▁Kiitos": 9816,
    "▁neuvottelu": 9817,
    "».": 9818,
    "cit": 9819,
    "▁Beitritt": 9820,
    "атор": 9821,
    "▁ļauj": 9822,
    "▁riikliku": 9823,
    "▁Members": 9824,
    "ēj": 9825,
    "kraft": 9826,
    "▁constitute": 9827,
    "▁website": 9828,
    "▁Gruppe": 9829,
    "▁Char": 9830,
    "▁tähtis": 9831,
    "ējās": 9832,
    "▁equivalent": 9833,
    "▁pirmiausia": 9834,
    "▁noor": 9835,
    "yta": 9836,
    "▁Bet": 9837,
    "▁työn": 9838,
    "▁kehtestada": 9839,
    "▁jauna": 9840,
    "▁mission": 9841,
    "▁vähendada": 9842,
    "▁mehrere": 9843,
    "▁Woche": 9844,
    "▁06": 9845,
    "▁mode": 9846,
    "▁Хо": 9847,
    "▁klaus": 9848,
    "istic": 9849,
    "▁oota": 9850,
    "▁geriau": 9851,
    "lor": 9852,
    "▁Lēmumu": 9853,
    "ием": 9854,
    "vul": 9855,
    "▁teatud": 9856,
    "▁democratic": 9857,
    "▁день": 9858,
    "▁allgemeine": 9859,
    "pirk": 9860,
    "▁kansallise": 9861,
    "mplementing": 9862,
    "▁vahendite": 9863,
    "comp": 9864,
    "eihin": 9865,
    "atur": 9866,
    "▁таких": 9867,
    "ließ": 9868,
    "▁palu": 9869,
    "ettu": 9870,
    "▁keho": 9871,
    "▁народ": 9872,
    "cio": 9873,
    "▁Wal": 9874,
    "▁эта": 9875,
    "elin": 9876,
    "TS": 9877,
    "grupi": 9878,
    "▁maintenance": 9879,
    "lov": 9880,
    "▁vana": 9881,
    "▁details": 9882,
    "▁ajoneuvo": 9883,
    "▁Gre": 9884,
    "▁koskevaa": 9885,
    "liit": 9886,
    "▁kuriose": 9887,
    "▁consist": 9888,
    "▁начал": 9889,
    "▁hävi": 9890,
    "▁fibr": 9891,
    "stände": 9892,
    "▁gamin": 9893,
    "▁connection": 9894,
    "seadmete": 9895,
    "▁банк": 9896,
    "▁osoitta": 9897,
    "▁ravimite": 9898,
    "▁osuta": 9899,
    "▁alalla": 9900,
    "therapie": 9901,
    "▁Bevölkerung": 9902,
    "▁medi": 9903,
    "▁pietiekami": 9904,
    "знач": 9905,
    "gest": 9906,
    "▁kaupa": 9907,
    "▁kill": 9908,
    "ykset": 9909,
    "iņa": 9910,
    "▁kertaa": 9911,
    "▁Ware": 9912,
    "▁meinen": 9913,
    "▁spirit": 9914,
    "▁behind": 9915,
    "▁atbrīvo": 9916,
    "▁sociālo": 9917,
    "▁alone": 9918,
    "▁jälleen": 9919,
    "laiset": 9920,
    "▁принят": 9921,
    "▁ус": 9922,
    "▁детей": 9923,
    "ций": 9924,
    "▁atsauc": 9925,
    "▁Haus": 9926,
    "▁teised": 9927,
    "regelung": 9928,
    "▁EUVL": 9929,
    "цией": 9930,
    "▁Vorschläge": 9931,
    "министр": 9932,
    "▁eksportu": 9933,
    "light": 9934,
    "▁tunnusta": 9935,
    "▁gadus": 9936,
    "▁nutrauk": 9937,
    "▁industrial": 9938,
    "▁reakcija": 9939,
    "▁suhkru": 9940,
    "▁toimenpiteet": 9941,
    "91/": 9942,
    "võrgu": 9943,
    "kauf": 9944,
    "rai": 9945,
    "▁kirjeldatud": 9946,
    "▁дело": 9947,
    "▁kansa": 9948,
    "▁alia": 9949,
    "iver": 9950,
    "akti": 9951,
    "мысл": 9952,
    "▁entspricht": 9953,
    "reikš": 9954,
    "▁pinigų": 9955,
    "бед": 9956,
    "ование": 9957,
    "▁vykdyti": 9958,
    "▁susitarimą": 9959,
    "kumul": 9960,
    "aari": 9961,
    "▁kuupäev": 9962,
    "▁ühtse": 9963,
    "▁märtsi": 9964,
    "сте": 9965,
    "▁distribution": 9966,
    "▁iekš": 9967,
    "gruppe": 9968,
    "▁pieder": 9969,
    "tõ": 9970,
    "sicht": 9971,
    "▁enerģijas": 9972,
    "▁contained": 9973,
    "▁category": 9974,
    "▁pieejama": 9975,
    "▁demonstr": 9976,
    "▁hau": 9977,
    "▁intervention": 9978,
    "audzē": 9979,
    "jami": 9980,
    "▁indicate": 9981,
    "▁Gi": 9982,
    "▁press": 9983,
    "▁sudėtin": 9984,
    "ošanu": 9985,
    "▁kolmansi": 9986,
    "▁keičia": 9987,
    "▁neto": 9988,
    "▁kelio": 9989,
    "▁принцип": 9990,
    "▁violence": 9991,
    "▁šias": 9992,
    "▁kasutamisel": 9993,
    "▁untersucht": 9994,
    "▁hr": 9995,
    "usios": 9996,
    "▁papildus": 9997,
    "▁ajavahemiku": 9998,
    "▁eesmärkide": 9999,
    "▁uzskatīt": 10000,
    "▁ühine": 10001,
    "möglich": 10002,
    "▁kohanda": 10003,
    "lased": 10004,
    "▁täitmise": 10005,
    "▁adult": 10006,
    "zweck": 10007,
    "▁kokybės": 10008,
    "▁пор": 10009,
    "▁ievērojot": 10010,
    "▁ETA": 10011,
    "▁põhjusta": 10012,
    "džiu": 10013,
    "▁secret": 10014,
    "TM": 10015,
    "▁physical": 10016,
    "▁engine": 10017,
    "▁dokumentu": 10018,
    "шел": 10019,
    "▁atitinkama": 10020,
    "tynyt": 10021,
    "▁linna": 10022,
    "лиз": 10023,
    "▁plo": 10024,
    "▁asjaomaste": 10025,
    "glyc": 10026,
    "mitteln": 10027,
    "▁секретаря": 10028,
    "maat": 10029,
    "▁ruo": 10030,
    "▁factors": 10031,
    "ина": 10032,
    "beidz": 10033,
    "▁teikt": 10034,
    "▁Bur": 10035,
    "ды": 10036,
    "▁Novartis": 10037,
    "ван": 10038,
    "▁kohti": 10039,
    "▁Projekt": 10040,
    "national": 10041,
    "▁sakarā": 10042,
    "▁kapitāla": 10043,
    "ksiin": 10044,
    "arm": 10045,
    "▁apskaičiuo": 10046,
    "▁denke": 10047,
    "▁injekcijas": 10048,
    "реб": 10049,
    "leht": 10050,
    "▁skait": 10051,
    "mg": 10052,
    "▁Ärge": 10053,
    "▁Jack": 10054,
    "ndamise": 10055,
    "▁probleemi": 10056,
    "valla": 10057,
    "iitti": 10058,
    "▁Может": 10059,
    "▁saavutada": 10060,
    "▁High": 10061,
    "Dienstleistungen": 10062,
    "▁joihin": 10063,
    "kiem": 10064,
    "▁katsoo": 10065,
    "ensa": 10066,
    "vig": 10067,
    "gelegt": 10068,
    "wirken": 10069,
    "▁Prüf": 10070,
    "бл": 10071,
    "дать": 10072,
    "▁narys": 10073,
    "▁drive": 10074,
    "▁пос": 10075,
    "▁lūdzu": 10076,
    "▁yleensä": 10077,
    "rät": 10078,
    "funkc": 10079,
    "nčias": 10080,
    "▁Abstimmung": 10081,
    "▁reģistrēt": 10082,
    "▁Mark": 10083,
    "run": 10084,
    "IF": 10085,
    "▁Lebens": 10086,
    "▁datums": 10087,
    "▁told": 10088,
    "▁berücksichtigen": 10089,
    "▁rise": 10090,
    "▁komun": 10091,
    "▁Section": 10092,
    "likkuse": 10093,
    "▁средств": 10094,
    "skā": 10095,
    "▁gydom": 10096,
    "▁priima": 10097,
    "fertig": 10098,
    "▁tööstus": 10099,
    "dav": 10100,
    "▁quite": 10101,
    "▁veröffentlicht": 10102,
    "▁vaadi": 10103,
    "▁koskevia": 10104,
    "сер": 10105,
    "▁valmisteen": 10106,
    "ksin": 10107,
    "ästä": 10108,
    "▁drošību": 10109,
    "▁Stoffe": 10110,
    "▁games": 10111,
    "▁annosta": 10112,
    "▁Unternehmens": 10113,
    "▁Agentur": 10114,
    "▁правительство": 10115,
    "▁всегда": 10116,
    "▁vertė": 10117,
    "▁tris": 10118,
    "▁organisations": 10119,
    "▁ietvert": 10120,
    "▁funding": 10121,
    "▁tikslas": 10122,
    "▁pētījumi": 10123,
    "jamas": 10124,
    "ацию": 10125,
    "▁direktor": 10126,
    "▁alakohdassa": 10127,
    "trik": 10128,
    "▁takes": 10129,
    "▁saan": 10130,
    "ilg": 10131,
    "ienos": 10132,
    "▁järgmisega": 10133,
    "jušas": 10134,
    "▁ehk": 10135,
    "▁vormi": 10136,
    "▁silloin": 10137,
    "▁apima": 10138,
    "▁aloit": 10139,
    "▁deep": 10140,
    "▁izpildīt": 10141,
    "▁uuden": 10142,
    "▁kaiken": 10143,
    "ement": 10144,
    "ekonomin": 10145,
    "ikas": 10146,
    "publi": 10147,
    "▁меры": 10148,
    "▁explain": 10149,
    "▁mainittu": 10150,
    "▁interval": 10151,
    "▁hoitoon": 10152,
    "▁Gesundheits": 10153,
    "▁Shi": 10154,
    "ложи": 10155,
    "▁Krieg": 10156,
    "TL": 10157,
    "▁increasing": 10158,
    "ге": 10159,
    "▁zone": 10160,
    "gehalt": 10161,
    "ohjelman": 10162,
    "ey": 10163,
    "▁bezüglich": 10164,
    "▁šād": 10165,
    "lag": 10166,
    "wing": 10167,
    "▁Vo": 10168,
    "лин": 10169,
    "лег": 10170,
    "steroid": 10171,
    "▁huo": 10172,
    "▁olemas": 10173,
    "▁nurodytas": 10174,
    "▁express": 10175,
    "▁Grenz": 10176,
    "▁pieaug": 10177,
    "щения": 10178,
    "uuteen": 10179,
    "»,": 10180,
    "amu": 10181,
    "▁varmistaa": 10182,
    "▁varu": 10183,
    "käy": 10184,
    "▁specifik": 10185,
    "▁izmaiņas": 10186,
    "▁surma": 10187,
    "▁atbalstīt": 10188,
    "süsteemide": 10189,
    "▁paaiškin": 10190,
    "▁uuesti": 10191,
    "▁personām": 10192,
    "solu": 10193,
    "▁ādas": 10194,
    "▁valstyb": 10195,
    "ющей": 10196,
    "▁aikaa": 10197,
    "▁kuk": 10198,
    "otte": 10199,
    "kriisi": 10200,
    "▁meele": 10201,
    "▁Barroso": 10202,
    "▁limits": 10203,
    "▁meat": 10204,
    "↓": 10205,
    "▁Affairs": 10206,
    "▁fail": 10207,
    "▁receptor": 10208,
    "▁looking": 10209,
    "▁padarytais": 10210,
    "▁konserv": 10211,
    "▁NOSAUKUMS": 10212,
    "öljy": 10213,
    "markkinoi": 10214,
    "▁сказать": 10215,
    "rija": 10216,
    "▁усилия": 10217,
    "▁ŠĮ": 10218,
    "▁Mio": 10219,
    "lane": 10220,
    "▁maini": 10221,
    "▁atskait": 10222,
    "▁kansan": 10223,
    "▁meille": 10224,
    "▁kūno": 10225,
    "ikat": 10226,
    "▁mail": 10227,
    "säure": 10228,
    "tilan": 10229,
    "delle": 10230,
    "▁nustatytų": 10231,
    "▁divi": 10232,
    "▁ārstam": 10233,
    "neita": 10234,
    "fosf": 10235,
    "kim": 10236,
    "ился": 10237,
    "▁Tor": 10238,
    "ttänyt": 10239,
    "▁думаю": 10240,
    "het": 10241,
    "▁skyrius": 10242,
    "▁Antwort": 10243,
    "▁rahu": 10244,
    "▁müü": 10245,
    "▁Dienst": 10246,
    "▁periodā": 10247,
    "tien": 10248,
    "9)": 10249,
    "▁patsiendid": 10250,
    "▁Investitionen": 10251,
    "wie": 10252,
    "▁veren": 10253,
    "кра": 10254,
    "richtung": 10255,
    "крат": 10256,
    "nduse": 10257,
    "▁Н": 10258,
    "▁tegu": 10259,
    "uojami": 10260,
    "▁saavat": 10261,
    "▁saavad": 10262,
    "meetri": 10263,
    "▁technische": 10264,
    "▁roh": 10265,
    "▁Bulgaria": 10266,
    "▁vastaava": 10267,
    "▁Augen": 10268,
    "▁acts": 10269,
    "Mi": 10270,
    "▁til": 10271,
    "▁Ši": 10272,
    "▁систем": 10273,
    "Й": 10274,
    "▁darbuotojų": 10275,
    "▁annus": 10276,
    "isille": 10277,
    "▁uztur": 10278,
    "▁tootmisharu": 10279,
    "▁darīt": 10280,
    "▁property": 10281,
    "▁вод": 10282,
    "eerida": 10283,
    "▁Roma": 10284,
    "▁жизнь": 10285,
    "▁šai": 10286,
    "inėmis": 10287,
    "▁ней": 10288,
    "▁sadarbības": 10289,
    "▁fun": 10290,
    "prot": 10291,
    "joties": 10292,
    "▁aktų": 10293,
    "▁Bekämpfung": 10294,
    "ware": 10295,
    "gegangen": 10296,
    "ila": 10297,
    "▁erhöhte": 10298,
    "▁registered": 10299,
    "ume": 10300,
    "©": 10301,
    "▁konventsiooni": 10302,
    "natrium": 10303,
    "▁cur": 10304,
    "▁тобой": 10305,
    "▁kaup": 10306,
    "▁tiesa": 10307,
    "▁random": 10308,
    "must": 10309,
    "▁Под": 10310,
    "▁ārpus": 10311,
    "▁vasario": 10312,
    "▁jokio": 10313,
    "▁terrorist": 10314,
    "▁väljenda": 10315,
    "▁asmenų": 10316,
    "▁dro": 10317,
    "▁whereas": 10318,
    "yö": 10319,
    "▁труд": 10320,
    "`": 10321,
    "ulu": 10322,
    "nacionalin": 10323,
[...]
