<unk>	0
<s>	0
</s>	0
,	-3.20497
.	-3.40157
s	-3.95819
▁	-4.04218
▁the	-4.53972
n	-5.01532
▁of	-5.11009
a	-5.15
▁in	-5.1648
e	-5.18441
t	-5.19669
▁(	-5.23265
i	-5.23493
▁to	-5.2683
)	-5.29732
▁ja	-5.34159
en	-5.35792
▁on	-5.40197
-	-5.40774
▁and	-5.46042
▁die	-5.46961
▁der	-5.48467
▁ir	-5.54569
▁-	-5.60094
u	-5.67047
o	-5.68663
:	-5.72556
▁a	-5.7349
d	-5.79573
?	-5.85381
▁un	-5.87382
▁und	-5.88564
m	-6.22225
as	-6.29173
▁for	-6.2951
▁be	-6.32115
/	-6.34434
▁ar	-6.38231
;	-6.38614
▁is	-6.39759
te	-6.49237
▁that	-6.50262
▁I	-6.50523
l	-6.50758
in	-6.52083
ing	-6.54198
le	-6.54251
▁1	-6.56956
!	-6.5778
st	-6.61067
er	-6.61641
▁ei	-6.64546
us	-6.65717
ed	-6.6582
es	-6.66284
▁в	-6.66552
▁von	-6.68145
b	-6.71441
▁den	-6.71818
'	-6.71933
▁zu	-6.72262
▁ka	-6.72519
ta	-6.74492
▁no	-6.75499
ti	-6.77362
▁des	-6.77689
▁es	-6.78315
▁für	-6.79416
▁with	-6.79512
▁2	-6.80344
▁an	-6.80562
r	-6.81807
ų	-6.82376
▁и	-6.82619
▁ne	-6.83427
ga	-6.83699
_	-6.84352
▁_	-6.88013
BAR	-6.88933
▁par	-6.89087
▁kas	-6.89312
▁as	-6.90579
os	-6.91829
is	-6.92616
▁et	-6.96307
▁su	-6.96689
▁this	-6.9677
▁mit	-6.97309
▁by	-6.98054
▁auf	-6.98191
▁ist	-6.98566
▁it	-6.99081
▁tai	-7.00043
▁or	-7.01042
▁das	-7.02605
ma	-7.03047
▁at	-7.03699
▁kad	-7.05021
ä	-7.06106
▁3	-7.06332
а	-7.06735
id	-7.08393
▁you	-7.09027
▁vai	-7.10766
da	-7.10978
an	-7.11624
▁į	-7.12182
ā	-7.13274
de	-7.13634
▁are	-7.13839
▁nicht	-7.14515
ai	-7.15568
▁im	-7.15915
ly	-7.17703
▁not	-7.18272
y	-7.19868
ks	-7.22011
е	-7.22613
▁не	-7.22775
▁uz	-7.23291
ą	-7.23343
▁"	-7.23627
▁на	-7.28226
ne	-7.28254
▁с	-7.28614
▁werden	-7.28746
...	-7.29901
ja	-7.3063
k	-7.30664
g	-7.31008
▁eine	-7.31186
▁iš	-7.3149
▁või	-7.32478
▁по	-7.34872
▁–	-7.35769
▁Nr	-7.3593
al	-7.38432
sta	-7.38982
▁was	-7.3921
▁oder	-7.39712
▁L	-7.41643
▁5	-7.41702
▁4	-7.43031
▁m	-7.4322
▁dass	-7.43564
me	-7.43788
▁että	-7.44424
▁dem	-7.44863
▁bei	-7.44863
▁we	-7.45003
и	-7.4505
▁have	-7.45529
▁so	-7.46084
▁d	-7.46197
▁kui	-7.46938
h	-7.47055
▁ein	-7.47184
▁S	-7.47707
▁from	-7.48555
re	-7.48611
▁ko	-7.49769
▁pa	-7.50569
▁b	-7.50953
na	-7.51239
c	-7.52878
▁C	-7.53526
em	-7.54694
▁se	-7.54976
▁lai	-7.55119
se	-7.55631
▁yra	-7.55867
▁shall	-7.56071
▁see	-7.56178
▁which	-7.57075
▁mis	-7.57337
▁sa	-7.59045
ten	-7.60118
▁что	-7.60775
).	-7.6121
▁A	-7.61858
to	-7.62129
▁me	-7.62493
▁mg	-7.62959
▁ole	-7.63079
у	-7.63958
▁all	-7.64807
tu	-7.65407
et	-7.65731
▁jo	-7.66219
v	-7.66513
▁sind	-7.66538
▁kā	-7.67934
ke	-7.6855
▁per	-7.68998
si	-7.69625
ssa	-7.69698
▁Sie	-7.70179
it	-7.70244
▁über	-7.70991
▁zur	-7.71464
p	-7.72933
▁6	-7.73519
▁Euroopa	-7.74421
▁re	-7.74448
▁ning	-7.74487
▁will	-7.74837
▁wir	-7.75215
am	-7.75526
▁dėl	-7.75724
▁wird	-7.75738
"	-7.76859
▁E	-7.76905
▁s	-7.77258
▁var	-7.77363
lle	-7.78253
ge	-7.78396
▁10	-7.79165
ko	-7.79911
▁European	-7.80827
’	-7.80856
ы	-7.81575
A	-7.8236
▁has	-7.82404
▁Artikel	-7.83143
▁nach	-7.8438
▁Ma	-7.84564
ot	-7.85026
м	-7.85292
C	-7.86011
▁p	-7.86481
▁EU	-7.86481
z	-7.86614
iem	-7.87941
▁aus	-7.88229
▁als	-7.88368
),	-7.8872
▁sich	-7.88816
▁einer	-7.89583
▁Eiropas	-7.89642
ni	-7.89984
▁sie	-7.90327
▁should	-7.90664
▁1.	-7.90828
▁arba	-7.9132
х	-7.91905
▁kaip	-7.92336
ve	-7.9237
▁Europos	-7.92798
vad	-7.93019
▁er	-7.93028
▁he	-7.93292
▁%	-7.93936
▁ma	-7.9444
▁ap	-7.94823
▁um	-7.95019
▁Union	-7.95977
▁Regulation	-7.96505
▁Ich	-7.96624
el	-7.96771
ė	-7.96893
ung	-7.96908
▁o	-7.97981
▁jos	-7.98188
▁ver	-7.98239
▁ich	-7.98288
or	-7.98742
▁за	-7.99045
on	-7.99448
▁man	-8.00039
▁its	-8.00375
▁Commission	-8.0043
den	-8.01294
▁būti	-8.02928
я	-8.0296
▁No	-8.02969
ās	-8.03106
▁7	-8.03107
▁P	-8.0368
▁oma	-8.03908
va	-8.03973
2	-8.0417
▁kohta	-8.05411
▁ta	-8.05622
▁Kommission	-8.05796
▁po	-8.05958
ation	-8.06068
▁tu	-8.06407
▁Article	-8.06482
о	-8.06502
ista	-8.06717
▁du	-8.06741
▁other	-8.07134
ia	-8.07664
й	-8.07776
f	-8.0779
▁Member	-8.0781
gi	-8.0795
▁but	-8.08081
▁de	-8.0815
▁vor	-8.08762
ju	-8.08874
mis	-8.08875
▁arī	-8.08879
▁tā	-8.08957
▁gada	-8.09068
ku	-8.09276
mine	-8.09371
at	-8.09445
▁N	-8.09582
ver	-8.09857
▁diese	-8.09903
▁B	-8.09922
ой	-8.1001
ka	-8.10103
ki	-8.10122
▁oli	-8.10561
▁if	-8.11397
▁can	-8.11532
lla	-8.11545
lt	-8.1161
▁Verordnung	-8.12012
▁sen	-8.12549
ов	-8.12579
▁gali	-8.12641
▁wie	-8.12944
▁also	-8.13221
mi	-8.13222
▁auch	-8.1337
▁у	-8.13373
▁selle	-8.13404
▁8	-8.13543
▁„	-8.13962
ar	-8.14106
▁20	-8.14533
▁Я	-8.14698
▁bet	-8.15092
▁12	-8.15207
▁hat	-8.15256
S	-8.15307
▁do	-8.16024
il	-8.16107
▁nav	-8.16724
▁their	-8.16794
im	-8.17025
▁been	-8.17128
▁g	-8.1757
be	-8.17924
▁о	-8.18076
▁4.	-8.18272
▁taip	-8.18328
▁tas	-8.18365
tas	-8.18739
ty	-8.1977
tud	-8.20191
▁States	-8.20241
ām	-8.20445
▁nuo	-8.20813
▁buvo	-8.20874
▁iz	-8.21057
▁K	-8.21715
kin	-8.22638
▁я	-8.22981
▁turi	-8.24149
▁wenn	-8.24149
nud	-8.24274
▁may	-8.24416
mise	-8.24619
▁haben	-8.24681
pa	-8.24938
▁durch	-8.24957
ом	-8.25037
▁your	-8.25357
ais	-8.2545
▁T	-8.25479
3	-8.2579
š	-8.26088
▁dieser	-8.26334
▁am	-8.26375
sti	-8.26403
▁30	-8.26468
▁out	-8.26987
li	-8.27212
▁Euroopan	-8.27341
io	-8.27567
▁kann	-8.2758
”	-8.27872
▁tik	-8.27878
л	-8.28181
▁vom	-8.28316
▁pat	-8.28545
▁15	-8.28762
mme	-8.28851
▁they	-8.28867
▁ge	-8.29011
▁už	-8.29083
▁c	-8.29719
B	-8.29806
ll	-8.29941
▁M	-8.30106
un	-8.30176
▁pie	-8.3089
D	-8.31139
ter	-8.31342
imo	-8.31365
ide	-8.31522
▁pagal	-8.31851
tä	-8.31972
▁more	-8.32373
▁—	-8.32505
ic	-8.32573
▁9	-8.3258
ra	-8.32782
mist	-8.33659
EC	-8.33873
▁F	-8.34146
vi	-8.34543
▁II	-8.35529
▁от	-8.35552
▁nr	-8.3595
▁к	-8.36211
▁e	-8.3643
ю	-8.36441
T	-8.3684
▁Komisija	-8.36964
ē	-8.37614
▁D	-8.38339
▁“	-8.38786
je	-8.3903
▁pēc	-8.39194
▁Europäischen	-8.3951
ina	-8.39792
1	-8.3982
▁V	-8.4027
▁any	-8.40404
▁unter	-8.40656
▁ie	-8.40695
▁need	-8.40758
▁seda	-8.41
▁šo	-8.4103
▁there	-8.41635
▁aasta	-8.41886
▁one	-8.42027
ch	-8.42064
▁einen	-8.42318
▁would	-8.42719
▁H	-8.42803
▁Council	-8.42842
▁l	-8.42898
ės	-8.43203
▁G	-8.4342
▁kai	-8.43576
inen	-8.4396
▁19	-8.44052
▁это	-8.44221
]	-8.4423
▁līdz	-8.44824
he	-8.44907
▁what	-8.45415
▁Be	-8.4548
w	-8.45875
▁te	-8.45876
▁ovat	-8.45937
▁2.	-8.46021
▁В	-8.46399
▁Re	-8.46633
N	-8.46754
EG	-8.4676
▁R	-8.46773
der	-8.47244
4	-8.47284
▁such	-8.47635
▁apie	-8.48241
ет	-8.48459
no	-8.48522
т	-8.48538
▁Pa	-8.48623
EK	-8.49033
▁artikli	-8.49346
▁my	-8.4957
ть	-8.49593
EB	-8.49913
▁into	-8.49941
ksi	-8.50133
H	-8.5041
▁ml	-8.50711
▁как	-8.5148
▁up	-8.51488
▁must	-8.5156
ого	-8.51707
▁18	-8.52057
mu	-8.52158
EÜ	-8.52215
но	-8.52344
ur	-8.52579
▁Absatz	-8.52834
▁saa	-8.52841
▁при	-8.5294
▁k	-8.52962
▁einem	-8.53094
▁In	-8.53273
I	-8.53397
di	-8.53397
ist	-8.53432
▁under	-8.53829
▁use	-8.53862
▁saskaņā	-8.54698
▁вы	-8.54765
į	-8.54902
▁osa	-8.54943
с	-8.55014
(	-8.55245
▁straipsnio	-8.55741
▁than	-8.56033
▁these	-8.56203
nt	-8.56258
est	-8.56286
▁11	-8.56426
ud	-8.56469
ių	-8.56489
▁panta	-8.56707
E	-8.56986
ли	-8.57032
▁mida	-8.57075
▁zum	-8.57151
gen	-8.57288
lo	-8.57347
po	-8.57573
▁were	-8.57648
▁С	-8.5774
▁100	-8.57837
▁joka	-8.5799
ie	-8.5804
▁nur	-8.58172
ri	-8.58201
▁25	-8.58298
▁O	-8.58299
ies	-8.58742
ig	-8.59055
▁14	-8.59117
ita	-8.59247
ut	-8.59418
takse	-8.59639
▁tiek	-8.59668
ant	-8.6003
P	-8.60147
▁time	-8.60211
▁können	-8.60451
н	-8.60473
th	-8.60496
▁t	-8.60779
sid	-8.60873
K	-8.60886
mo	-8.61042
▁nende	-8.61177
des	-8.61938
▁võib	-8.61954
ę	-8.62077
gu	-8.62259
▁Ver	-8.62295
▁kun	-8.62583
▁when	-8.62735
▁ab	-8.6283
▁[	-8.6286
ad	-8.62888
ha	-8.62905
än	-8.6293
▁для	-8.62972
▁ты	-8.63017
▁wurde	-8.63092
▁information	-8.6344
▁pro	-8.63663
▁myös	-8.64108
▁jotka	-8.64247
ste	-8.6426
▁2005	-8.6429
▁Mitgliedstaaten	-8.64317
ite	-8.64416
▁16	-8.64446
stä	-8.64809
jen	-8.64925
▁sein	-8.65183
jo	-8.65348
um	-8.65475
▁da	-8.6564
tel	-8.65708
▁attiecībā	-8.65807
▁kuin	-8.65971
sse	-8.66103
▁war	-8.66146
“	-8.66383
ment	-8.66463
mas	-8.66715
la	-8.66952
ry	-8.67361
▁who	-8.67498
imas	-8.67544
vat	-8.68049
ion	-8.68102
▁13	-8.68123
▁mēs	-8.683
▁voi	-8.68418
▁our	-8.6855
tus	-8.68792
▁2004	-8.69004
в	-8.69127
▁new	-8.69187
▁jei	-8.69368
ü	-8.69717
▁where	-8.70151
–	-8.70188
▁alle	-8.70301
▁about	-8.70379
▁tam	-8.70629
▁из	-8.70785
šanas	-8.70864
▁bis	-8.70915
▁vastu	-8.70925
▁only	-8.71284
▁savo	-8.71608
▁50	-8.71668
G	-8.71881
▁24	-8.72205
ла	-8.72461
▁f	-8.72813
ys	-8.73002
▁tās	-8.73095
▁0,	-8.73356
EU	-8.73463
vo	-8.73569
L	-8.73765
men	-8.73992
ir	-8.74058
▁Community	-8.74218
F	-8.74482
inių	-8.74561
▁pār	-8.74669
tų	-8.74721
hi	-8.74779
ssä	-8.75043
▁būtų	-8.7542
▁dar	-8.75454
tele	-8.76004
▁olen	-8.76176
x	-8.76276
inės	-8.76453
▁kes	-8.76512
ers	-8.76581
iz	-8.76748
▁2006	-8.76765
V	-8.76897
▁tuleb	-8.76929
val	-8.771
iden	-8.77124
▁tämän	-8.77258
▁An	-8.77261
▁aber	-8.77287
ol	-8.77298
ību	-8.77721
sch	-8.77927
▁välja	-8.77993
ab	-8.78051
lu	-8.78155
▁like	-8.78333
du	-8.78461
ate	-8.78475
▁vērā	-8.7852
▁those	-8.78752
aus	-8.79047
▁kuri	-8.79143
▁määruse	-8.79234
▁gemäß	-8.79538
▁17	-8.79612
▁•	-8.79712
ем	-8.79869
▁про	-8.79934
O	-8.79975
▁sekä	-8.79998
▁tuo	-8.80081
▁reikia	-8.80465
▁countries	-8.80515
▁olla	-8.80551
▁mums	-8.80613
▁21	-8.80643
M	-8.80793
ce	-8.81528
6	-8.81711
▁üle	-8.8191
ine	-8.81939
го	-8.82093
▁3.	-8.82211
▁+	-8.82228
д	-8.82485
tos	-8.83107
▁0	-8.8327
llä	-8.8342
man	-8.83548
tta	-8.83656
j	-8.84068
nä	-8.84186
▁his	-8.8452
▁la	-8.84527
▁müssen	-8.84945
▁Ne	-8.85019
ить	-8.85052
▁between	-8.85138
8	-8.85194
7	-8.85333
▁keine	-8.8545
▁En	-8.85569
ity	-8.85873
▁nii	-8.85971
▁Er	-8.8604
▁Mr	-8.86064
▁just	-8.86109
▁hän	-8.86161
maan	-8.86259
ī	-8.86306
▁eri	-8.86341
▁products	-8.86366
▁iki	-8.86456
▁following	-8.86716
▁noch	-8.8695
▁State	-8.87145
usi	-8.87154
▁nõukogu	-8.87233
▁measures	-8.87319
▁take	-8.87393
▁The	-8.8742
▁komisjoni	-8.87661
ö	-8.87662
ro	-8.87864
▁Komisijos	-8.87894
▁6.	-8.87945
▁EUR	-8.87989
▁muss	-8.88074
ки	-8.88546
▁22	-8.88559
▁А	-8.88616
taan	-8.88958
▁а	-8.89239
▁eines	-8.89344
R	-8.89355
oje	-8.89917
▁prie	-8.90082
▁Directive	-8.9028
ми	-8.90305
▁olisi	-8.90527
▁Annex	-8.9094
line	-8.91143
▁va	-8.91378
ия	-8.91446
▁v	-8.91565
▁И	-8.91576
▁mille	-8.91594
▁Al	-8.91602
ik	-8.91636
do	-8.91662
ille	-8.91988
▁after	-8.92201
▁31	-8.92224
▁dalies	-8.92346
ei	-8.92401
▁bija	-8.92408
▁well	-8.92485
▁mu	-8.92569
▁Richtlinie	-8.92693
ams	-8.92735
▁Ab	-8.92759
ка	-8.92764
▁jis	-8.92779
▁accordance	-8.92812
ms	-8.929
ž	-8.92904
▁nu	-8.93596
▁jų	-8.93695
issa	-8.93891
▁käesoleva	-8.93904
ных	-8.93979
▁regard	-8.93994
ся	-8.9406
▁valstybės	-8.94081
tar	-8.9411
5	-8.94133
▁period	-8.94881
▁īpaši	-8.94895
▁us	-8.94968
▁jau	-8.94994
▁Patienten	-8.95127
▁first	-8.95152
▁kanssa	-8.95191
lik	-8.95268
iai	-8.95377
ul	-8.95381
zu	-8.95435
W	-8.9552
able	-8.95644
miseks	-8.95735
vien	-8.95806
▁mir	-8.95868
▁Tel	-8.9587
ь	-8.95989
▁wurden	-8.96087
▁sollte	-8.96221
ho	-8.9631
▁straipsnis	-8.96923
šanu	-8.97193
▁mutta	-8.97256
▁down	-8.97308
ых	-8.97545
▁had	-8.97859
▁pärast	-8.98056
▁her	-8.98478
9	-8.98579
ci	-8.98707
▁pre	-8.98786
▁market	-8.9879
▁до	-8.98816
▁komission	-8.98876
▁artiklan	-8.9889
iini	-8.99018
uma	-8.99429
minen	-8.99478
▁di	-8.99481
▁over	-8.99501
▁его	-8.99583
▁report	-8.99716
▁W	-8.999
▁ha	-9.00524
▁mehr	-9.00692
▁kur	-9.00788
▁Die	-9.00842
▁h	-9.01006
▁5.	-9.01115
▁within	-9.01315
▁lisa	-9.01333
▁28	-9.01338
▁some	-9.01367
▁sowie	-9.01399
▁kg	-9.01577
▁Maßnahmen	-9.01655
▁national	-9.01669
▁III	-9.01714
▁order	-9.01727
tava	-9.01744
ton	-9.02049
nen	-9.02179
▁Committee	-9.02267
ж	-9.02321
▁direktiivi	-9.02336
▁toimi	-9.02474
▁2003	-9.02514
▁Это	-9.02582
▁work	-9.02627
pu	-9.02725
▁sitä	-9.02848
▁Le	-9.0316
EY	-9.03233
▁data	-9.0334
▁De	-9.03357
ise	-9.03365
▁tikai	-9.034
▁Anwendung	-9.03501
▁siis	-9.03508
ības	-9.03542
▁2007	-9.03629
▁mitte	-9.03655
ijos	-9.03703
ru	-9.03815
▁particular	-9.03817
inio	-9.03897
▁ravi	-9.04005
umu	-9.04024
nes	-9.04244
▁made	-9.04306
▁muut	-9.04466
istä	-9.04528
▁раз	-9.04547
min	-9.04553
per	-9.04556
jä	-9.04733
▁У	-9.04952
▁pret	-9.04963
▁people	-9.05017
▁ju	-9.0503
▁2008	-9.05185
▁Sa	-9.05382
pi	-9.05403
▁system	-9.055
ųjų	-9.05521
▁27	-9.0555
▁now	-9.05562
▁Ra	-9.05573
▁diesem	-9.05576
▁šajā	-9.0563
▁end	-9.05637
ele	-9.05643
▁know	-9.05657
ija	-9.05695
ius	-9.05752
▁под	-9.05758
sin	-9.05798
▁Ты	-9.05854
▁President	-9.06032
▁right	-9.06091
ien	-9.06259
на	-9.06485
▁būtu	-9.06557
illa	-9.06675
▁puhul	-9.06697
van	-9.06699
umo	-9.06793
ties	-9.07129
▁zwischen	-9.07142
tes	-9.07278
▁kõik	-9.07329
▁pants	-9.07379
▁Komisijas	-9.076
▁n	-9.07697
▁ņemot	-9.07721
к	-9.07798
▁United	-9.07912
ihin	-9.07924
▁Gemeinschaft	-9.07999
ive	-9.0804
▁23	-9.08112
▁iga	-9.08164
▁Sch	-9.08191
▁Да	-9.08261
▁päivänä	-9.08278
▁anderen	-9.08356
▁patients	-9.08624
▁ihre	-9.0909
ba	-9.09155
▁arvesse	-9.09328
ui	-9.09391
kas	-9.09391
õ	-9.0942
ие	-9.09478
р	-9.09509
ч	-9.09566
▁40	-9.09702
▁used	-9.09742
ами	-9.09956
▁jūs	-9.09991
▁laikā	-9.1023
ose	-9.10295
sten	-9.10356
▁бы	-9.10454
▁Parliament	-9.10657
ло	-9.10743
▁suhtes	-9.10951
imą	-9.11394
▁2002	-9.11442
▁Tarybos	-9.11614
ш	-9.11634
sa	-9.11663
▁labai	-9.11683
▁two	-9.11868
ting	-9.11922
▁kon	-9.11974
▁very	-9.12006
▁Anhang	-9.12085
▁hier	-9.12152
▁valsts	-9.12284
▁con	-9.1231
▁years	-9.12354
то	-9.12416
▁international	-9.12426
▁töö	-9.12451
▁Ja	-9.12494
▁unionin	-9.1257
▁provided	-9.12591
ая	-9.12746
▁со	-9.12869
▁set	-9.12875
ub	-9.13019
▁euro	-9.13188
ttava	-9.1321
▁2000	-9.13317
▁об	-9.13444
▁Padomes	-9.13592
▁nagu	-9.13677
land	-9.13783
▁na	-9.13918
▁anti	-9.1393
au	-9.13934
mat	-9.14148
▁komisjon	-9.14171
▁make	-9.1424
▁turėtų	-9.14286
10	-9.14336
▁tie	-9.14351
tte	-9.14383
▁меня	-9.14436
▁sk	-9.14469
▁pri	-9.14701
▁prieš	-9.14715
▁Kopienas	-9.14719
▁šio	-9.14794
▁kogu	-9.14906
▁koos	-9.15003
▁pää	-9.15228
▁metu	-9.15278
▁Artikkel	-9.15305
▁Na	-9.15318
▁number	-9.15319
tra	-9.15565
▁r	-9.15656
▁nei	-9.15718
las	-9.15878
mm	-9.1592
▁По	-9.16036
00	-9.16074
▁import	-9.16234
▁human	-9.16267
ven	-9.16267
▁U	-9.16271
▁Rates	-9.16432
▁support	-9.16465
▁year	-9.16471
▁Tämä	-9.16502
▁Sąjungos	-9.16621
▁все	-9.16637
▁vastavalt	-9.167
▁так	-9.16909
co	-9.1694
▁mes	-9.16963
▁dieses	-9.16975
pro	-9.16992
▁siitä	-9.17087
▁referred	-9.17138
ums	-9.17264
isen	-9.17452
▁part	-9.17976
mos	-9.18148
ungen	-9.18217
tri	-9.18431
им	-9.18498
ek	-9.18517
cht	-9.18586
ти	-9.18713
▁eest	-9.18737
▁development	-9.18852
▁ühenduse	-9.18904
and	-9.19029
▁šīs	-9.19122
▁financial	-9.19165
U	-9.19327
▁kurie	-9.19394
nut	-9.1948
mus	-9.19533
▁here	-9.19815
▁vain	-9.19911
▁them	-9.19999
▁muu	-9.20009
▁insbesondere	-9.20108
▁Europe	-9.20123
test	-9.20185
▁Liidu	-9.20227
yn	-9.20254
▁bus	-9.20349
▁Šis	-9.20526
▁kurių	-9.20581
ino	-9.20617
▁он	-9.2068
isten	-9.20696
▁J	-9.20861
▁Decision	-9.20884
▁vasta	-9.2095
▁abi	-9.21103
neet	-9.21442
▁vis	-9.21552
ern	-9.21607
bi	-9.21696
▁2009	-9.21727
yti	-9.21747
pe	-9.21862
mon	-9.21895
▁narės	-9.21961
tą	-9.22024
ной	-9.22352
ega	-9.22381
ра	-9.22384
omis	-9.22393
▁seotud	-9.22394
▁each	-9.22605
▁could	-9.22605
up	-9.22633
ей	-9.22763
ного	-9.22876
▁Savienības	-9.23015
2/	-9.23061
▁during	-9.23119
tis	-9.23162
▁therefore	-9.23164
▁jeigu	-9.2338
▁because	-9.23527
▁before	-9.23542
▁О	-9.23565
▁asetuksen	-9.23596
0	-9.2368
fe	-9.23736
▁мы	-9.23957
▁ette	-9.24013
▁gan	-9.24084
▁To	-9.24281
ии	-9.24326
▁Aus	-9.24386
▁how	-9.24448
▁val	-9.24848
▁Не	-9.24898
б	-9.24903
ex	-9.24919
▁26	-9.24984
▁vairāk	-9.25053
▁мне	-9.25089
ile	-9.25097
▁чтобы	-9.25127
ый	-9.25172
▁le	-9.2521
▁(1)	-9.25226
ācijas	-9.25806
та	-9.25943
vä	-9.26068
del	-9.26114
▁most	-9.26128
▁including	-9.26242
go	-9.26252
▁necessary	-9.26378
ated	-9.26968
ные	-9.27029
ку	-9.27089
ler	-9.27205
▁tika	-9.27351
те	-9.27419
▁määrä	-9.27454
use	-9.27495
▁üks	-9.27501
▁z	-9.27578
▁get	-9.27606
▁niin	-9.27611
lin	-9.27664
▁sp	-9.27669
tic	-9.2771
да	-9.27712
▁1/	-9.27753
▁sollten	-9.27935
ap	-9.28033
▁Ein	-9.28051
ни	-9.28217
▁La	-9.28258
ischen	-9.28271
iga	-9.28312
tav	-9.28326
▁ri	-9.28482
▁lo	-9.28537
▁60	-9.28554
▁но	-9.28602
▁29	-9.28602
▁Z	-9.28615
▁...	-9.28639
met	-9.28655
▁года	-9.28681
▁vien	-9.28711
nis	-9.28759
▁(2)	-9.28764
▁kuru	-9.28772
lich	-9.28821
ami	-9.28925
▁meie	-9.28982
▁väga	-9.28982
ам	-9.29054
▁i	-9.29086
▁Se	-9.29217
".	-9.29233
▁ji	-9.29371
oma	-9.29687
▁punktu	-9.29712
▁kaikki	-9.29773
▁vaja	-9.29927
ojo	-9.30003
▁Ar	-9.3007
▁[1]	-9.30076
▁или	-9.30086
ит	-9.30137
▁ensure	-9.3027
▁enne	-9.30281
oms	-9.30347
▁mich	-9.30368
▁economic	-9.30531
▁did	-9.3073
ze	-9.3073
4/	-9.30905
avimo	-9.30922
ime	-9.30936
▁galima	-9.31031
ые	-9.31044
var	-9.31107
iert	-9.31145
▁kuni	-9.31204
ner	-9.31226
▁public	-9.31281
▁mano	-9.31303
▁risk	-9.31486
▁peab	-9.31489
▁Hav	-9.31545
Z	-9.31592
ajiem	-9.31788
▁even	-9.31814
19	-9.31929
20	-9.31984
▁ihrer	-9.3211
▁nepa	-9.32127
▁lõike	-9.3225
▁mukaan	-9.32394
we	-9.32442
▁Vi	-9.3247
▁kurios	-9.32531
▁case	-9.32593
▁nes	-9.32609
▁same	-9.32693
▁product	-9.32779
dy	-9.32887
▁country	-9.32918
tin	-9.33012
▁andere	-9.33119
▁nad	-9.33122
oja	-9.33138
bar	-9.33148
vai	-9.33163
und	-9.33171
▁minu	-9.33187
od	-9.33346
ют	-9.33484
▁place	-9.33556
▁co	-9.33608
vät	-9.33634
);	-9.33849
▁2010	-9.33892
п	-9.33979
▁К	-9.34013
▁jā	-9.34083
▁kuid	-9.34104
ck	-9.34115
▁Herr	-9.34149
▁ex	-9.34457
ения	-9.34513
▁voidaan	-9.34574
▁jälkeen	-9.34677
ieren	-9.34757
uoti	-9.35009
▁Что	-9.35063
11	-9.35109
fer	-9.35288
lis	-9.35308
ется	-9.3532
▁Б	-9.35326
kon	-9.35357
▁Но	-9.35459
▁ką	-9.35552
▁Parlament	-9.35557
é	-9.35586
nne	-9.35737
▁go	-9.35958
▁же	-9.35986
▁Bendrijos	-9.35997
tā	-9.36088
▁paragraph	-9.36146
ger	-9.3616
ttä	-9.36218
iv	-9.36228
▁starp	-9.36228
▁point	-9.36483
▁reglamento	-9.3653
▁last	-9.36607
tti	-9.36764
▁võttes	-9.36828
uose	-9.36909
ren	-9.36925
▁õigus	-9.36933
▁mukaisesti	-9.36946
▁Entwicklung	-9.36967
▁way	-9.37044
▁kadangi	-9.37128
▁sätestatud	-9.37193
▁sehr	-9.37243
▁important	-9.37346
bo	-9.37428
mä	-9.3759
iet	-9.37602
▁Pro	-9.37661
30	-9.37661
sk	-9.37678
ība	-9.37738
▁st	-9.37751
ах	-9.3777
▁их	-9.37772
▁Ge	-9.37781
▁help	-9.37847
▁ši	-9.38054
osios	-9.38254
EL	-9.38306
ama	-9.38471
▁conditions	-9.38479
▁то	-9.38491
."	-9.38564
▁ob	-9.38574
▁Vor	-9.38604
▁ent	-9.38629
age	-9.38642
▁Aš	-9.38674
▁habe	-9.38747
▁without	-9.38788
▁nėra	-9.38827
▁Su	-9.38867
г	-9.38906
▁many	-9.38963
inis	-9.39007
▁pacientiem	-9.39092
▁ypač	-9.39182
▁good	-9.39186
50	-9.39295
ji	-9.39541
▁tur	-9.39638
▁through	-9.3983
▁ühe	-9.39954
ön	-9.4001
▁gegen	-9.40044
ling	-9.40135
▁against	-9.40178
▁pole	-9.40205
▁daugiau	-9.40397
J	-9.40469
šana	-9.40491
▁rights	-9.40497
lise	-9.4059
īt	-9.40605
EEB	-9.40606
mą	-9.40695
EEC	-9.40741
▁Ka	-9.40759
▁aš	-9.40777
▁koska	-9.40781
vir	-9.40805
з	-9.40807
▁al	-9.40817
ac	-9.40901
jas	-9.41103
▁jie	-9.41123
▁komissio	-9.41255
▁treatment	-9.41532
▁kam	-9.41543
▁transport	-9.41657
ен	-9.41717
▁darba	-9.41824
▁level	-9.41854
šu	-9.41963
ую	-9.41976
▁pasi	-9.41981
▁Me	-9.4202
elle	-9.42072
mista	-9.42119
▁ad	-9.42128
ный	-9.42442
▁want	-9.42521
▁being	-9.42545
▁don	-9.42668
▁pea	-9.4278
▁min	-9.42812
▁dalyje	-9.42885
iniai	-9.42888
▁punktā	-9.43084
▁pra	-9.43096
tur	-9.43175
▁Rat	-9.43226
ng	-9.43254
ige	-9.43276
▁[2]	-9.43306
▁Behandlung	-9.43404
inė	-9.43414
▁Rahmen	-9.43417
▁tema	-9.43487
▁social	-9.43499
EMÜ	-9.43546
▁ilma	-9.43611
inti	-9.43827
▁daudz	-9.4384
iin	-9.43859
▁world	-9.43888
ле	-9.43948
▁<	-9.43954
▁nimetatud	-9.44049
ische	-9.44332
▁tässä	-9.44341
jam	-9.44436
▁force	-9.44487
▁certain	-9.44553
▁также	-9.44612
▁kar	-9.44651
ši	-9.44693
▁He	-9.44698
tai	-9.44797
▁visi	-9.44805
▁2011	-9.44982
ell	-9.44998
▁niiden	-9.45025
▁Co	-9.45098
▁tau	-9.45122
EWG	-9.45162
▁olema	-9.452
▁policy	-9.45303
misen	-9.45315
25	-9.45342
ht	-9.45387
zi	-9.45442
ил	-9.45463
▁does	-9.45612
▁day	-9.45661
maks	-9.45665
▁šios	-9.45784
▁Kon	-9.45814
fa	-9.45868
oli	-9.45879
set	-9.45941
▁poolt	-9.46037
ary	-9.46136
ū	-9.46137
▁mm	-9.46154
▁ž	-9.46173
kul	-9.4636
ēt	-9.46463
▁vēl	-9.46655
▁huomioon	-9.46665
mų	-9.46681
▁Ko	-9.46721
▁00	-9.46748
▁ra	-9.46819
ade	-9.46894
mp	-9.46978
▁teisės	-9.47151
amp	-9.47189
▁Komisijai	-9.47239
▁Regulas	-9.47323
▁ära	-9.47371
▁ennen	-9.47399
▁neuvoston	-9.47433
lä	-9.47442
ft	-9.47502
▁tarp	-9.47509
▁punkta	-9.47527
lta	-9.47573
▁priemonės	-9.47603
ein	-9.47643
▁Treaty	-9.47691
▁000	-9.47726
▁ļoti	-9.47774
▁aid	-9.4786
▁inter	-9.47903
▁čia	-9.47931
▁tuleks	-9.47986
▁aga	-9.47999
15	-9.48067
▁gadījumā	-9.48149
kite	-9.48221
ber	-9.48285
tro	-9.4833
mal	-9.48554
▁darbo	-9.48568
▁kohdan	-9.48637
▁yksi	-9.48726
▁80	-9.48848
▁läbi	-9.48863
mata	-9.48896
▁тебя	-9.4891
▁millega	-9.48932
▁kuten	-9.48964
▁control	-9.48974
▁meidän	-9.49165
5/	-9.49236
ри	-9.49248
▁во	-9.49264
ое	-9.4928
▁möchte	-9.49322
bu	-9.49337
▁korral	-9.4938
▁pirms	-9.4942
EEK	-9.49437
kt	-9.49557
▁authorities	-9.49591
▁ve	-9.49625
kel	-9.49716
▁bin	-9.49851
▁parlamentin	-9.49869
▁jums	-9.49895
tan	-9.49904
sed	-9.49923
▁darbības	-9.49949
ungs	-9.50026
▁plan	-9.50028
ala	-9.50036
▁«	-9.50062
▁alfa	-9.5028
iu	-9.5036
▁pamat	-9.50402
▁jedoch	-9.5044
isi	-9.50447
op	-9.50452
3/	-9.50458
nu	-9.50469
vu	-9.50499
ben	-9.50546
▁reglamentas	-9.50567
▁Europa	-9.5066
ст	-9.50862
yl	-9.50863
▁priemonių	-9.51019
▁mūsų	-9.51022
▁appropriate	-9.51069
▁diesen	-9.51094
ff	-9.51295
fi	-9.5131
▁būt	-9.51458
▁damit	-9.51462
ttu	-9.51466
▁ELi	-9.51772
▁jäsen	-9.51852
▁jooksul	-9.51871
▁‘	-9.51887
▁ihr	-9.51924
▁rules	-9.52002
▁nyt	-9.52122
sion	-9.52165
▁taken	-9.52255
▁Ta	-9.52447
hu	-9.52456
ure	-9.52471
iau	-9.52553
vin	-9.5259
the	-9.52886
▁lepingu	-9.53262
▁ro	-9.53282
tik	-9.53326
vas	-9.53525
▁ajal	-9.53664
▁2013	-9.53711
▁kus	-9.53716
▁90	-9.53767
▁Bericht	-9.53801
umi	-9.53811
▁kuu	-9.53822
▁sama	-9.53933
▁she	-9.53949
▁met	-9.53981
▁atsižvelgdama	-9.53982
▁Li	-9.5408
▁both	-9.5413
▁China	-9.54152
▁genannten	-9.54165
▁bez	-9.54174
isiin	-9.54191
vy	-9.54212
▁eriti	-9.54259
dal	-9.54263
kö	-9.54275
om	-9.54341
▁region	-9.54577
ля	-9.5463
▁services	-9.54808
че	-9.54823
eks	-9.54824
▁”	-9.54887
ым	-9.54888
▁account	-9.54951
kä	-9.55018
gt	-9.55029
▁him	-9.5505
▁Mo	-9.55065
▁2001	-9.55098
▁mūsu	-9.55263
igen	-9.55323
son	-9.55381
▁application	-9.55621
▁provisions	-9.55665
▁means	-9.55666
▁будет	-9.55688
ky	-9.55766
▁ke	-9.55839
ating	-9.5586
taa	-9.55863
▁luo	-9.55944
12	-9.56097
▁Ha	-9.56122
▁lähe	-9.56182
▁työ	-9.56225
ан	-9.56231
▁Oh	-9.56314
▁Agreement	-9.56374
▁kuras	-9.56407
▁eivät	-9.56454
īna	-9.56591
stu	-9.56628
▁possible	-9.56647
▁/	-9.56684
▁tule	-9.56692
▁viena	-9.56712
▁said	-9.5678
▁2014	-9.57001
▁riski	-9.57012
ov	-9.57141
uoja	-9.57304
▁respect	-9.57323
01	-9.57358
▁non	-9.57367
▁Unternehmen	-9.57418
ок	-9.57477
▁narių	-9.57479
▁denen	-9.57515
▁relevant	-9.57541
▁We	-9.57666
nyt	-9.5767
▁IV	-9.57671
vis	-9.57743
tega	-9.57836
▁während	-9.57841
ий	-9.57857
ori	-9.58002
▁&	-9.58087
za	-9.58142
▁li	-9.58146
šanai	-9.58165
ach	-9.58175
är	-9.58214
▁subject	-9.58223
▁common	-9.58227
▁x	-9.58265
ous	-9.58324
▁tiesību	-9.58355
▁tagasi	-9.58443
▁Arvoisa	-9.58456
▁Zeit	-9.58478
▁Art	-9.58503
▁valstybių	-9.58631
▁dis	-9.58633
▁gal	-9.58642
tion	-9.58682
uksen	-9.58755
miseksi	-9.58843
▁concerned	-9.58852
▁third	-9.58862
fen	-9.58864
▁test	-9.58975
ium	-9.59038
▁attiecas	-9.59047
▁Мы	-9.59071
▁Entscheidung	-9.59077
inį	-9.59087
ėjo	-9.59135
▁Parlaments	-9.59147
▁date	-9.59179
vate	-9.59188
▁uns	-9.59202
▁think	-9.59273
▁otsuse	-9.59296
atsiooni	-9.59299
misel	-9.59314
tada	-9.59337
sel	-9.59384
▁määrus	-9.59396
ak	-9.59416
oji	-9.59463
▁Он	-9.59483
▁siekiant	-9.59493
▁(1	-9.59598
▁Ro	-9.59627
▁1999	-9.59741
▁kontrolli	-9.59757
▁seine	-9.5977
▁būs	-9.59844
▁пере	-9.59875
▁kartu	-9.59877
ajā	-9.59969
▁dose	-9.59972
▁tulee	-9.60037
ро	-9.60104
он	-9.60126
▁2012	-9.60172
▁daug	-9.6025
▁dann	-9.60268
▁bi	-9.60286
▁(3)	-9.60288
pan	-9.60318
/2	-9.6042
llinen	-9.6047
dus	-9.60533
▁esitatud	-9.60557
ust	-9.60771
▁form	-9.60792
form	-9.60826
▁daher	-9.60834
ken	-9.60888
▁jää	-9.6091
usta	-9.60921
▁Val	-9.60983
▁sub	-9.6117
āk	-9.61177
isia	-9.61251
▁Informationen	-9.61401
за	-9.61422
▁Нет	-9.61447
▁ala	-9.61512
▁given	-9.6152
▁esi	-9.61584
mit	-9.61651
▁special	-9.61714
▁[1],	-9.61741
ator	-9.61823
āciju	-9.61864
ре	-9.61873
itä	-9.61878
▁35	-9.61973
hen	-9.61993
▁long	-9.62044
▁oleks	-9.62114
oksi	-9.62133
▁hyvin	-9.62162
▁provide	-9.62184
▁hi	-9.62191
▁raha	-9.62205
▁auto	-9.62265
▁vii	-9.62317
▁tämä	-9.62331
▁puhemies	-9.62378
▁aja	-9.6241
▁y	-9.62562
▁На	-9.62577
vel	-9.6258
▁nekā	-9.62628
▁pantu	-9.62631
▁requirements	-9.62641
▁Lo	-9.62644
chen	-9.62679
▁šis	-9.62721
▁ainult	-9.62782
▁daß	-9.62805
▁Teil	-9.62805
▁maa	-9.6288
▁tra	-9.6295
oti	-9.63001
▁saada	-9.63154
rit	-9.63187
40	-9.63262
▁они	-9.63326
▁van	-9.6342
▁liikmesriikide	-9.63443
sp	-9.63488
her	-9.63497
▁come	-9.635
▁At	-9.63553
teen	-9.63557
ame	-9.63606
▁было	-9.6362
▁erityisesti	-9.63642
ва	-9.63642
▁sel	-9.63679
▁Regulu	-9.63681
das	-9.63688
▁law	-9.63766
▁Europäische	-9.63844
▁neid	-9.63848
keit	-9.63868
ska	-9.63926
▁šiuo	-9.63976
▁alusel	-9.6398
ная	-9.64028
▁visas	-9.64107
vēr	-9.6412
▁metų	-9.6417
▁It	-9.64175
▁basis	-9.64235
hr	-9.6427
▁visų	-9.64305
▁Un	-9.64305
▁Вы	-9.64306
kaa	-9.64325
los	-9.64425
aat	-9.64492
▁Da	-9.64657
kar	-9.64743
ēm	-9.64904
par	-9.64947
▁Todėl	-9.64958
1/	-9.64973
▁nimi	-9.65004
ļ	-9.65112
их	-9.65203
▁Š	-9.65352
▁jonka	-9.65361
▁dalį	-9.65411
▁Nations	-9.65437
▁zwei	-9.65474
▁savu	-9.65523
▁available	-9.6553
▁muuta	-9.6569
▁П	-9.6573
▁global	-9.65813
▁situation	-9.65838
▁dalis	-9.65939
via	-9.65948
▁Po	-9.66009
▁Daten	-9.66077
ude	-9.66166
zin	-9.66176
▁teha	-9.66222
▁regula	-9.66262
▁meine	-9.66312
ijas	-9.66314
▁Präsident	-9.66327
▁gibt	-9.66352
▁political	-9.66378
▁того	-9.6647
▁mal	-9.66507
kl	-9.6661
▁может	-9.6667
iset	-9.6672
jot	-9.66738
ian	-9.66775
▁specific	-9.66877
▁pois	-9.66941
▁Durchführung	-9.67025
▁reform	-9.67051
▁sellest	-9.67168
ep	-9.67171
▁ger	-9.67255
▁since	-9.67281
▁kuris	-9.67319
▁gar	-9.67323
▁kol	-9.67416
▁aikana	-9.67427
▁varētu	-9.6744
▁back	-9.67507
kki	-9.67598
ться	-9.67669
▁Mar	-9.67692
▁kohaselt	-9.67698
▁osalta	-9.67819
14	-9.67875
▁Šī	-9.67963
kan	-9.68043
▁dalībvalstis	-9.68086
dien	-9.68148
вер	-9.68156
▁trade	-9.68196
8/	-9.68281
art	-9.68303
▁šādu	-9.68389
▁Ho	-9.68454
nsa	-9.68461
▁view	-9.68643
▁tea	-9.68664
▁Menschen	-9.68664
lie	-9.68668
▁three	-9.68758
ным	-9.68791
▁tun	-9.68854
con	-9.68894
▁further	-9.68918
С	-9.68994
jos	-9.69036
liche	-9.69124
▁real	-9.69216
▁yli	-9.69411
▁informacija	-9.6943
▁St	-9.69462
aja	-9.69539
▁jaoks	-9.69551
▁energia	-9.69583
▁apply	-9.6959
▁которые	-9.69691
▁different	-9.69772
▁own	-9.69776
▁trans	-9.69816
▁Mittel	-9.69843
▁šį	-9.6985
ute	-9.69916
▁post	-9.69944
liste	-9.70017
▁process	-9.70021
▁organ	-9.70189
rak	-9.70229
▁security	-9.70247
▁riigi	-9.70261
▁izmantot	-9.70265
▁75	-9.7034
ida	-9.70478
▁pil	-9.70485
▁būtina	-9.7055
▁high	-9.70568
▁kasutada	-9.70595
▁joilla	-9.70642
▁2016	-9.7071
heit	-9.70749
īgu	-9.70765
▁'	-9.70797
▁atveju	-9.7082
▁nustatyti	-9.70832
▁tad	-9.70886
▁ohne	-9.70943
teri	-9.71025
▁7.	-9.71035
▁finanšu	-9.71045
ker	-9.71055
ūr	-9.7107
▁kuitenkin	-9.71084
▁Welt	-9.71197
tatud	-9.71276
▁kaasa	-9.71288
▁lietošanas	-9.7129
▁protection	-9.71302
▁wo	-9.71385
▁fact	-9.71391
/4	-9.71407
▁Mitä	-9.71415
see	-9.71486
▁name	-9.71504
▁tar	-9.71509
▁jomā	-9.71527
▁был	-9.71639
ži	-9.7169
que	-9.71693
▁gra	-9.7173
▁tä	-9.71763
▁mitä	-9.71875
sto	-9.71963
ėti	-9.72044
ras	-9.72186
▁Как	-9.722
X	-9.72203
▁Te	-9.72364
▁[3]	-9.72517
▁pi	-9.72542
▁liikmesriigid	-9.72593
āt	-9.72633
▁si	-9.72727
95	-9.72771
ään	-9.72784
▁если	-9.72834
▁mind	-9.72855
ness	-9.72857
му	-9.72891
ved	-9.72973
▁susi	-9.73056
ance	-9.73072
▁immer	-9.73112
▁activities	-9.73163
▁kor	-9.73217
▁spēkā	-9.73267
▁much	-9.73309
13	-9.7337
▁koko	-9.73389
▁wieder	-9.73445
ial	-9.73481
▁veel	-9.73508
▁peaks	-9.73574
▁legal	-9.73587
▁gerai	-9.73619
▁dienā	-9.73672
▁pan	-9.73698
▁võimalik	-9.73739
ūk	-9.73754
▁kooskõlas	-9.73816
▁increase	-9.73874
▁200	-9.73927
▁kuidas	-9.73994
▁sest	-9.74015
▁w	-9.74131
ко	-9.74199
ier	-9.74231
▁decision	-9.74257
gel	-9.743
vyk	-9.74318
▁too	-9.74426
▁implementation	-9.74484
▁kõnealuse	-9.74489
imu	-9.74517
▁Do	-9.74522
han	-9.7453
▁kurā	-9.74544
от	-9.74546
▁still	-9.74648
ор	-9.74651
▁300	-9.74762
▁mo	-9.74798
iems	-9.74815
▁pe	-9.74884
▁Mitgliedstaat	-9.74957
jā	-9.74959
▁production	-9.74981
▁32	-9.75035
pä	-9.75079
/1	-9.75091
▁siin	-9.75114
▁artikla	-9.75162
▁veic	-9.75195
rs	-9.75199
▁give	-9.75312
ris	-9.75376
for	-9.75403
liku	-9.75456
▁However	-9.75467
my	-9.75468
ää	-9.7553
▁jossa	-9.75601
tään	-9.75672
sia	-9.75835
▁why	-9.75879
▁š	-9.75906
▁atbalsta	-9.75957
res	-9.7598
▁net	-9.7599
не	-9.76038
▁Parlamento	-9.76048
▁Recht	-9.76076
▁31.	-9.76113
▁atbilst	-9.76118
▁Jahr	-9.7615
▁International	-9.76151
ph	-9.76172
▁put	-9.76276
kli	-9.7641
18	-9.76423
▁main	-9.76471
nd	-9.76512
▁быть	-9.76635
tor	-9.76652
uri	-9.76674
▁visu	-9.76712
▁saistībā	-9.76733
ать	-9.76759
▁lpp	-9.76773
▁mul	-9.76808
▁Zu	-9.7687
▁alla	-9.76914
▁vuoksi	-9.76961
▁procedure	-9.77012
vaa	-9.77039
ча	-9.77056
▁December	-9.77065
▁free	-9.77073
ang	-9.77082
▁том	-9.77104
▁bio	-9.77213
inę	-9.77272
▁lk	-9.77355
▁Parlamenta	-9.77448
▁võivad	-9.77531
rat	-9.7766
▁doch	-9.77672
miseen	-9.77674
illä	-9.77687
▁veikt	-9.77698
▁cooperation	-9.77699
▁kura	-9.77739
60	-9.77746
▁health	-9.77766
▁samuti	-9.77774
▁šie	-9.77776
▁lu	-9.77807
▁maksu	-9.77869
▁second	-9.77872
▁resolution	-9.77909
▁ihren	-9.77911
▁maksa	-9.77979
▁Parlamendi	-9.77991
▁general	-9.7801
cin	-9.78044
list	-9.78093
▁less	-9.781
▁ru	-9.78158
▁36	-9.78244
lichen	-9.78273
▁pel	-9.78283
▁September	-9.78284
▁Verfahren	-9.78326
▁tätä	-9.78344
com	-9.78456
▁aine	-9.78459
▁So	-9.78512
▁total	-9.78589
▁result	-9.78593
▁aiz	-9.78769
▁kungs	-9.7879
▁когда	-9.78843
▁seoses	-9.78866
isch	-9.78956
▁least	-9.7896
▁33	-9.78969
▁side	-9.7898
if	-9.78998
▁maž	-9.79065
▁otsus	-9.79102
ical	-9.79119
ят	-9.79141
ierung	-9.7924
▁Di	-9.79263
pp	-9.79348
▁folgende	-9.79369
tys	-9.79441
esta	-9.79455
▁lie	-9.79465
▁tirgus	-9.79512
ring	-9.79551
ome	-9.79674
eid	-9.79685
acijos	-9.7971
jām	-9.79756
lus	-9.79845
▁while	-9.79991
umą	-9.80079
▁tri	-9.80105
▁Mu	-9.80125
selt	-9.80157
ināt	-9.80239
▁ottaa	-9.80306
ika	-9.80347
▁нас	-9.80489
2007	-9.80498
aan	-9.80503
▁würde	-9.80611
ение	-9.80686
▁Auf	-9.80692
▁gestützt	-9.80739
kseen	-9.80741
oni	-9.80763
▁Tag	-9.80783
▁Jo	-9.80801
eri	-9.80817
▁soovi	-9.80857
А	-9.80868
Y	-9.80924
ding	-9.80926
▁find	-9.80959
▁life	-9.80976
▁45	-9.81031
21	-9.81037
▁Pri	-9.81092
ca	-9.81103
▁только	-9.81115
▁every	-9.81249
▁eikä	-9.81252
▁jetzt	-9.81289
ny	-9.81293
▁osutatud	-9.81365
▁vaid	-9.81377
▁пред	-9.81469
▁applicable	-9.81525
▁ga	-9.81563
24	-9.81579
▁based	-9.81598
iku	-9.81604
05	-9.81641
▁informāciju	-9.81686
▁μ	-9.8169
▁dokument	-9.81716
▁leid	-9.81742
▁Arzneimittel	-9.81801
sche	-9.8188
▁price	-9.81927
čių	-9.81963
▁kitų	-9.81997
▁whether	-9.82008
▁lõikes	-9.82065
▁jotta	-9.82082
▁teis	-9.82202
▁area	-9.82305
▁General	-9.8231
▁punkti	-9.82316
▁sei	-9.8233
ме	-9.82338
0000	-9.82341
har	-9.82344
▁pielikumā	-9.82357
▁informācija	-9.82413
▁gilt	-9.82458
ль	-9.82572
umas	-9.82578
of	-9.82659
▁užtikrinti	-9.82666
ār	-9.82736
ip	-9.82739
▁hea	-9.82819
▁Markt	-9.82876
▁Ri	-9.82885
▁question	-9.82912
▁children	-9.82952
▁say	-9.82956
▁kä	-9.82989
02	-9.8302
▁Es	-9.83024
▁=	-9.83029
▁teie	-9.83049
▁Mi	-9.83102
ности	-9.83131
▁nors	-9.83252
▁Ni	-9.83258
▁car	-9.83344
che	-9.83382
vor	-9.83383
▁gadā	-9.83385
qui	-9.83401
▁mil	-9.83406
▁gut	-9.83408
▁тебе	-9.8359
ф	-9.83601
▁pirm	-9.83688
ар	-9.83792
▁ravimi	-9.83815
▁aastal	-9.83891
▁37	-9.84002
▁produktų	-9.8406
sime	-9.84077
one	-9.84254
ster	-9.84265
▁unsere	-9.84302
▁прав	-9.84345
▁inform	-9.8435
▁atitinka	-9.84357
iju	-9.84407
▁straipsnyje	-9.84416
▁water	-9.84491
ow	-9.84492
▁2005.	-9.84542
ēju	-9.8463
▁erforderlich	-9.84658
▁tead	-9.84717
▁priede	-9.84742
▁vahel	-9.84761
об	-9.84788
▁tiedot	-9.84818
ard	-9.84837
ised	-9.84871
▁dabar	-9.84932
ava	-9.85004
ok	-9.8503
▁patsientidel	-9.85047
mb	-9.85054
▁look	-9.85064
uk	-9.85086
▁Y	-9.85214
zeit	-9.85232
▁allen	-9.85244
▁rinkos	-9.85337
kse	-9.85433
▁п	-9.85441
nas	-9.8546
uks	-9.85467
▁Bo	-9.85509
▁она	-9.85515
eg	-9.85586
ale	-9.85654
▁maz	-9.85665
mer	-9.85676
ęs	-9.85704
▁ее	-9.85724
▁produktu	-9.858
90	-9.85834
▁Abschnitt	-9.8584
▁juhul	-9.85886
▁women	-9.85915
▁nor	-9.85954
▁established	-9.85958
▁Reglamento	-9.85972
ual	-9.86011
▁concerning	-9.86025
▁время	-9.86027
matu	-9.86058
act	-9.86079
▁piemēro	-9.86105
▁November	-9.86137
▁pantā	-9.86223
▁jäsenvaltioiden	-9.86226
▁Tačiau	-9.86253
rei	-9.86344
▁group	-9.8641
issä	-9.86428
▁möglich	-9.8643
žu	-9.8643
ima	-9.86436
ешь	-9.86459
▁vali	-9.86526
▁dir	-9.86544
▁mõju	-9.86553
mai	-9.86571
eeritud	-9.86573
▁zāļu	-9.86598
▁нет	-9.86673
uli	-9.86676
īgi	-9.86688
ult	-9.86691
▁taking	-9.86747
kau	-9.86777
▁energy	-9.86788
▁Jums	-9.86875
▁34	-9.86962
▁joita	-9.87019
или	-9.87042
▁šių	-9.87055
▁olevan	-9.87093
▁yhteisön	-9.87099
▁Наций	-9.87122
▁believe	-9.8718
dar	-9.87188
▁kolme	-9.87211
▁finants	-9.87257
jumu	-9.87264
▁thereof	-9.87285
▁bank	-9.87327
▁kirja	-9.87329
7/	-9.87351
▁ties	-9.87358
tr	-9.87466
га	-9.8747
▁Land	-9.87488
▁чем	-9.87501
▁Euro	-9.87545
▁innerhalb	-9.87557
ence	-9.876
▁Объединенны	-9.87739
▁võtta	-9.87829
▁palju	-9.87838
▁jį	-9.87866
▁CYP	-9.87934
hd	-9.87946
▁Д	-9.87985
ttävä	-9.87989
wert	-9.88057
▁person	-9.88083
",	-9.88099
ijoje	-9.88102
▁laid	-9.8812
▁change	-9.88128
akt	-9.88183
▁Hi	-9.88253
▁Finanz	-9.88282
▁nevar	-9.88472
▁Tomēr	-9.88624
uta	-9.88649
▁Käesolev	-9.88652
▁selles	-9.88665
▁type	-9.88682
▁vienu	-9.88695
▁ollut	-9.88724
▁Lu	-9.88754
▁2015	-9.88761
inimo	-9.88766
les	-9.88793
ox	-9.88815
hin	-9.8886
▁kohdassa	-9.88883
▁nüüd	-9.8889
▁70	-9.88896
▁более	-9.88919
▁8.	-9.89004
▁hyvä	-9.89006
▁nustatyta	-9.89028
▁opinion	-9.89049
▁48	-9.89132
ES	-9.89133
pl	-9.89151
uch	-9.89169
▁hu	-9.89246
▁välis	-9.89309
▁kuo	-9.89355
pr	-9.89368
▁meil	-9.8938
▁Ru	-9.894
ви	-9.89418
22	-9.89441
ди	-9.89473
ors	-9.89498
▁Г	-9.89511
▁Fall	-9.89516
▁aug	-9.89517
kka	-9.89543
▁amount	-9.89559
80	-9.89584
ēšanas	-9.89623
▁Republic	-9.89693
▁(4)	-9.89695
ное	-9.89705
▁standard	-9.89763
▁toliau	-9.898
ал	-9.89802
▁saab	-9.89819
ron	-9.8984
▁Va	-9.8986
ajām	-9.89868
▁рас	-9.89882
▁Gu	-9.89884
▁käsi	-9.89923
▁programme	-9.89937
tal	-9.90059
din	-9.90098
2008	-9.9012
▁Insulin	-9.90156
ps	-9.90181
maa	-9.90205
ше	-9.9025
▁vartoti	-9.90323
▁zurück	-9.90344
ukset	-9.90394
▁Con	-9.90395
▁dich	-9.90504
▁sillä	-9.90582
▁Frau	-9.90617
▁management	-9.90685
97	-9.90715
ndus	-9.90788
kra	-9.90802
▁Организации	-9.90816
▁lisas	-9.9082
tsi	-9.90823
▁course	-9.90883
ella	-9.90988
▁šī	-9.90996
▁Ke	-9.91003
▁pus	-9.91072
ма	-9.91102
ative	-9.91108
2003	-9.91189
ния	-9.91219
жд	-9.91227
▁Jahren	-9.91229
fin	-9.91287
kla	-9.91289
ο	-9.91303
isesti	-9.9135
0/	-9.91365
uši	-9.9138
▁vienas	-9.9138
pri	-9.91401
98	-9.91415
17	-9.91483
(2)	-9.9151
▁Sicherheit	-9.91525
▁action	-9.91547
▁effects	-9.91574
tö	-9.91632
rid	-9.91725
ūs	-9.91742
▁adopted	-9.91804
kai	-9.91806
▁hänen	-9.91816
jums	-9.91844
▁uusi	-9.91855
▁atsižvelgiant	-9.9189
▁already	-9.91955
▁toks	-9.92055
yje	-9.92117
▁sch	-9.92155
▁Si	-9.92167
▁para	-9.92212
▁viel	-9.92259
▁Ф	-9.92326
wa	-9.92341
▁joiden	-9.92359
kal	-9.92404
▁todėl	-9.92414
▁issue	-9.9247
ются	-9.92475
▁transporto	-9.92483
öö	-9.9255
16	-9.92569
estä	-9.92572
omi	-9.92682
▁yleis	-9.92687
▁kuriem	-9.92787
ņem	-9.92842
▁dalībvalstīm	-9.92866
▁schon	-9.92866
schaft	-9.92886
▁list	-9.92887
▁pasākumi	-9.92967
▁iestādes	-9.92975
kārt	-9.92977
▁ant	-9.93018
rü	-9.93065
ttaa	-9.93078
ние	-9.93134
▁этого	-9.93161
2002	-9.93169
▁waren	-9.93202
▁Fa	-9.93238
▁Kar	-9.93275
▁varten	-9.93357
yb	-9.93358
ин	-9.93434
▁Sp	-9.93443
▁Bank	-9.93509
vers	-9.93565
▁vuoden	-9.93568
(1)	-9.93598
▁April	-9.93607
▁*	-9.9371
ībā	-9.93745
▁nosaka	-9.93761
▁olemme	-9.93812
▁let	-9.93822
ev	-9.93834
siehe	-9.93837
end	-9.93869
▁šalių	-9.93903
▁above	-9.93934
▁present	-9.93965
▁weitere	-9.93969
▁Vertrag	-9.93993
▁pas	-9.94091
35	-9.9412
▁teiste	-9.94141
oitu	-9.9418
▁continue	-9.94273
eja	-9.94303
lised	-9.94309
▁есть	-9.94331
▁kahe	-9.94342
-1	-9.94404
ves	-9.94436
▁Per	-9.9451
▁best	-9.94529
▁enam	-9.94569
▁г	-9.94584
dega	-9.94657
▁sal	-9.94703
▁integr	-9.94717
ellen	-9.94788
aug	-9.948
▁puu	-9.94888
▁tekst	-9.94964
»	-9.94973
port	-9.94979
▁kesk	-9.94989
же	-9.95027
▁kokku	-9.95033
):	-9.95035
▁another	-9.9506
▁tiem	-9.95103
▁today	-9.95155
▁olet	-9.95177
04	-9.9519
▁juba	-9.95194
ere	-9.95206
▁minä	-9.9523
ism	-9.95235
▁2006.	-9.95281
ations	-9.9538
dr	-9.95389
▁done	-9.9545
rin	-9.95515
▁hin	-9.95516
▁vielä	-9.95559
▁2017	-9.95609
kr	-9.95652
▁tell	-9.95656
75	-9.95685
▁39	-9.95741
▁future	-9.95782
03	-9.95852
▁required	-9.95859
▁considered	-9.95866
essa	-9.95885
viet	-9.95891
2000	-9.95893
ect	-9.95917
▁arvo	-9.95926
2005	-9.95996
2013	-9.96005
▁peavad	-9.96085
juma	-9.96168
▁competent	-9.96279
ке	-9.96283
▁стран	-9.96337
▁tyrimų	-9.96444
ду	-9.96452
▁summa	-9.96455
▁kindlaks	-9.96506
▁Pre	-9.96704
▁taikomas	-9.96711
▁got	-9.96737
▁neue	-9.96738
О	-9.96746
tavad	-9.96762
▁nie	-9.96771
ec	-9.96772
по	-9.968
сти	-9.96809
▁lisä	-9.96854
eksi	-9.96918
Е	-9.96967
▁Priekšsēdētāja	-9.97009
inius	-9.97018
▁Har	-9.97035
zer	-9.97044
▁geht	-9.97059
bau	-9.97064
▁[4]	-9.97143
▁sul	-9.97174
▁Grund	-9.97175
▁food	-9.9719
▁service	-9.97245
▁skirti	-9.97301
▁cannot	-9.97313
▁technical	-9.97322
cer	-9.97343
▁regulas	-9.97394
▁effect	-9.97449
▁пре	-9.97483
▁vähemalt	-9.97507
▁°	-9.97578
▁problem	-9.97641
▁dalībvalsts	-9.97654
ali	-9.97663
▁tapa	-9.9769
▁personal	-9.9769
▁riikide	-9.97739
kaan	-9.97782
▁nime	-9.97797
dos	-9.9781
▁darauf	-9.97815
▁1998	-9.9782
▁(2	-9.97855
▁nimel	-9.97869
pat	-9.97871
▁tee	-9.97883
▁dienas	-9.97938
teet	-9.97972
▁Kraft	-9.97979
▁да	-9.97994
▁blood	-9.98071
▁amended	-9.98126
ēja	-9.98131
▁million	-9.98142
▁enter	-9.9818
▁viņa	-9.98248
▁150	-9.98256
▁teise	-9.98258
▁dazu	-9.98272
▁kaitse	-9.98272
tiin	-9.98296
▁duomenų	-9.98307
▁ava	-9.98363
ости	-9.9837
▁pal	-9.98376
▁seiner	-9.98408
▁poli	-9.98439
▁sano	-9.98555
▁ega	-9.98562
▁sil	-9.98592
imus	-9.9866
kään	-9.98664
iją	-9.98666
tamise	-9.98746
▁pirma	-9.98755
šanos	-9.98805
elt	-9.98821
č	-9.98824
▁welche	-9.98845
ogen	-9.98912
▁insuliini	-9.98952
kur	-9.98968
70	-9.98991
▁siihen	-9.98996
▁väli	-9.98996
▁annuse	-9.99031
ņu	-9.99057
▁establishing	-9.99069
ную	-9.99118
kti	-9.99166
▁example	-9.99185
▁Dezember	-9.99212
▁months	-9.99224
▁izmanto	-9.9926
mistä	-9.99289
dama	-9.99294
▁mie	-9.99327
▁500	-9.99328
▁puolesta	-9.99351
ili	-9.99406
▁põhi	-9.99459
▁men	-9.99484
▁sector	-9.9951
▁weiter	-9.99549
ari	-9.99617
▁Schutz	-9.99667
kommen	-9.99708
▁individual	-9.99726
▁midagi	-9.99819
pie	-9.99922
▁pen	-9.99924
▁power	-9.99931
▁põllumajandus	-10.0002
▁rohkem	-10.0007
ability	-10.0007
ini	-10.001
▁citu	-10.0011
▁viņš	-10.0018
▁lietot	-10.0019
▁USA	-10.002
▁Ziel	-10.0022
▁turu	-10.003
▁reference	-10.0035
▁drei	-10.0036
bel	-10.0036
▁kal	-10.0044
▁authority	-10.0045
tika	-10.005
▁Behörden	-10.0051
▁Min	-10.0054
▁2004.	-10.0054
▁bereits	-10.0059
▁vieno	-10.0063
▁kuriems	-10.0069
▁Jah	-10.0069
2014	-10.007
▁access	-10.0072
▁majandus	-10.0074
▁valstu	-10.0074
▁apsaugos	-10.0075
▁regional	-10.0078
nti	-10.0083
▁seit	-10.0084
yt	-10.0086
kku	-10.0086
bri	-10.0087
▁Angaben	-10.0088
▁review	-10.0091
▁Так	-10.0098
▁dalībvalstu	-10.0099
▁kla	-10.01
▁Man	-10.0101
▁määri	-10.0104
▁toime	-10.0104
▁viņu	-10.0104
ines	-10.0106
▁mikä	-10.0107
▁pagalbos	-10.0118
▁tieši	-10.0119
▁edasi	-10.0122
▁piemēram	-10.0127
▁sava	-10.0131
▁agreement	-10.0134
▁Sta	-10.0135
pus	-10.014
▁machen	-10.0144
2010	-10.0149
▁tačiau	-10.015
▁sprendimas	-10.015
▁clear	-10.0155
▁June	-10.0159
▁lisäksi	-10.0162
па	-10.0172
9/	-10.0174
▁days	-10.0175
▁rahoitus	-10.0175
Н	-10.0177
dis	-10.018
▁alles	-10.0184
▁žemės	-10.0185
▁lēmumu	-10.0186
▁ražošanas	-10.0186
ola	-10.019
▁atsi	-10.0191
išk	-10.0195
▁norėčiau	-10.0198
▁weil	-10.0199
nių	-10.0201
ug	-10.0201
dia	-10.0202
▁far	-10.0204
▁position	-10.0204
▁ре	-10.0206
99	-10.0207
▁geändert	-10.0208
eeri	-10.0212
net	-10.0221
/3	-10.0227
rā	-10.0229
▁koskevat	-10.0234
▁sistemos	-10.0235
▁esam	-10.0236
▁pu	-10.0239
▁worden	-10.0239
▁ras	-10.0243
▁kartą	-10.0246
schen	-10.0247
iškai	-10.0254
23	-10.0264
▁value	-10.0268
▁Form	-10.0276
ole	-10.029
ство	-10.0293
▁Unter	-10.0295
ress	-10.03
▁ti	-10.0305
EN	-10.0305
kus	-10.0307
▁sistēmas	-10.0316
▁elu	-10.0317
▁įskaitant	-10.0321
ут	-10.0322
str	-10.0326
▁dafür	-10.0326
▁juhataja	-10.0326
▁Э	-10.0335
▁status	-10.0337
mien	-10.0343
▁Bereich	-10.0348
▁€	-10.0349
▁selbst	-10.0352
ėje	-10.0353
iä	-10.0355
▁ten	-10.0355
osta	-10.0357
▁working	-10.0358
tamine	-10.036
▁heute	-10.0365
šanās	-10.0374
olog	-10.038
▁mmol	-10.0381
▁еще	-10.0382
▁olnud	-10.0389
И	-10.039
uksia	-10.0391
sis	-10.0392
▁fakt	-10.0395
gr	-10.0397
▁turpmāk	-10.0405
▁11.	-10.0407
▁X	-10.0411
▁bitte	-10.0415
▁body	-10.0417
▁Car	-10.0417
▁šią	-10.0421
▁head	-10.0424
▁ihn	-10.043
▁datu	-10.0434
▁тем	-10.044
▁osas	-10.0442
mes	-10.0447
▁könnte	-10.0447
atori	-10.0449
мо	-10.0449
itte	-10.0455
28	-10.0458
▁suur	-10.0458
ļu	-10.046
ravi	-10.0466
▁01	-10.0469
став	-10.0476
PL	-10.0476
eb	-10.0479
ну	-10.0479
▁tava	-10.0481
zo	-10.0482
▁fest	-10.0486
oper	-10.0486
▁koskeva	-10.0489
▁Ku	-10.0491
ги	-10.0492
lai	-10.0492
▁proposal	-10.0494
▁Buchstabe	-10.0497
▁Bezug	-10.0497
▁ūkio	-10.0509
▁cases	-10.0513
▁vara	-10.0513
▁past	-10.0516
á	-10.052
Р	-10.0524
nio	-10.0527
▁safety	-10.0527
▁line	-10.0529
▁9.	-10.053
06	-10.0534
▁land	-10.0535
▁valmis	-10.0535
tatakse	-10.0536
ны	-10.054
2011	-10.0541
ike	-10.0543
▁tehty	-10.0547
▁suun	-10.055
zen	-10.055
▁antaa	-10.0551
lī	-10.0552
▁until	-10.0564
▁ehdot	-10.0565
▁käy	-10.0566
▁As	-10.0571
▁де	-10.0572
▁light	-10.0573
▁tästä	-10.0594
▁visus	-10.0595
▁kuul	-10.0599
sak	-10.0601
31	-10.0601
ltä	-10.0605
▁Risiko	-10.0605
▁Group	-10.0613
▁areas	-10.0615
isku	-10.0623
▁käyttö	-10.0627
▁small	-10.0634
▁bring	-10.0638
▁institucijos	-10.0644
ran	-10.0649
▁näin	-10.065
▁kuna	-10.065
▁termin	-10.0651
▁europäischen	-10.0652
▁according	-10.0652
▁muud	-10.0656
▁great	-10.0657
▁pasākumus	-10.066
tab	-10.0664
▁juos	-10.0664
▁tegevus	-10.0668
▁kõige	-10.0673
▁12.	-10.0674
imui	-10.0675
▁fa	-10.0685
▁käyttää	-10.0686
imi	-10.0687
▁going	-10.0689
mar	-10.069
▁ли	-10.069
dest	-10.0694
▁itse	-10.0696
▁kr	-10.0696
mään	-10.0704
▁Unterstützung	-10.0707
▁priemones	-10.0715
уд	-10.0716
▁iepriekš	-10.0722
dom	-10.0722
iko	-10.0722
▁atbalstu	-10.0723
vasta	-10.0723
▁pacientams	-10.0725
ēs	-10.0727
FR	-10.0727
▁visa	-10.0728
▁знаю	-10.0729
▁kein	-10.0734
▁pitäisi	-10.0737
▁found	-10.0738
▁mazāk	-10.0738
▁soll	-10.0746
▁using	-10.0747
log	-10.0747
α	-10.0749
▁become	-10.0754
▁aufgrund	-10.0755
tavate	-10.0756
OS	-10.0762
▁full	-10.0775
▁teil	-10.0786
▁members	-10.0786
▁pirmininke	-10.0791
oon	-10.0796
▁results	-10.0796
▁veiklos	-10.0799
▁Генеральн	-10.0801
жи	-10.0809
▁business	-10.0812
▁annettu	-10.0824
▁tohi	-10.0824
tais	-10.0827
▁rate	-10.0827
▁insulin	-10.0828
▁Je	-10.0828
▁voivat	-10.083
▁request	-10.0834
▁miten	-10.0839
▁iespējams	-10.0842
tetaan	-10.0842
▁asetus	-10.0843
▁dēļ	-10.0844
▁kurį	-10.0848
▁päeva	-10.0855
esti	-10.0857
tut	-10.086
▁osale	-10.0861
AS	-10.087
▁sicher	-10.0873
▁Arbeit	-10.0874
▁San	-10.0877
▁reglamentą	-10.0879
kir	-10.0881
qu	-10.0881
ность	-10.0881
▁keep	-10.0886
▁>	-10.0887
”.	-10.0889
▁increased	-10.0894
▁section	-10.0895
▁impordi	-10.0896
OL	-10.0901
merk	-10.0902
▁Bürger	-10.0902
*	-10.0903
▁täna	-10.0904
▁Regierung	-10.0906
▁kuulu	-10.0906
▁vald	-10.0907
▁Bestimmungen	-10.0911
tun	-10.0916
▁85	-10.0917
▁больше	-10.0917
▁vi	-10.0918
▁oleva	-10.0925
▁kord	-10.0925
osa	-10.0925
▁viime	-10.0927
▁meetmed	-10.0929
▁15.	-10.093
▁prekybos	-10.093
▁Ca	-10.0944
ase	-10.0944
▁Ihnen	-10.0949
abi	-10.0949
▁HIV	-10.0951
2001	-10.0951
▁einschließlich	-10.0953
lan	-10.0957
93	-10.096
▁gr	-10.0962
▁pateikti	-10.0963
▁pak	-10.0966
stand	-10.0967
▁sta	-10.0967
Д	-10.0968
П	-10.0975
▁Pe	-10.0984
iste	-10.0985
К	-10.0986
▁turime	-10.0986
▁meetmete	-10.0986
▁kohtu	-10.0993
▁1997	-10.0995
▁better	-10.0996
▁Jahre	-10.1003
ord	-10.1004
hl	-10.1004
▁able	-10.1009
▁Bedingungen	-10.1013
▁include	-10.1015
ymo	-10.1016
▁Zusammenarbeit	-10.1016
sh	-10.1019
▁additional	-10.1021
▁oled	-10.1022
ба	-10.1026
▁этом	-10.1027
süsteemi	-10.1028
▁Beschluss	-10.103
▁arengu	-10.1031
essä	-10.1037
▁budget	-10.1039
▁darf	-10.104
▁2020	-10.104
45	-10.1041
▁просто	-10.1041
▁artiklis	-10.1044
▁eelkõige	-10.1048
▁sure	-10.1051
▁sitten	-10.1063
kü	-10.1066
asi	-10.1069
▁alates	-10.1076
▁toiminta	-10.1085
▁56	-10.1087
▁System	-10.1087
▁davon	-10.1091
▁resources	-10.1092
eli	-10.1092
hm	-10.1092
vt	-10.1092
▁Human	-10.1094
▁noteikumus	-10.1095
šanā	-10.1098
▁pur	-10.11
▁были	-10.1101
Re	-10.1104
▁pieņemt	-10.1104
▁hyväksy	-10.1105
tuse	-10.1109
▁Republik	-10.111
▁За	-10.1112
мен	-10.1113
1999	-10.1115
pin	-10.1116
ities	-10.1118
gli	-10.1119
▁neuen	-10.1119
▁kiek	-10.1137
▁уже	-10.114
▁pain	-10.1143
īnu	-10.1145
▁muiden	-10.1145
▁lõik	-10.1145
ве	-10.1149
▁doctor	-10.1149
▁straipsnį	-10.1151
ör	-10.1155
ction	-10.1157
ša	-10.1162
aika	-10.1164
▁element	-10.1169
▁Um	-10.1174
tettu	-10.1175
jiem	-10.1176
kke	-10.1176
.12.	-10.1178
acija	-10.1178
▁state	-10.1179
▁share	-10.1181
▁Wirtschafts	-10.1183
valt	-10.1185
▁play	-10.1187
▁Ну	-10.119
▁Frage	-10.1197
iniu	-10.1198
▁pieņem	-10.1209
▁здесь	-10.1211
tettava	-10.1213
mor	-10.1218
▁ihm	-10.1225
▁Arzt	-10.1225
▁sniegt	-10.1229
kor	-10.1229
▁toodete	-10.123
▁costs	-10.1233
▁January	-10.1233
fall	-10.1234
94	-10.1235
isko	-10.1237
▁peame	-10.1241
▁civil	-10.1243
▁government	-10.1245
▁minēto	-10.1249
▁pass	-10.1251
▁Vorschriften	-10.1254
ef	-10.1255
tuksen	-10.126
▁sopimuksen	-10.1264
utu	-10.1264
aine	-10.1268
pul	-10.1269
из	-10.127
▁loo	-10.1271
▁importo	-10.1276
▁Länder	-10.1276
▁lange	-10.1278
▁tunne	-10.128
lon	-10.1281
▁henkilö	-10.1284
ming	-10.1296
36	-10.1302
arvo	-10.1302
ģi	-10.1304
▁Ltd	-10.1309
▁plasma	-10.1312
ты	-10.1313
spekt	-10.1316
šk	-10.1318
alt	-10.1319
▁Rück	-10.1322
olu	-10.1323
▁sondern	-10.1324
nia	-10.1327
▁mean	-10.1328
▁kop	-10.1331
▁Dosis	-10.1336
чи	-10.1337
де	-10.1341
▁tokia	-10.1347
stellen	-10.1349
▁Mon	-10.135
▁tõ	-10.1352
vil	-10.1362
▁ма	-10.1362
▁drošības	-10.1363
▁interest	-10.1367
▁table	-10.1369
tum	-10.1374
ana	-10.1374
ib	-10.1375
▁liitteessä	-10.1376
▁gadu	-10.138
▁Über	-10.1386
▁44	-10.1387
ally	-10.1393
▁Hei	-10.1395
misesta	-10.1397
▁remiantis	-10.1399
programm	-10.1401
▁87	-10.1404
kit	-10.1407
▁Ga	-10.1415
iski	-10.1415
96	-10.1418
▁Rechts	-10.1419
▁hinna	-10.1419
▁progress	-10.1421
ierte	-10.1437
taja	-10.1439
2009	-10.1439
▁02	-10.1442
▁prices	-10.1446
▁kiekis	-10.1448
gal	-10.1448
▁prevent	-10.1449
▁allow	-10.1458
dami	-10.1458
▁Convention	-10.1461
võt	-10.1462
▁asia	-10.1462
▁once	-10.1466
▁jābūt	-10.147
jan	-10.1471
trauk	-10.1473
▁arvioi	-10.1473
▁nõu	-10.1474
▁effective	-10.1475
lit	-10.1476
▁off	-10.1478
ER	-10.1479
▁dl	-10.1481
▁current	-10.1482
ition	-10.1483
▁65	-10.1484
▁Ti	-10.1485
▁VI	-10.1486
▁air	-10.1488
ojen	-10.1488
▁nurodyta	-10.1488
una	-10.1493
▁vir	-10.1495
▁должны	-10.1497
▁laika	-10.15
▁zusammen	-10.1501
▁führen	-10.1502
нов	-10.1508
▁industry	-10.1513
rus	-10.1521
▁normal	-10.1524
▁partner	-10.1525
mittel	-10.1527
▁valstīm	-10.1529
▁liidu	-10.1537
▁weiß	-10.1541
▁55	-10.1541
▁einige	-10.1544
dele	-10.1548
▁pursuan	-10.155
29	-10.1552
▁Qu	-10.1555
▁oleme	-10.1556
▁priedo	-10.1558
▁šiame	-10.1558
▁mein	-10.156
▁Erzeugnisse	-10.1562
▁Zusammenhang	-10.1564
▁järgi	-10.1567
nčių	-10.1567
07	-10.1571
▁kuriuos	-10.1579
▁eks	-10.1581
▁sagen	-10.1585
▁Änderung	-10.1588
34	-10.159
▁laiku	-10.159
▁ajan	-10.1591
▁suure	-10.1592
ture	-10.1596
▁38	-10.1598
▁manau	-10.1601
isation	-10.1603
▁įtrauk	-10.1604
hy	-10.1609
▁July	-10.1609
▁eelarve	-10.1609
Л	-10.161
teil	-10.1617
▁klar	-10.1619
▁active	-10.162
▁(0)	-10.1621
ios	-10.1622
▁goods	-10.1623
stus	-10.1626
▁field	-10.1626
08	-10.1627
▁Nein	-10.1627
▁treči	-10.1628
▁vismaz	-10.1629
ию	-10.1632
gehen	-10.1633
▁institutions	-10.1633
▁quality	-10.1636
▁tehdä	-10.1637
punkt	-10.1638
▁dieną	-10.1638
▁darüber	-10.1641
▁šā	-10.1641
kohta	-10.1648
▁praegu	-10.1648
▁määrust	-10.1651
dik	-10.1653
▁osallistu	-10.1653
▁seal	-10.1656
▁42	-10.1657
▁kopā	-10.1659
▁perusteella	-10.1662
26	-10.1664
▁vastaan	-10.167
qua	-10.1672
▁And	-10.1674
čiau	-10.1674
▁tehtävä	-10.1674
rah	-10.1678
▁sniedz	-10.1679
In	-10.1679
▁poveikis	-10.1682
▁88	-10.1684
▁tirgū	-10.1688
▁levels	-10.169
▁neat	-10.1692
jat	-10.1693
▁Bu	-10.1696
68	-10.1701
▁studies	-10.1701
▁ser	-10.1707
plan	-10.1707
▁kohaldatakse	-10.1714
▁parties	-10.1715
▁2007.	-10.1716
its	-10.1721
-2	-10.1728
▁imports	-10.1728
▁liit	-10.1729
▁apakšpunktu	-10.173
stellung	-10.1731
.”	-10.1738
▁gruodžio	-10.174
aali	-10.1742
▁export	-10.1743
stab	-10.1746
avo	-10.1747
▁darb	-10.1748
▁Du	-10.1751
▁piemērot	-10.1757
dė	-10.1757
gar	-10.1757
▁pielikuma	-10.176
▁korda	-10.177
bin	-10.1773
92	-10.1774
▁30.	-10.1776
▁sisse	-10.1776
▁kaks	-10.1779
all	-10.1779
darb	-10.178
▁labi	-10.178
▁kutsu	-10.178
▁täytäntöönpano	-10.1784
▁ganz	-10.1788
▁nämä	-10.1796
▁negali	-10.1805
▁Grundlage	-10.1813
▁company	-10.1814
▁2018	-10.1818
▁Vorschlag	-10.1821
▁Если	-10.1826
▁etwas	-10.1828
fo	-10.1829
▁sinu	-10.1831
▁sak	-10.1833
ink	-10.1839
kirja	-10.1839
▁el	-10.184
▁wäre	-10.1841
▁private	-10.1842
▁aihe	-10.1848
steig	-10.1851
▁together	-10.1851
kuu	-10.1854
ją	-10.1855
▁päätös	-10.1856
▁satur	-10.1856
▁atitinkam	-10.1859
▁pl	-10.1861
imai	-10.1863
siooni	-10.1866
▁tuleva	-10.1867
▁May	-10.1872
▁mažiau	-10.1873
▁была	-10.1875
6/	-10.1878
▁darbību	-10.1881
▁Bi	-10.1883
ūt	-10.1891
fl	-10.19
во	-10.1911
IN	-10.1915
▁21.	-10.1918
dz	-10.1921
ij	-10.1922
▁open	-10.1926
nsä	-10.1929
sim	-10.193
▁Pharma	-10.1931
▁1995	-10.1934
▁bzw	-10.1936
ros	-10.1938
▁nedrīkst	-10.1938
▁persons	-10.1939
▁home	-10.1939
▁kohaldatav	-10.1943
▁tirdzniecības	-10.1944
skatīt	-10.1947
▁mat	-10.1949
▁Ba	-10.195
▁Studien	-10.195
▁(5)	-10.1958
▁10.	-10.196
▁code	-10.196
erg	-10.1961
▁pla	-10.1961
▁luba	-10.1969
▁vieną	-10.197
▁oltava	-10.197
ными	-10.1971
arba	-10.1973
ems	-10.1974
cy	-10.1976
▁paredz	-10.1979
ер	-10.1985
udu	-10.199
▁standart	-10.2003
▁teabe	-10.2005
▁growth	-10.2009
ping	-10.201
▁devu	-10.201
1)	-10.2015
ning	-10.2016
▁17.	-10.2017
▁Gesamt	-10.2021
▁ku	-10.2032
En	-10.2039
kis	-10.204
▁vers	-10.204
▁Ste	-10.2041
iksi	-10.2041
bas	-10.2051
▁Government	-10.2052
sent	-10.2055
▁Ei	-10.2056
ак	-10.2057
▁1996	-10.206
▁devas	-10.2061
▁sinä	-10.207
īgā	-10.2073
▁95	-10.2077
koha	-10.2078
▁turva	-10.2079
ieji	-10.2081
▁niitä	-10.2086
▁really	-10.2087
▁next	-10.2089
cija	-10.209
umā	-10.2091
▁Or	-10.2092
▁без	-10.2092
▁liikmesriigi	-10.2093
2)	-10.2096
misega	-10.2096
▁informacijos	-10.2099
▁again	-10.21
вы	-10.2101
▁vuonna	-10.2104
▁liel	-10.2104
▁rad	-10.2106
▁arvestades	-10.2107
rī	-10.2107
▁veik	-10.2121
▁tavo	-10.2127
▁potilailla	-10.2128
▁Brüssel	-10.2129
poliitika	-10.213
▁kurią	-10.213
red	-10.213
vert	-10.2133
kat	-10.2134
mā	-10.2136
▁betreffenden	-10.2145
īs	-10.2146
▁konsult	-10.2148
ible	-10.215
gra	-10.215
▁daļa	-10.215
▁issues	-10.2151
2012	-10.2151
33	-10.2151
politik	-10.2152
aal	-10.2153
▁nesu	-10.2154
pf	-10.2158
▁jūsų	-10.2163
pild	-10.2164
▁М	-10.2168
arbeit	-10.217
▁due	-10.2173
+	-10.2177
▁stabil	-10.2181
čio	-10.2182
▁nodrošinātu	-10.2183
jad	-10.2183
reiz	-10.2184
ote	-10.2194
▁gegenüber	-10.2195
umiem	-10.22
idi	-10.2201
▁vaba	-10.2201
▁Regula	-10.2201
ttiin	-10.2202
▁pitää	-10.2206
▁terms	-10.2207
▁among	-10.2207
▁muude	-10.2209
last	-10.2213
▁2008.	-10.2218
би	-10.222
▁tajā	-10.2228
▁22.	-10.2231
TE	-10.2235
▁mulle	-10.2235
вод	-10.2239
▁koskevan	-10.2239
▁kulu	-10.2241
▁84	-10.2242
▁Gal	-10.2244
eh	-10.2244
▁project	-10.2245
ema	-10.2245
reg	-10.2245
ndi	-10.2247
āla	-10.2251
▁Tāpēc	-10.2255
▁1000	-10.2255
▁США	-10.2255
пу	-10.2258
▁laiko	-10.2264
osi	-10.2266
▁large	-10.2266
▁j	-10.2267
▁Ad	-10.2269
wi	-10.227
▁local	-10.227
gā	-10.2274
ив	-10.2275
▁этой	-10.2277
PT	-10.2283
ств	-10.2284
▁related	-10.2286
▁negalima	-10.2289
▁tax	-10.229
▁experience	-10.2291
▁Stellungnahme	-10.2292
halten	-10.2293
▁natürlich	-10.2298
kre	-10.2299
▁siiski	-10.23
ļa	-10.2301
ert	-10.2302
▁assessment	-10.2304
ите	-10.2305
▁kovo	-10.2307
▁selleks	-10.2311
▁līgumu	-10.2315
▁zuständigen	-10.232
lio	-10.2322
▁administration	-10.2323
▁crisis	-10.2325
lar	-10.2326
ria	-10.2328
▁plat	-10.233
▁tehtud	-10.2334
▁2009.	-10.2336
▁research	-10.2337
▁instrument	-10.2339
ому	-10.234
▁43	-10.2346
▁padid	-10.2346
▁meeting	-10.2347
jai	-10.2348
▁ziņojumu	-10.2348
pre	-10.2348
▁dzīvnieku	-10.2351
kro	-10.2352
▁teksti	-10.2354
▁run	-10.2357
ном	-10.2358
▁VII	-10.2362
▁≥	-10.2363
toja	-10.2365
rt	-10.2366
▁Juni	-10.2368
▁directly	-10.2368
▁denn	-10.2369
▁люб	-10.2375
▁noteikumiem	-10.2375
▁kuriuo	-10.2378
46	-10.2379
kkaa	-10.2383
ski	-10.2389
▁женщин	-10.239
▁[2],	-10.239
▁having	-10.2397
rg	-10.2398
oc	-10.2401
▁puheenjohtaja	-10.2402
stat	-10.2404
▁iesniegt	-10.2407
enden	-10.2409
▁emme	-10.2411
▁Ju	-10.2414
▁annos	-10.2417
47	-10.2419
ool	-10.2419
▁ees	-10.242
▁companies	-10.242
▁13.	-10.2421
27	-10.2423
▁Her	-10.2435
olo	-10.2438
tty	-10.2439
av	-10.2439
▁France	-10.2443
▁address	-10.2444
zes	-10.2448
лись	-10.2452
▁role	-10.2453
cu	-10.2453
ivat	-10.2459
▁400	-10.246
▁informaciją	-10.2466
avimas	-10.2469
▁minun	-10.2472
laik	-10.2474
▁ettepaneku	-10.2478
▁problems	-10.2478
▁Iran	-10.2481
own	-10.2487
āja	-10.2487
but	-10.2488
▁мо	-10.249
vus	-10.2493
▁является	-10.2495
▁paljon	-10.2497
▁сам	-10.2498
aatti	-10.2499
▁October	-10.25
ani	-10.2511
yk	-10.2511
ēl	-10.2516
▁sektori	-10.2517
▁New	-10.2518
aalse	-10.2522
▁Ent	-10.2524
rate	-10.2526
ata	-10.2527
▁hast	-10.2528
▁sü	-10.253
▁visiem	-10.2533
▁mon	-10.2539
iams	-10.2542
▁viele	-10.2543
бо	-10.2544
▁aspekt	-10.2545
▁VIII	-10.2545
▁vote	-10.2545
ācija	-10.2547
▁framework	-10.2549
ah	-10.255
lau	-10.2556
▁mikro	-10.2557
ев	-10.2558
▁16.	-10.2563
▁Waren	-10.2564
▁einmal	-10.2564
▁something	-10.2564
ierten	-10.2565
▁puhu	-10.2569
▁papildu	-10.2577
töö	-10.2578
▁kelia	-10.2578
ajai	-10.258
ET	-10.2586
▁pati	-10.259
xi	-10.2591
iseen	-10.2591
тер	-10.2593
rie	-10.2594
skai	-10.2594
▁kommen	-10.2596
▁terve	-10.2597
▁komiteto	-10.2599
▁El	-10.2602
.1.	-10.2604
▁veido	-10.2605
▁carried	-10.2607
▁taču	-10.2608
▁Th	-10.2613
▁Energie	-10.2613
▁My	-10.2614
▁кто	-10.2615
alan	-10.2625
▁solution	-10.2625
▁injection	-10.2626
▁aktu	-10.2627
▁nebuvo	-10.2627
.6.	-10.2628
▁vietā	-10.2633
▁tällä	-10.2633
▁gadījumos	-10.2633
▁käyttöön	-10.2635
▁nun	-10.2636
lah	-10.2639
▁uue	-10.264
put	-10.2641
▁ur	-10.2643
▁kita	-10.2646
▁Tu	-10.2647
2006	-10.2647
▁hand	-10.2651
▁CO	-10.2654
▁systems	-10.2656
nai	-10.2659
▁всех	-10.2661
ос	-10.2662
▁je	-10.2664
tre	-10.2665
▁consider	-10.2673
vara	-10.2678
ту	-10.268
▁täällä	-10.2683
ena	-10.2692
▁tiesības	-10.2693
▁weight	-10.2696
rod	-10.2699
ат	-10.2707
65	-10.2707
▁wichtig	-10.2709
īga	-10.271
tila	-10.271
тор	-10.2711
▁Der	-10.2713
▁kaksi	-10.2716
ick	-10.2716
▁str	-10.2719
ыми	-10.272
▁tähän	-10.2728
▁vieš	-10.2729
eva	-10.2731
▁start	-10.2731
▁viet	-10.2733
▁Inter	-10.2736
▁Mal	-10.2736
▁thank	-10.2737
▁toeta	-10.274
▁erhalten	-10.2747
▁sellele	-10.2748
▁muita	-10.2748
lut	-10.2749
▁vee	-10.275
▁Kosten	-10.275
°	-10.2753
nos	-10.2754
iti	-10.2757
yyli	-10.2759
2004	-10.2759
▁perus	-10.2762
▁maks	-10.2762
▁eesmärk	-10.2768
nik	-10.2769
ētu	-10.2769
▁lassen	-10.2771
▁Yeah	-10.2771
hän	-10.2773
▁вас	-10.2776
.1	-10.2777
ür	-10.278
зи	-10.2782
▁natural	-10.2788
▁sisä	-10.2789
си	-10.2795
▁Namen	-10.2798
▁UN	-10.2801
itse	-10.2803
▁relating	-10.2806
▁vähintään	-10.2807
▁epä	-10.2809
▁naudoti	-10.2809
pil	-10.2811
▁mar	-10.2811
norm	-10.2811
▁Она	-10.2814
kš	-10.2815
▁mitme	-10.2815
▁erittäin	-10.2819
gon	-10.2819
▁susijusi	-10.2819
09	-10.282
īns	-10.282
▁katso	-10.2824
▁ко	-10.2824
▁single	-10.2825
▁kautta	-10.2826
▁procedures	-10.2829
▁direktiivin	-10.2831
gl	-10.2832
▁hope	-10.2834
▁ulko	-10.2834
▁norm	-10.2835
▁kolm	-10.284
PA	-10.2844
▁piešķirt	-10.2844
our	-10.2846
▁20.	-10.2846
55	-10.2846
/5	-10.2849
halt	-10.2861
прав	-10.2861
▁14.	-10.2864
▁ange	-10.2866
▁yhteis	-10.2867
produkt	-10.2868
▁submitted	-10.2872
ität	-10.2875
king	-10.2875
▁Journal	-10.2875
nie	-10.2875
cher	-10.2877
ries	-10.2879
▁arvu	-10.2881
▁д	-10.2884
▁prosenttia	-10.2888
ral	-10.2893
▁Bar	-10.2895
▁vaikka	-10.2896
▁esmu	-10.2897
▁Whereas	-10.29
▁Ki	-10.29
▁guarantee	-10.2902
▁sistema	-10.2902
▁kodu	-10.2904
▁weniger	-10.2914
▁abge	-10.2916
▁47	-10.292
32	-10.292
▁citizens	-10.292
▁For	-10.2921
kord	-10.2921
▁jota	-10.2922
uz	-10.2922
▁taas	-10.2925
39	-10.2931
▁Juli	-10.2936
▁might	-10.2942
▁jog	-10.2945
▁Direktīvas	-10.2949
ник	-10.2951
▁46	-10.2952
▁aeg	-10.2956
лся	-10.2958
▁siinä	-10.2962
▁są	-10.2963
▁priekš	-10.2964
laid	-10.2969
49	-10.2969
pen	-10.2976
▁kasuta	-10.2976
▁Minister	-10.2985
▁kom	-10.2987
▁Lage	-10.2988
▁между	-10.299
▁kyse	-10.2992
ngu	-10.2995
▁29.	-10.2997
▁tulo	-10.2997
▁Tur	-10.2997
▁darbu	-10.2999
▁Dr	-10.3001
жа	-10.3001
like	-10.3001
▁Am	-10.3004
ι	-10.3006
▁show	-10.3007
▁short	-10.3008
▁draft	-10.3009
▁serious	-10.3015
▁ela	-10.3016
▁galėtų	-10.3019
▁dozę	-10.3019
▁žmogaus	-10.3028
▁jaun	-10.303
▁jät	-10.3033
gul	-10.3034
▁dzīv	-10.3034
uc	-10.3035
▁content	-10.3035
▁Ap	-10.3039
määrä	-10.3039
▁visos	-10.304
▁Tri	-10.3043
enz	-10.3044
ions	-10.3044
maksu	-10.3045
▁ühis	-10.3047
recht	-10.3049
trag	-10.305
▁comp	-10.3056
ėms	-10.3056
▁noteikumi	-10.3061
▁nozīmē	-10.3061
▁jolla	-10.3062
cal	-10.3068
system	-10.307
▁tootja	-10.307
vid	-10.3075
▁andmed	-10.3076
▁veidā	-10.3078
pra	-10.3081
▁sc	-10.3081
▁durchgeführt	-10.3083
▁please	-10.3083
▁srityje	-10.3084
kg	-10.3086
ots	-10.3086
▁1994	-10.3089
▁nationalen	-10.3089
▁port	-10.3093
▁kil	-10.3095
ства	-10.3097
71	-10.3099
▁har	-10.3101
▁jeder	-10.3112
▁oluline	-10.3113
skat	-10.3113
▁mag	-10.3118
▁however	-10.3121
▁politikos	-10.3125
▁clinical	-10.3127
▁pay	-10.3131
▁yet	-10.3136
icht	-10.3138
▁mas	-10.314
▁gydymo	-10.3141
tama	-10.3144
▁AUC	-10.3147
ще	-10.3154
▁beim	-10.3161
▁м	-10.3163
iger	-10.3166
▁hoida	-10.3169
▁Verwendung	-10.3169
med	-10.3169
▁stat	-10.3173
▁41	-10.3175
dem	-10.3178
asis	-10.3184
rk	-10.3185
iam	-10.3188
сть	-10.3188
▁Official	-10.319
▁kahju	-10.319
tävä	-10.3191
▁komitejas	-10.3192
▁informācijas	-10.3193
uti	-10.3193
istu	-10.3195
▁Staaten	-10.3196
don	-10.3196
▁ни	-10.3197
PS	-10.3197
▁needs	-10.3205
AC	-10.3214
▁old	-10.3217
▁pacientų	-10.3218
▁God	-10.3218
▁tādu	-10.3218
▁major	-10.3219
▁enthalten	-10.3219
cel	-10.3219
48	-10.322
gy	-10.3221
▁modern	-10.3223
44	-10.3229
ful	-10.3233
▁tuli	-10.3235
zahl	-10.3237
1,	-10.3239
▁koostöö	-10.3243
▁sellega	-10.3243
▁kl	-10.3246
ilta	-10.3246
ule	-10.3248
▁dabei	-10.3249
▁laske	-10.3252
▁Personen	-10.3253
▁(3	-10.3254
▁aizsardzības	-10.3255
▁kelle	-10.3256
▁particularly	-10.3261
▁aller	-10.3262
▁raske	-10.3269
serv	-10.327
▁taga	-10.3275
▁bestimmte	-10.3289
▁Auswirkungen	-10.3291
▁mitään	-10.3299
▁Beihilfe	-10.3301
mia	-10.3302
▁joissa	-10.3303
▁Hey	-10.3303
dic	-10.3303
▁positive	-10.3305
▁always	-10.3311
▁reikalavimus	-10.3312
Be	-10.3312
▁March	-10.3313
▁49	-10.3315
▁dalībvalstīs	-10.3318
▁Kinder	-10.3321
ted	-10.3322
▁izmantojot	-10.3326
pää	-10.3329
▁origin	-10.3334
▁yhteydessä	-10.3335
len	-10.3341
vē	-10.3341
oista	-10.3342
▁sai	-10.3342
▁standards	-10.3342
ша	-10.3344
▁site	-10.3347
▁kasvu	-10.3351
jų	-10.3358
▁keskkonna	-10.3359
сто	-10.336
▁įgyvendinimo	-10.3361
▁kasutamise	-10.3361
▁never	-10.3363
▁hä	-10.3365
lap	-10.3366
▁ersten	-10.3367
een	-10.3368
▁See	-10.337
▁lõ	-10.3372
▁ilg	-10.3375
▁neturi	-10.3376
▁dürfen	-10.3376
▁addition	-10.3376
▁oro	-10.3377
дел	-10.3377
lė	-10.3379
▁sisaldab	-10.3382
▁zem	-10.3384
▁monitoring	-10.3384
▁toidu	-10.3387
▁few	-10.3389
Т	-10.3393
ца	-10.3394
▁maximum	-10.3401
ministr	-10.3402
sul	-10.3407
▁care	-10.3407
āli	-10.3407
ellä	-10.3408
▁proc	-10.3408
▁mindestens	-10.341
bil	-10.3411
by	-10.3413
ß	-10.3418
oh	-10.3418
▁Pi	-10.3419
▁arvatud	-10.3419
87	-10.3419
ende	-10.3422
▁näi	-10.3432
gg	-10.3432
▁Programm	-10.3434
▁pul	-10.3434
▁всё	-10.3435
▁году	-10.3438
▁Ländern	-10.3438
▁legislation	-10.3439
▁Tādēļ	-10.344
▁kurio	-10.3441
▁text	-10.3442
▁little	-10.3442
ants	-10.3447
▁nodrošināt	-10.3451
▁study	-10.3452
▁нам	-10.3458
▁purposes	-10.346
utus	-10.3462
▁elektri	-10.3465
▁lin	-10.3466
▁pidä	-10.3467
▁gauti	-10.347
▁bar	-10.3484
▁näiteks	-10.3485
ėk	-10.3486
▁Umwelt	-10.3488
▁vajalik	-10.349
хо	-10.3497
▁sistēmu	-10.3497
▁assistance	-10.3501
damas	-10.3502
weg	-10.3504
nta	-10.3505
▁nähtud	-10.3505
tää	-10.3506
▁minut	-10.3506
ilu	-10.3508
▁человека	-10.351
▁replaced	-10.351
▁menettely	-10.351
iausi	-10.3511
▁ühise	-10.3517
▁dr	-10.352
▁read	-10.3521
eta	-10.3525
▁olid	-10.3525
▁Programme	-10.3526
▁kasutatakse	-10.3528
oder	-10.3528
isuus	-10.353
▁placebo	-10.353
▁festgelegt	-10.3532
са	-10.3534
▁significant	-10.3536
ket	-10.354
malla	-10.3541
▁Nebenwirkungen	-10.3541
▁merkit	-10.3542
▁Antrag	-10.3545
▁impact	-10.3546
org	-10.3547
▁Euratom	-10.3551
isin	-10.3554
▁poveikio	-10.3557
▁ven	-10.3561
▁Lösung	-10.3563
▁film	-10.3564
tru	-10.3564
▁matter	-10.3565
▁kum	-10.3567
▁oikeus	-10.3572
▁low	-10.3573
▁dec	-10.3573
▁stehen	-10.3574
7.	-10.3574
▁labāk	-10.3576
”,	-10.3579
ice	-10.358
▁kind	-10.3581
ё	-10.3584
▁aina	-10.3585
ков	-10.3586
▁gleich	-10.3586
oto	-10.3587
▁either	-10.3588
▁punkte	-10.359
▁saanud	-10.3599
▁keskustelu	-10.3605
▁animal	-10.3606
▁jautājumu	-10.3606
suse	-10.3608
bra	-10.3608
▁ją	-10.3609
det	-10.361
ano	-10.3611
▁div	-10.3611
▁pamatojoties	-10.3611
▁uh	-10.3612
▁veiksmų	-10.3615
ight	-10.3618
īn	-10.3618
ум	-10.3619
▁vietos	-10.362
tettävä	-10.3621
▁gemeinsame	-10.3621
▁друг	-10.3621
čiai	-10.3622
▁Steuer	-10.3623
▁Eesti	-10.3629
▁toote	-10.3631
lisi	-10.3632
▁ask	-10.3636
▁EEA	-10.3637
▁Internet	-10.3638
▁määra	-10.3639
▁potential	-10.364
tag	-10.3642
ish	-10.3643
▁whole	-10.3644
▁OV	-10.3644
▁rat	-10.3645
▁laisv	-10.3645
cken	-10.3645
rant	-10.3645
▁tutki	-10.3645
.3.	-10.3646
▁genau	-10.3646
less	-10.3647
▁Ž	-10.3649
▁Ex	-10.3651
▁tutkimus	-10.3651
spir	-10.3652
▁pala	-10.3653
jau	-10.3653
IS	-10.3658
▁enthält	-10.366
2-	-10.366
▁antud	-10.3663
▁ilmoit	-10.3668
▁age	-10.3671
▁лет	-10.3671
▁Pu	-10.3675
▁fi	-10.3677
2,	-10.368
37	-10.368
ign	-10.3683
ee	-10.3687
▁vidaus	-10.3689
▁model	-10.3689
▁punktis	-10.369
päivä	-10.3693
▁[...]	-10.3694
▁Blut	-10.3695
▁б	-10.3699
▁mani	-10.3699
▁around	-10.3702
dra	-10.3702
▁tõttu	-10.3702
%	-10.3708
▁кон	-10.3708
▁act	-10.3709
▁23.	-10.3709
▁Kal	-10.3716
▁letzten	-10.3716
ura	-10.3719
▁vere	-10.372
ruf	-10.3723
▁katse	-10.3723
▁sealhulgas	-10.3724
▁lot	-10.3731
▁vartojimo	-10.3735
▁Они	-10.3735
▁prasības	-10.3739
род	-10.374
дер	-10.374
▁пол	-10.374
▁besteht	-10.3741
▁War	-10.3742
▁ettenähtud	-10.3743
▁pakendi	-10.3743
▁cent	-10.3745
▁64	-10.3745
bei	-10.375
ized	-10.3753
▁tagada	-10.3758
▁material	-10.3761
▁milles	-10.3766
▁sveikatos	-10.3767
▁suma	-10.3767
▁money	-10.377
amas	-10.3771
ąją	-10.3773
▁kitos	-10.3775
▁cause	-10.3775
rang	-10.3777
žo	-10.3781
▁Nummer	-10.3782
▁Taryba	-10.3787
seks	-10.3789
▁katra	-10.3791
ijā	-10.3795
▁zāles	-10.3795
▁received	-10.3796
▁Frauen	-10.3797
▁noteikt	-10.3797
ком	-10.38
▁komitee	-10.3801
▁peruste	-10.3802
▁approach	-10.3802
▁maisto	-10.3804
auf	-10.3807
uv	-10.3809
imme	-10.3809
ica	-10.3816
▁kasva	-10.3816
īgs	-10.3816
▁gyven	-10.3817
▁Т	-10.3817
▁paš	-10.3818
▁pakalpojumu	-10.382
стр	-10.3822
▁näiden	-10.3823
pit	-10.3823
▁Neu	-10.3824
dev	-10.3826
▁August	-10.3827
vok	-10.3827
▁similar	-10.3828
▁numatyta	-10.3828
uus	-10.3831
▁atbild	-10.3832
▁tah	-10.3832
iant	-10.3832
лен	-10.3832
eik	-10.3834
66	-10.3834
tam	-10.3835
▁Problem	-10.384
▁training	-10.384
▁capacity	-10.3842
āta	-10.3843
▁capital	-10.3843
▁aktiv	-10.3843
imų	-10.3844
▁document	-10.3844
лю	-10.3846
▁мир	-10.3847
▁который	-10.385
▁tagad	-10.385
▁basic	-10.385
int	-10.3851
▁Hersteller	-10.3852
▁reikėtų	-10.3853
▁Prüfung	-10.3856
tom	-10.3858
итель	-10.3859
▁jūsu	-10.3861
▁veselības	-10.3862
▁sellise	-10.3863
▁bendrijos	-10.3863
▁Fe	-10.3865
nčios	-10.3869
▁stipr	-10.387
čia	-10.3871
▁tieto	-10.3871
▁Auto	-10.3871
▁kel	-10.3872
▁sõna	-10.3873
▁All	-10.3877
▁1).	-10.3882
kun	-10.3883
▁juuni	-10.3887
kam	-10.3889
▁kõrge	-10.3892
▁Tre	-10.3895
tek	-10.3895
▁investment	-10.3899
▁tvarka	-10.3902
kava	-10.3903
▁response	-10.3904
▁saistības	-10.3907
▁hatte	-10.3914
▁tärkeää	-10.3916
▁Мне	-10.3917
▁Commissioner	-10.3917
llisesti	-10.3921
▁cm	-10.3924
toimi	-10.3927
▁Portugal	-10.3928
▁hoito	-10.3928
vė	-10.3929
▁einfach	-10.393
▁mane	-10.3933
▁daļu	-10.3936
kā	-10.3937
term	-10.3937
ula	-10.3937
▁Mai	-10.3938
▁18.	-10.3938
▁Tar	-10.394
▁54	-10.394
69	-10.394
ykl	-10.394
jate	-10.3941
tīv	-10.3942
▁gelten	-10.3943
▁hinsichtlich	-10.3945
▁credit	-10.3945
lim	-10.3946
▁wirklich	-10.3955
▁jedem	-10.3958
пер	-10.396
▁98	-10.3962
▁lisää	-10.3967
▁käi	-10.397
out	-10.397
▁esine	-10.3972
иться	-10.3973
▁[5]	-10.3975
tia	-10.3978
▁При	-10.398
▁reik	-10.3984
▁cost	-10.3987
▁käytetään	-10.3992
aatio	-10.3994
▁trīs	-10.3995
В	-10.3998
▁ident	-10.3998
▁Wettbewerb	-10.4001
ward	-10.4004
ato	-10.4006
▁procedūras	-10.4007
▁Wa	-10.4008
▁energijos	-10.4009
anti	-10.401
jää	-10.4011
itāti	-10.4016
▁ettei	-10.4017
▁после	-10.4019
▁19.	-10.4023
▁equipment	-10.4024
tės	-10.4025
sopimuksen	-10.4026
сс	-10.4027
▁call	-10.4031
▁määrusega	-10.4035
nus	-10.4036
hal	-10.4037
seid	-10.4039
▁viņi	-10.404
▁op	-10.4041
rom	-10.4041
▁atvejais	-10.4041
▁очень	-10.4044
▁ausge	-10.4044
▁grupas	-10.4046
ester	-10.4046
▁Israel	-10.4047
▁debate	-10.405
ich	-10.4051
āju	-10.4051
▁Kopienu	-10.4052
AN	-10.4053
43	-10.4053
▁esimese	-10.4055
▁Vis	-10.4055
institut	-10.4056
▁hoidon	-10.4056
73	-10.4059
▁meet	-10.4063
▁neuvosto	-10.4063
iidi	-10.4064
▁sovelletaan	-10.4069
▁nori	-10.4069
▁Nach	-10.407
▁animals	-10.407
▁Plan	-10.4072
General	-10.4072
▁environment	-10.4074
Pa	-10.4075
▁ympäristö	-10.4076
▁muudetakse	-10.4078
▁granted	-10.408
bul	-10.4084
▁häufig	-10.4086
stoff	-10.4087
▁vil	-10.4088
▁peale	-10.4089
▁purpose	-10.4094
▁week	-10.4096
▁programmes	-10.4096
▁publication	-10.4097
▁nepieciešams	-10.4101
▁subjekt	-10.4102
līdz	-10.4104
79	-10.411
▁inimeste	-10.4114
▁enemmän	-10.4115
▁valstybėse	-10.4116
▁transfer	-10.4123
▁kraujo	-10.4123
▁sl	-10.4123
▁You	-10.4123
▁Все	-10.4124
▁kala	-10.4125
▁economy	-10.4127
▁28.	-10.4129
▁Zeitraum	-10.4129
vī	-10.4131
▁entsprechend	-10.4131
▁visiškai	-10.4132
āts	-10.4133
anne	-10.4137
▁lap	-10.4138
▁verwendet	-10.4138
▁direktyva	-10.4138
▁values	-10.4139
▁efforts	-10.4141
top	-10.4143
▁folgenden	-10.4144
▁93	-10.4146
▁sise	-10.4146
▁adopt	-10.4146
▁Genehmigung	-10.415
pol	-10.4151
▁tiedä	-10.4151
▁preparato	-10.4151
▁Im	-10.4151
▁Gemeinschafts	-10.4152
ehn	-10.4157
▁53	-10.4158
(3)	-10.416
▁išskyrus	-10.4165
▁citi	-10.4167
jung	-10.4168
5%	-10.417
liselt	-10.417
itis	-10.4172
itus	-10.4173
▁prior	-10.4174
▁responsible	-10.4176
▁61	-10.4177
are	-10.4182
▁politikas	-10.4186
▁environmental	-10.4186
▁tikrai	-10.4188
▁Geld	-10.4192
▁disease	-10.4192
▁raporti	-10.4192
▁Politik	-10.4193
▁kõigi	-10.4196
▁wollen	-10.4197
OV	-10.4204
ек	-10.4205
hti	-10.4206
▁Seetõttu	-10.4207
▁groups	-10.4209
▁valstybė	-10.4209
satz	-10.4209
▁kilmės	-10.4209
ppi	-10.4211
sü	-10.4211
▁That	-10.4211
▁contract	-10.4212
▁gleichzeitig	-10.4213
▁deva	-10.4215
lose	-10.4217
▁1990	-10.4218
41	-10.4218
▁kaudu	-10.4223
▁ihnen	-10.4227
ис	-10.4227
press	-10.4236
▁sur	-10.4238
▁Hu	-10.4241
▁51	-10.4241
uda	-10.4244
▁Jā	-10.4247
▁fe	-10.4249
▁üld	-10.4251
▁unmittelbar	-10.4251
▁ci	-10.4257
▁citiem	-10.4264
kot	-10.4266
liek	-10.4266
▁lauk	-10.4269
▁kalba	-10.4269
▁uzskata	-10.427
▁range	-10.427
▁Į	-10.427
▁им	-10.4271
▁approved	-10.4271
▁От	-10.4273
▁TV	-10.4273
▁vuosi	-10.4274
▁radio	-10.4274
ц	-10.4275
▁ilman	-10.4275
▁term	-10.4275
▁väi	-10.4276
▁vähenda	-10.4276
mok	-10.4276
▁cit	-10.4279
▁tatsächlich	-10.428
azol	-10.428
▁internal	-10.4282
rd	-10.4282
RO	-10.4286
51	-10.4288
▁tip	-10.4288
ksid	-10.4292
hel	-10.4293
▁Ü	-10.4294
/6	-10.4298
stājas	-10.43
ēta	-10.4302
▁gamybos	-10.4305
ybos	-10.4312
▁kii	-10.4314
likku	-10.4317
▁atlikti	-10.4318
лась	-10.4319
ete	-10.4321
taminen	-10.4322
▁erityis	-10.4324
▁Einfuhr	-10.4325
▁tal	-10.4325
▁puses	-10.4326
▁direktyvos	-10.4326
▁области	-10.4327
щ	-10.4328
88	-10.433
▁saattaa	-10.4331
▁West	-10.4332
ībām	-10.4332
▁tuki	-10.4334
▁On	-10.4338
▁Gründe	-10.4347
▁criteria	-10.4347
tetty	-10.4347
▁birželio	-10.4357
aadi	-10.4361
klaus	-10.4361
▁cik	-10.4362
rup	-10.4364
▁vardu	-10.4364
konna	-10.4366
zīm	-10.4367
▁страны	-10.4368
▁vārdā	-10.4368
▁link	-10.4368
▁Nationen	-10.4372
38	-10.4376
▁projekt	-10.4377
▁lauksaimniecība	-10.4377
tori	-10.4382
▁Bedeutung	-10.4383
▁šiem	-10.4383
▁nar	-10.4383
▁бо	-10.4383
▁sudaro	-10.4388
вед	-10.4388
▁Anti	-10.4389
▁Security	-10.4393
siu	-10.4393
registr	-10.4396
▁žmonių	-10.4397
▁makse	-10.4398
▁speciali	-10.4398
ttää	-10.4398
vež	-10.4399
▁sprendimo	-10.44
▁bu	-10.44
▁medžiagos	-10.4402
lat	-10.4404
tavat	-10.4405
▁ABl	-10.4408
▁medžiagų	-10.4413
▁esita	-10.4415
▁session	-10.4416
iskā	-10.4422
igkeit	-10.4423
▁Sinne	-10.4423
▁tööta	-10.4423
▁liikmesriik	-10.4424
▁several	-10.4427
table	-10.4428
▁selliste	-10.443
▁Anforderungen	-10.4433
▁poveikį	-10.4434
ай	-10.4434
ange	-10.4435
▁Ausfuhr	-10.4438
.2.	-10.4438
itu	-10.4439
lang	-10.4443
▁heidän	-10.4445
tust	-10.4452
▁näh	-10.4455
not	-10.4457
päeva	-10.4458
mission	-10.4459
▁tre	-10.4461
▁upon	-10.4462
▁taikoma	-10.4464
pt	-10.4464
бер	-10.4464
▁52	-10.4472
▁mina	-10.4473
elu	-10.4474
▁wissen	-10.4476
▁ка	-10.4478
▁Ch	-10.4478
▁live	-10.448
▁viens	-10.4482
▁kundze	-10.4489
▁Abkommen	-10.449
▁Direktyvos	-10.449
▁lieto	-10.4492
▁oil	-10.4494
▁kiire	-10.4494
ati	-10.4496
▁suuri	-10.4496
=	-10.4497
▁taotluse	-10.4498
М	-10.4498
cil	-10.4499
▁Tra	-10.4504
lage	-10.4504
ėjimo	-10.4505
▁развития	-10.4511
▁kuva	-10.4511
vēl	-10.4512
▁vier	-10.4514
▁moment	-10.452
üül	-10.452
▁bendr	-10.4525
mpi	-10.4529
tern	-10.4535
▁deal	-10.4535
▁tiesiogiai	-10.4536
▁laikyti	-10.4545
▁alg	-10.4546
kšt	-10.4548
▁Arbeits	-10.4551
▁solche	-10.4554
odi	-10.4554
yv	-10.4554
▁Court	-10.4554
▁mere	-10.4555
▁narė	-10.4556
▁vaikut	-10.4559
▁tila	-10.4559
▁las	-10.456
▁alus	-10.456
▁eba	-10.4561
ству	-10.4563
▁jõu	-10.4565
▁tostarp	-10.4566
▁Region	-10.4566
varto	-10.4568
▁Mit	-10.457
ustatud	-10.4576
tusta	-10.4578
▁ca	-10.4578
▁päätöksen	-10.4579
iš	-10.4586
▁izcelsmes	-10.4587
▁maailma	-10.4587
ona	-10.4587
▁entry	-10.4588
▁reduction	-10.4589
▁järelevalve	-10.459
▁sinun	-10.459
▁küll	-10.4591
▁especially	-10.4591
▁ümber	-10.4594
▁sprendimą	-10.4596
aasta	-10.4599
pos	-10.4607
▁2003.	-10.4608
▁įsi	-10.4608
▁aizstāj	-10.4608
▁paslaugų	-10.4609
▁cover	-10.461
tuu	-10.461
▁komisjonile	-10.461
▁idea	-10.4611
ymas	-10.4613
▁pasākumu	-10.4614
stel	-10.4614
▁hours	-10.4616
▁asjaomase	-10.4617
▁wish	-10.4623
▁Br	-10.4627
spect	-10.463
▁held	-10.463
▁minimum	-10.464
▁Zeitpunkt	-10.464
chi	-10.464
▁agricultural	-10.4644
▁Ben	-10.4645
▁reti	-10.4646
▁hoid	-10.4647
ml	-10.4648
sver	-10.4652
▁risks	-10.4655
▁Behörde	-10.4658
▁eli	-10.466
umus	-10.4661
ūd	-10.4661
▁aset	-10.4663
▁applied	-10.4663
▁sutartį	-10.4664
py	-10.4667
▁pārstāv	-10.4671
▁groza	-10.4673
▁ac	-10.4677
lic	-10.4677
▁education	-10.4678
▁metus	-10.4679
ppa	-10.468
▁subsidi	-10.4683
▁kriisi	-10.4686
▁noin	-10.4687
▁gu	-10.4687
▁Economic	-10.4692
ила	-10.4693
▁pool	-10.4693
▁traucējumi	-10.4694
▁Fi	-10.4698
▁internationalen	-10.4704
setzung	-10.4711
▁greater	-10.4715
▁valvonta	-10.4715
lü	-10.4716
▁president	-10.4718
▁importa	-10.4718
ža	-10.4721
▁making	-10.4725
iais	-10.4727
uksista	-10.4727
42	-10.4727
ēr	-10.4728
▁official	-10.4728
▁remain	-10.4729
▁invest	-10.473
▁various	-10.473
▁58	-10.4731
llista	-10.4734
▁Tai	-10.4735
▁ihmis	-10.4736
▁pagalba	-10.474
▁parlamentti	-10.4741
▁points	-10.4741
▁Sicherheits	-10.4744
flu	-10.4744
▁recommended	-10.4746
▁üles	-10.4748
▁могут	-10.4751
▁reason	-10.4751
Ä	-10.4752
▁cenu	-10.4754
ļau	-10.4755
▁listed	-10.4755
▁1992	-10.4756
100	-10.4758
▁internet	-10.4759
▁vienā	-10.4759
ении	-10.476
jumi	-10.4761
ран	-10.4761
▁tarkoitettu	-10.4761
3)	-10.4762
▁pateikia	-10.4762
▁Ve	-10.4764
▁au	-10.4767
▁selge	-10.4767
Ma	-10.4768
▁valdymo	-10.4768
▁noteikti	-10.477
▁dal	-10.4771
▁šalies	-10.4772
нии	-10.4774
▁included	-10.4776
bū	-10.4776
▁teile	-10.478
стро	-10.4782
▁virus	-10.4784
jusi	-10.4784
▁final	-10.4786
▁Januar	-10.4786
▁lietošanai	-10.4787
nės	-10.4791
ель	-10.4791
tuna	-10.4792
▁developing	-10.4795
olla	-10.4797
sä	-10.4798
▁dra	-10.4799
▁narėse	-10.48
▁Deutschland	-10.4801
▁600	-10.4805
II	-10.4805
▁sy	-10.4806
sy	-10.4809
рав	-10.4813
▁andmete	-10.4818
▁maan	-10.4819
mark	-10.482
▁Ende	-10.4822
▁Pra	-10.4823
ohje	-10.4823
eeru	-10.4827
▁essential	-10.4828
▁2010.	-10.4829
hol	-10.4833
gas	-10.4833
▁pad	-10.4834
▁Ühenduse	-10.4834
▁Sam	-10.4839
tse	-10.4839
▁vaan	-10.4842
ät	-10.4842
▁Development	-10.4843
▁reported	-10.4846
▁teatavate	-10.4846
schw	-10.4847
fu	-10.4848
▁liikmesriikides	-10.485
▁contact	-10.4852
77	-10.4852
до	-10.4854
▁stop	-10.4855
▁Kan	-10.4863
▁juo	-10.4867
89	-10.4867
▁62	-10.4868
▁pr	-10.4873
neen	-10.4875
▁budžeta	-10.488
▁yhdessä	-10.4883
▁operator	-10.4884
▁92	-10.4885
▁deren	-10.4886
▁mėn	-10.4887
massa	-10.4888
56	-10.4891
▁annual	-10.4892
▁tarvitse	-10.4892
▁saugumo	-10.4895
▁nuostatas	-10.4897
▁stellt	-10.4899
▁kurias	-10.49
▁rajoi	-10.49
▁nachstehend	-10.4901
ast	-10.4903
▁svarīgi	-10.4903
▁могу	-10.4904
inter	-10.4905
▁policies	-10.4906
TI	-10.4908
šal	-10.4912
▁vitro	-10.4913
pal	-10.4916
ступ	-10.4917
▁ütle	-10.4917
▁muutu	-10.4918
▁Agency	-10.492
lės	-10.492
▁žino	-10.4921
▁palun	-10.4922
▁(6)	-10.4924
▁Fund	-10.493
▁GmbH	-10.4931
▁noudatta	-10.4935
▁poole	-10.4936
▁sertifik	-10.4936
▁taikymo	-10.4937
▁lik	-10.4937
▁Überwachung	-10.4938
▁covered	-10.4939
али	-10.494
▁riska	-10.4942
▁26.	-10.4944
ня	-10.4945
way	-10.4945
▁yhtä	-10.4946
▁Okay	-10.4948
▁pag	-10.4951
▁audit	-10.4951
ST	-10.4954
▁aprakst	-10.4958
cent	-10.496
▁должен	-10.4961
▁prasībām	-10.4961
ikka	-10.4963
78	-10.4964
▁99	-10.4965
eerimise	-10.4968
фи	-10.497
▁saat	-10.4972
▁padar	-10.4974
af	-10.4974
▁Fragen	-10.4974
sete	-10.4977
бу	-10.4978
▁küsimus	-10.498
▁Fin	-10.498
▁pārtikas	-10.4981
tettiin	-10.4983
TA	-10.4983
nčio	-10.4985
▁lead	-10.4985
про	-10.499
ständig	-10.499
▁exchange	-10.4991
▁politische	-10.4995
нию	-10.4996
▁direct	-10.4997
uuden	-10.4999
▁Sal	-10.4999
▁produktus	-10.4999
▁Op	-10.4999
▁isegi	-10.5001
ischer	-10.5001
▁tą	-10.5003
▁Hal	-10.5005
ний	-10.5006
para	-10.5006
▁Pone	-10.5008
72	-10.5008
▁return	-10.5009
juši	-10.5011
▁себя	-10.5013
▁falls	-10.5019
▁Ä	-10.5022
▁saņem	-10.5023
aria	-10.5024
▁edu	-10.5028
▁intended	-10.5028
ции	-10.503
▁procedūru	-10.5031
kalb	-10.5032
▁India	-10.5032
▁89	-10.5033
▁priimti	-10.5035
▁gas	-10.5036
▁media	-10.5036
▁tāpēc	-10.5036
zy	-10.5039
▁Ser	-10.5041
▁gonna	-10.5042
64	-10.5046
▁higher	-10.5047
ging	-10.5048
▁four	-10.5051
▁administrative	-10.5053
▁duomenys	-10.5053
▁vėl	-10.5054
”)	-10.5054
▁1993	-10.506
atsioon	-10.506
▁network	-10.5061
▁teho	-10.5064
▁vielleicht	-10.5065
ates	-10.5068
markt	-10.5069
▁72	-10.5073
▁teisių	-10.5075
▁Var	-10.5076
▁дела	-10.5079
▁era	-10.508
vii	-10.5081
▁dažā	-10.5084
▁Kingdom	-10.5087
wer	-10.5088
sektori	-10.5089
erung	-10.509
▁changes	-10.509
▁где	-10.5092
▁põhjal	-10.5092
ats	-10.5094
kė	-10.5094
▁lab	-10.5096
▁papild	-10.5096
▁ф	-10.5097
▁svarbu	-10.5097
▁Gebiet	-10.5098
91	-10.5098
▁Turklāt	-10.5099
jās	-10.5103
▁bieži	-10.5104
▁cilvēku	-10.5106
▁geben	-10.5109
▁tādējādi	-10.5111
ска	-10.5113
ošā	-10.5113
▁aika	-10.5113
▁nodrošina	-10.5114
misest	-10.5114
ģ	-10.5115
efekt	-10.5125
▁population	-10.5127
▁America	-10.513
▁Pen	-10.5131
▁süsteemi	-10.5132
▁Älä	-10.5133
wand	-10.5134
mad	-10.5137
▁Vereinte	-10.5138
īts	-10.5139
▁haittavaikutuks	-10.5139
▁los	-10.514
fil	-10.5141
▁Wi	-10.5144
▁flu	-10.5149
▁behalf	-10.5152
▁program	-10.5153
▁tiks	-10.5155
8)	-10.5158
märgi	-10.5158
teiden	-10.5159
kenn	-10.5163
ointi	-10.5165
▁minētās	-10.5166
▁mus	-10.5167
iskās	-10.517
▁Erwägung	-10.517
▁Pan	-10.5171
▁citas	-10.5175
▁teema	-10.5176
▁много	-10.5176
▁Winthrop	-10.5177
▁target	-10.5179
▁Kr	-10.5179
mmer	-10.518
▁250	-10.5181
▁operation	-10.5181
kil	-10.5182
▁sav	-10.5183
gali	-10.5183
▁ietekme	-10.5183
работ	-10.5184
▁57	-10.5186
▁draug	-10.5188
low	-10.5189
▁hal	-10.519
▁asutamislepingu	-10.5194
▁limit	-10.5196
▁sisältää	-10.5199
▁piira	-10.5202
ского	-10.5203
naud	-10.5203
зна	-10.5204
setzen	-10.5207
▁taikyti	-10.5208
ota	-10.5215
▁suderin	-10.5216
81	-10.5219
win	-10.522
▁korkea	-10.5223
īta	-10.5225
▁KN	-10.5227
ents	-10.5228
6%	-10.5228
▁protect	-10.5229
▁fast	-10.523
▁vaisto	-10.5231
▁там	-10.5234
ified	-10.5235
▁aastat	-10.5236
▁mono	-10.5236
ņ	-10.5237
▁apstiprināt	-10.5239
▁asian	-10.524
▁voit	-10.524
▁нужно	-10.524
tetään	-10.5242
lē	-10.5243
kosten	-10.5245
▁Bal	-10.5248
üs	-10.525
organism	-10.5251
▁multi	-10.5252
▁edasta	-10.5252
tojen	-10.5253
▁parlament	-10.5255
tamista	-10.5256
▁stellen	-10.5257
▁selvi	-10.5259
▁kopumā	-10.5259
zug	-10.526
▁Padome	-10.526
▁korra	-10.5262
▁party	-10.5265
▁Ergebnisse	-10.5267
▁institucija	-10.5273
▁pasak	-10.5276
▁lõiget	-10.5278
▁unioni	-10.528
4)	-10.5286
▁below	-10.5286
▁lõpp	-10.5286
▁šādi	-10.5287
ös	-10.5287
▁benefit	-10.5289
asia	-10.5289
▁priekšlikumu	-10.529
▁haldus	-10.5291
▁iekļaut	-10.5297
▁taikomos	-10.53
▁tabletti	-10.53
tē	-10.5301
ther	-10.5304
▁iestāde	-10.5305
isto	-10.5307
▁kinnita	-10.5309
unternehmen	-10.5311
rio	-10.5312
▁sir	-10.5312
▁favour	-10.5313
stelle	-10.5313
PC	-10.5314
▁bist	-10.5315
▁piln	-10.5316
legen	-10.5316
▁sąlygos	-10.5318
▁nehmen	-10.5318
šo	-10.5319
▁equal	-10.5322
▁attiecīgi	-10.5324
3,	-10.5327
nieg	-10.5328
▁67	-10.5329
▁sausio	-10.533
▁EL	-10.533
row	-10.5336
pras	-10.5338
▁Office	-10.5341
▁uudelleen	-10.5342
▁pasākumiem	-10.5343
amme	-10.5347
▁gyvūnų	-10.535
▁pacientu	-10.5352
▁face	-10.5352
kk	-10.5354
▁angewendet	-10.5355
laste	-10.5355
tunut	-10.5357
ēti	-10.5359
ājiem	-10.536
ėmis	-10.5361
mel	-10.5363
▁forward	-10.5363
▁Lisaks	-10.5364
86	-10.5372
▁moni	-10.5373
▁meetmeid	-10.5382
isuuden	-10.5383
67	-10.5383
54	-10.5385
▁juuri	-10.5385
▁juuli	-10.5389
SA	-10.5391
▁visą	-10.5391
▁eksporta	-10.5395
tie	-10.5396
▁kul	-10.5399
▁por	-10.54
dina	-10.5401
nit	-10.5401
▁Go	-10.5403
▁kurioje	-10.5406
ization	-10.5406
▁vahe	-10.5407
▁usko	-10.5407
▁ran	-10.5407
лось	-10.5408
▁teada	-10.5408
▁kysy	-10.5409
iva	-10.5409
▁сейчас	-10.5411
83	-10.5413
▁lapse	-10.5414
▁medicinal	-10.5414
▁love	-10.5416
▁Dar	-10.5417
▁design	-10.542
▁iestādēm	-10.5422
uko	-10.5422
mie	-10.5423
▁thus	-10.5423
inblick	-10.5424
▁piiri	-10.5429
mäßig	-10.543
▁būdu	-10.5433
58	-10.5433
▁tegutse	-10.5435
järjestelmän	-10.5435
ret	-10.5438
▁tap	-10.5439
▁talle	-10.544
▁kaina	-10.5442
▁naujo	-10.5445
▁mark	-10.5446
▁tev	-10.5448
▁Umsetzung	-10.545
▁paino	-10.545
loģisk	-10.5451
tamis	-10.5452
schutz	-10.5452
ел	-10.5456
▁sosiaali	-10.5456
▁üksnes	-10.5458
▁welcome	-10.546
peri	-10.5461
▁jede	-10.5461
▁susitarimo	-10.5464
▁liegt	-10.5465
īgo	-10.5465
▁kehit	-10.5467
▁mērķis	-10.5467
▁hätte	-10.5468
▁’	-10.5468
▁Finland	-10.5469
▁Ir	-10.547
▁vėliau	-10.547
▁regarding	-10.5474
agi	-10.5475
▁vol	-10.5476
▁Ok	-10.5478
▁km	-10.5479
vent	-10.548
▁alkoholi	-10.5481
лу	-10.5482
▁added	-10.5482
▁nepieciešama	-10.5489
▁Par	-10.5489
tās	-10.549
lainen	-10.5491
gang	-10.5491
jiet	-10.5495
▁tām	-10.5496
amin	-10.5497
▁investigation	-10.5498
▁Wochen	-10.5498
▁info	-10.55
▁annetun	-10.5501
ений	-10.5502
ybės	-10.5503
▁mok	-10.5504
▁Gra	-10.5509
utta	-10.5512
▁komiteja	-10.5513
ход	-10.5514
▁iespēja	-10.5515
inu	-10.5515
turu	-10.5517
SE	-10.5518
▁Secretary	-10.5518
iui	-10.552
tiem	-10.5521
rea	-10.5522
▁existing	-10.5525
▁peace	-10.5526
▁weeks	-10.553
▁Fahrzeug	-10.5531
▁Ма	-10.5531
▁voll	-10.5532
63	-10.5534
mber	-10.5535
▁com	-10.5535
▁государств	-10.5536
ēji	-10.5537
▁things	-10.5538
lö	-10.554
▁91/414/	-10.5541
▁oral	-10.5543
▁key	-10.5544
▁sala	-10.5546
▁ehkä	-10.5546
▁kurš	-10.5547
▁garant	-10.5549
▁bal	-10.555
žin	-10.5551
jien	-10.5551
▁bekannt	-10.5552
▁notwendig	-10.5555
▁atitinkamai	-10.5559
▁вам	-10.556
▁vēlos	-10.556
▁Weise	-10.556
Ė	-10.5561
▁check	-10.5563
▁nauj	-10.5564
▁building	-10.5565
▁führt	-10.5566
▁dozė	-10.557
dan	-10.5571
▁talk	-10.5574
▁ago	-10.5578
ehdo	-10.5578
▁noteikts	-10.558
▁šim	-10.5582
ци	-10.5584
izēt	-10.5584
▁Haushalts	-10.5587
▁120	-10.5587
muka	-10.5587
▁close	-10.5587
казыва	-10.5587
▁Zoll	-10.5589
▁voisi	-10.5591
▁office	-10.5591
Q	-10.5592
▁līmenī	-10.5593
▁yhden	-10.5593
▁nuomonę	-10.5596
▁katru	-10.5597
—	-10.5599
▁hard	-10.5599
▁novērtē	-10.56
tech	-10.56
uß	-10.5605
▁dozės	-10.5606
▁suu	-10.561
ению	-10.5612
kop	-10.5612
kos	-10.5614
▁stimul	-10.5614
▁vorgesehenen	-10.5617
lank	-10.5618
seen	-10.5619
▁tarpeen	-10.5622
etaan	-10.5624
▁priežiūros	-10.5625
▁võimalus	-10.563
▁strong	-10.5634
мер	-10.5636
yr	-10.5637
aasi	-10.5639
inimas	-10.564
ова	-10.5643
▁offer	-10.5644
.11.	-10.5646
▁sopimus	-10.5647
used	-10.5648
▁paredzēts	-10.5648
lock	-10.5648
▁projektu	-10.565
▁04	-10.5652
▁Про	-10.5652
▁proposed	-10.5653
▁līmeni	-10.5653
oties	-10.5658
nehmen	-10.566
rad	-10.5661
▁activity	-10.5663
ских	-10.5663
▁alue	-10.5667
▁lihtsalt	-10.5667
▁59	-10.5668
▁пар	-10.5671
▁edelleen	-10.5671
▁documents	-10.5676
▁käsitleva	-10.5676
▁25.	-10.5677
4-	-10.5679
▁Hilfe	-10.5684
▁attiecīgo	-10.5685
ühi	-10.5686
▁iespējas	-10.5692
▁hinaus	-10.5694
▁pressure	-10.5695
▁Jūs	-10.5695
▁Russia	-10.5695
▁vietoje	-10.5697
▁mielestäni	-10.5698
day	-10.57
▁svarbi	-10.5701
▁73	-10.5706
kut	-10.5706
ration	-10.5708
uojant	-10.5708
▁atskir	-10.5714
▁Pie	-10.5715
▁sehen	-10.5716
fra	-10.5716
▁Vereinigte	-10.5717
▁Bayer	-10.5717
määr	-10.5718
▁līmeņa	-10.5718
▁olivat	-10.5721
▁certificate	-10.5721
valtio	-10.5724
▁politika	-10.5725
ges	-10.5725
▁parem	-10.5725
▁välillä	-10.5728
An	-10.5729
ишь	-10.573
▁даже	-10.5732
RA	-10.5732
▁ис	-10.5733
▁kāda	-10.5737
▁74	-10.574
▁luu	-10.5742
▁jāat	-10.5743
ender	-10.5744
▁pastāv	-10.5748
▁Х	-10.5748
▁Handel	-10.5751
aalne	-10.5752
sam	-10.5753
svorschriften	-10.5753
▁arutelu	-10.5754
▁tärkeä	-10.5754
▁savā	-10.5755
pel	-10.5755
▁lä	-10.5758
▁inim	-10.5761
▁defined	-10.5761
era	-10.5765
sektor	-10.5766
iamas	-10.5766
▁red	-10.5769
▁approval	-10.577
▁gehen	-10.5773
▁regards	-10.5774
poli	-10.5776
▁allem	-10.5779
▁отношении	-10.5783
▁uzņēmumu	-10.5783
▁Japan	-10.5785
▁einzu	-10.5785
▁įmonės	-10.5787
▁sto	-10.5788
llisen	-10.5789
▁täiendava	-10.579
▁sõ	-10.5793
uoju	-10.5794
eseen	-10.5794
▁radīt	-10.5795
vit	-10.5795
amo	-10.58
▁līmenis	-10.5802
▁вер	-10.5809
▁staff	-10.5812
▁laaj	-10.5813
▁attīstības	-10.5815
▁Ber	-10.5816
▁produktiem	-10.5818
ajam	-10.582
ция	-10.5823
▁Rolle	-10.5827
▁likvid	-10.5827
▁arv	-10.5828
ope	-10.583
▁difficult	-10.5831
rag	-10.5833
▁pievieno	-10.5837
▁gegebenenfalls	-10.5838
▁nuolat	-10.5839
ость	-10.5845
ėja	-10.5845
▁kerran	-10.5847
▁öffentliche	-10.5848
▁forma	-10.5851
OJ	-10.5851
▁maha	-10.5856
jimo	-10.5857
ской	-10.5861
▁kohe	-10.5861
hinna	-10.5861
▁ekonomikos	-10.5864
▁Handels	-10.5865
▁korva	-10.5865
▁zwar	-10.5865
▁communication	-10.5867
ordin	-10.587
ido	-10.5872
▁avoid	-10.5873
▁gener	-10.5877
▁associated	-10.5878
▁võimalda	-10.5878
▁binding	-10.588
▁markets	-10.5881
DE	-10.5881
▁erst	-10.5882
▁kiti	-10.5884
alis	-10.5885
▁näe	-10.5886
▁poliitika	-10.5886
▁unserer	-10.5886
каз	-10.5888
▁kir	-10.5889
āti	-10.5895
▁bērniem	-10.5897
▁sea	-10.5899
AT	-10.59
▁27.	-10.5901
nnan	-10.5901
▁noteikumu	-10.5902
▁põhjus	-10.5903
▁IU	-10.5907
▁personas	-10.5908
▁rink	-10.5908
ск	-10.5909
▁specified	-10.5909
▁liepos	-10.5909
▁establishment	-10.591
bal	-10.5911
deks	-10.5913
▁valstybėms	-10.5913
▁CN	-10.5913
▁tunnista	-10.5914
▁minua	-10.5915
▁Wasser	-10.5916
▁game	-10.5917
▁veikia	-10.5917
▁demand	-10.5921
▁vastuu	-10.5921
▁scheme	-10.5922
84	-10.5926
▁provides	-10.5927
▁vieta	-10.5929
▁viso	-10.593
vie	-10.593
▁šalis	-10.5931
▁taisykles	-10.5932
▁raja	-10.5933
юсь	-10.5933
kie	-10.5934
▁talous	-10.5935
▁valdžios	-10.5936
▁2011.	-10.5944
vän	-10.5946
▁vartojant	-10.5948
nce	-10.5949
▁lietojot	-10.5949
▁politischen	-10.5951
▁jāiz	-10.5951
āji	-10.5954
▁containing	-10.5956
isierung	-10.5959
▁veikla	-10.5961
▁ш	-10.5961
▁iespēju	-10.5961
likum	-10.5962
▁Ihre	-10.5966
▁teavita	-10.5967
lv	-10.5972
▁February	-10.5973
▁daļā	-10.5982
band	-10.5988
SC	-10.5989
▁Liste	-10.599
▁kommt	-10.5991
▁Lebensmittel	-10.5994
viin	-10.5995
vos	-10.5995
träge	-10.5996
lam	-10.5998
ķi	-10.6
▁этот	-10.6007
▁До	-10.6007
▁müügi	-10.601
▁kuitenkaan	-10.601
▁sofern	-10.6012
▁blakusparādības	-10.6013
▁kellel	-10.6014
oosi	-10.6016
emia	-10.6021
▁times	-10.6023
74	-10.6025
▁sąlygas	-10.6028
▁funds	-10.6028
▁kasutamist	-10.6028
treten	-10.603
▁turn	-10.603
▁gaisa	-10.6031
▁towards	-10.6032
▁panākt	-10.6033
kond	-10.6034
▁Gr	-10.6034
▁fixed	-10.6036
vuus	-10.604
▁payment	-10.6042
▁vorliegenden	-10.6043
▁five	-10.6045
▁Со	-10.6046
▁analiz	-10.6046
▁sin	-10.6046
▁0.	-10.6048
▁EEE	-10.6049
▁liittyvät	-10.605
▁elä	-10.605
▁Assembly	-10.6051
▁Germany	-10.6053
ough	-10.6053
ntis	-10.6057
▁ekonomikas	-10.6057
▁bent	-10.6059
▁doing	-10.606
▁Post	-10.6061
▁daļas	-10.6066
▁sau	-10.6067
стан	-10.6067
wo	-10.6069
tamist	-10.6072
avimą	-10.6073
▁mahdollista	-10.6074
▁суд	-10.6074
▁member	-10.6077
стоя	-10.6078
▁juht	-10.6081
can	-10.6084
▁nuostatos	-10.6086
far	-10.6089
jis	-10.6089
▁rest	-10.6091
8%	-10.6091
ucht	-10.6091
▁один	-10.6092
▁http	-10.6094
▁atbilstoši	-10.6094
μ	-10.6095
▁supply	-10.6096
▁artiklassa	-10.6098
oria	-10.6099
bes	-10.6101
miin	-10.6109
▁uuri	-10.611
▁Regelung	-10.6111
kol	-10.6113
▁põ	-10.6114
▁month	-10.6119
laufen	-10.612
misestä	-10.612
▁balance	-10.6121
▁bestimmten	-10.6124
ры	-10.613
čiu	-10.6131
▁хочу	-10.6132
▁īstenot	-10.6135
▁reach	-10.6137
▁atsak	-10.6137
▁medžiaga	-10.6139
ship	-10.614
stö	-10.6141
talo	-10.6142
▁teisė	-10.6142
▁punkts	-10.6144
smaßnahmen	-10.6144
▁competition	-10.6145
▁kaikkien	-10.6145
kri	-10.6147
▁try	-10.615
▁instruments	-10.6151
uota	-10.6152
▁kurām	-10.6153
▁pirmo	-10.6153
▁dessen	-10.6155
▁kehtestatakse	-10.6156
▁ieguldījumu	-10.6168
eeni	-10.6168
▁sutrikimai	-10.6172
▁asendatakse	-10.6173
▁eel	-10.6173
▁susijusių	-10.6176
die	-10.6177
▁räägi	-10.6177
▁järgmist	-10.6178
▁baig	-10.6178
▁lyg	-10.6178
▁alusta	-10.6178
▁therapy	-10.618
tric	-10.6183
▁avulla	-10.6189
▁будут	-10.6189
▁klient	-10.6193
vasti	-10.6194
▁Kontrolle	-10.6195
▁priedas	-10.6195
▁detsembri	-10.6195
▁Ausschuss	-10.6201
▁jaunu	-10.6204
▁Kapitel	-10.6205
▁later	-10.6205
ces	-10.6205
▁thing	-10.6206
raum	-10.6206
riigi	-10.6208
likult	-10.6209
▁neno	-10.6209
▁Ihren	-10.6211
▁known	-10.6213
▁Gemeinschaften	-10.6215
▁sollen	-10.6215
▁ainoastaan	-10.6216
▁recent	-10.6218
kais	-10.6219
▁vel	-10.6219
▁beiden	-10.6221
сь	-10.6221
▁raames	-10.6226
▁paper	-10.6226
ank	-10.6231
kko	-10.6231
▁kaikkia	-10.6232
gus	-10.6233
▁lei	-10.6234
▁stand	-10.6235
▁nieru	-10.6236
▁OL	-10.6238
▁žinoma	-10.6239
говор	-10.6241
▁atbilstīgi	-10.6246
▁kaut	-10.6248
уб	-10.6248
▁Sol	-10.6249
▁room	-10.625
▁etwa	-10.6252
▁Brussels	-10.6254
▁izmaksas	-10.6255
▁hab	-10.6256
▁järel	-10.6256
gleich	-10.6257
▁koncentracija	-10.6257
▁šioje	-10.6257
▁longer	-10.6259
ālo	-10.626
▁Mor	-10.6262
▁mõne	-10.6263
saa	-10.6263
▁teda	-10.6264
▁nature	-10.6264
jumiem	-10.6265
▁tritt	-10.6266
tina	-10.6266
▁keinen	-10.6267
▁ongelma	-10.6267
▁könnten	-10.6269
▁vaikea	-10.6271
▁veiks	-10.6273
▁Hel	-10.6274
▁Untersuchung	-10.6274
▁Ziele	-10.6276
▁reizi	-10.6276
uni	-10.6277
▁finden	-10.6278
▁turvallisuus	-10.6278
▁National	-10.6278
▁mies	-10.6284
▁implementing	-10.6284
▁stark	-10.6289
▁Zugang	-10.629
ize	-10.629
▁tele	-10.6291
mid	-10.6294
▁gemacht	-10.6294
uste	-10.6294
▁foreign	-10.6295
▁Kor	-10.6296
▁Air	-10.6297
▁central	-10.6298
puoli	-10.6299
▁reduce	-10.6301
šķi	-10.6301
part	-10.6307
▁detailed	-10.631
▁Einzel	-10.6313
▁ost	-10.6314
▁move	-10.6314
ējā	-10.6315
▁argument	-10.6316
▁tark	-10.6317
▁naudo	-10.6317
ments	-10.6318
toodete	-10.6321
▁attiecīgā	-10.6322
▁isiku	-10.6323
menettely	-10.6323
▁World	-10.6325
▁эти	-10.6327
ālu	-10.6332
▁pētījumos	-10.6333
▁promote	-10.6333
▁konkreetse	-10.6334
▁lēmuma	-10.6334
▁taha	-10.6335
▁izveido	-10.6339
▁affect	-10.634
▁called	-10.6342
▁izņemot	-10.6344
раз	-10.6344
▁Liit	-10.6345
пи	-10.6348
▁ban	-10.6353
▁sh	-10.6353
▁visit	-10.6354
▁arsti	-10.6357
ciju	-10.6358
▁event	-10.6358
▁Regulā	-10.6358
ivi	-10.6359
▁pagrįst	-10.6359
▁log	-10.6359
rist	-10.6359
▁Bau	-10.636
смотр	-10.6363
▁neap	-10.6363
▁päeval	-10.6365
▁Gründung	-10.6365
▁план	-10.6366
▁lõpeta	-10.6371
▁struktūr	-10.6371
▁authorisation	-10.6371
▁vaistini	-10.6374
vuse	-10.6374
led	-10.6375
ną	-10.6375
▁olete	-10.6376
85	-10.6376
aar	-10.6377
▁atzinumu	-10.6379
▁связи	-10.6382
▁treated	-10.6386
tinka	-10.6387
▁vesi	-10.6387
▁fully	-10.6389
▁91	-10.6392
▁ietver	-10.6393
▁eksporto	-10.6395
▁24.	-10.6395
▁Zahl	-10.6396
▁Special	-10.6396
▁Situation	-10.6399
gestellt	-10.64
▁võetud	-10.64
▁deleg	-10.6403
ņa	-10.6404
ąjį	-10.6406
▁charge	-10.6407
▁viskas	-10.6407
кой	-10.6409
▁family	-10.6412
▁tada	-10.6413
▁schnell	-10.6419
▁ECB	-10.6419
ур	-10.6419
▁rot	-10.6421
▁kontrolės	-10.6421
▁Хорошо	-10.6422
▁nedēļā	-10.6423
tė	-10.6424
▁įvertin	-10.6425
▁tarjoa	-10.6427
ирован	-10.6427
▁tietojen	-10.6428
▁territory	-10.643
▁apakšpunktā	-10.643
▁meta	-10.6431
▁kõikide	-10.6432
▁teisę	-10.6432
▁tera	-10.6435
▁ba	-10.6436
▁nusi	-10.6438
ент	-10.6444
▁ameti	-10.6445
▁weiterhin	-10.6447
ред	-10.6448
▁nustatytos	-10.6449
▁haluaisin	-10.6449
▁Act	-10.6453
▁kolmanda	-10.6453
▁events	-10.6454
uudet	-10.6454
▁saman	-10.6455
.4.	-10.6456
▁fair	-10.6459
til	-10.6461
usega	-10.6461
iska	-10.6467
▁popul	-10.6468
▁2013.	-10.6469
▁substances	-10.6472
▁sowohl	-10.6474
▁importance	-10.6475
kia	-10.6476
▁tabletes	-10.6476
▁evidence	-10.6481
▁kontroles	-10.6483
▁Protocol	-10.6483
▁toetuse	-10.6483
▁lapsi	-10.6485
▁muitas	-10.6485
või	-10.6488
▁Trans	-10.649
▁dienos	-10.6492
ged	-10.6495
▁Мо	-10.6496
chan	-10.6498
sol	-10.6503
▁воз	-10.6505
▁pasiek	-10.6506
▁producers	-10.6508
tage	-10.651
▁rizikos	-10.6511
▁õige	-10.6513
▁valo	-10.6513
▁daily	-10.6514
▁saadud	-10.6514
▁entsprechen	-10.6515
▁improve	-10.6516
IC	-10.6517
igung	-10.6517
▁Ш	-10.6519
▁pysty	-10.652
▁tokio	-10.652
▁lygi	-10.652
▁frei	-10.6522
▁pavadinimas	-10.6523
▁перед	-10.6524
▁hästi	-10.6524
bie	-10.6525
▁projects	-10.6527
▁šiandien	-10.6528
amos	-10.6528
▁Irbesartan	-10.6528
▁operations	-10.6529
IP	-10.653
dur	-10.653
▁tave	-10.6531
▁sinua	-10.6533
▁86	-10.6534
▁Fassung	-10.6534
▁Kol	-10.6536
htu	-10.6537
yy	-10.6537
schließen	-10.6541
▁tyrimo	-10.6541
▁tipo	-10.6543
▁otse	-10.6543
▁needed	-10.6545
▁although	-10.6546
nē	-10.6546
▁Dž	-10.6548
▁Party	-10.6549
▁average	-10.655
▁gel	-10.6552
▁strategy	-10.6554
ант	-10.6554
ient	-10.6556
▁interferon	-10.6559
jus	-10.6559
als	-10.6565
▁puhe	-10.6566
▁nesa	-10.6567
▁vehicle	-10.657
▁firm	-10.657
▁Gl	-10.6572
▁profit	-10.6574
59	-10.6575
▁online	-10.6576
▁society	-10.6576
▁valtion	-10.6576
▁своей	-10.6577
ātu	-10.658
▁steht	-10.6582
aks	-10.6583
▁То	-10.6584
bre	-10.6585
▁tipa	-10.6589
▁šeit	-10.6589
▁Oktober	-10.659
▁Ebene	-10.659
rgi	-10.6591
lop	-10.6595
▁muudetud	-10.6597
▁muun	-10.6597
▁Gemeinsame	-10.6598
▁politin	-10.6599
▁teik	-10.6599
teks	-10.6599
▁liha	-10.66
▁hy	-10.66
▁fishing	-10.6601
▁EEZ	-10.6601
▁Yes	-10.6602
leid	-10.6603
▁citām	-10.6603
▁Tage	-10.6606
▁meiner	-10.6607
▁werde	-10.6609
▁six	-10.6609
▁aufge	-10.6612
NA	-10.6614
▁vähem	-10.6616
▁сказал	-10.6617
▁issued	-10.6617
▁produktai	-10.6617
▁levi	-10.6618
▁96	-10.6618
malt	-10.6619
▁rūp	-10.662
▁безопасности	-10.6621
▁principle	-10.6622
▁attention	-10.6622
▁vec	-10.6623
▁Gen	-10.6624
nų	-10.6625
ock	-10.6627
▁große	-10.6628
▁vähene	-10.6629
ong	-10.6629
▁lennu	-10.6629
▁Ak	-10.663
tvark	-10.6631
▁cr	-10.6631
▁väärtus	-10.6631
▁duty	-10.6637
ančių	-10.6638
▁Fischerei	-10.6639
▁Social	-10.664
▁sage	-10.6641
▁reports	-10.6641
kontsentratsioon	-10.6641
▁performance	-10.6642
▁Rechnung	-10.6643
▁kitas	-10.6645
▁ekspordi	-10.6645
idega	-10.6645
asti	-10.6646
▁kauba	-10.6647
▁программ	-10.6647
▁file	-10.6649
ąsias	-10.665
▁Leben	-10.6652
пад	-10.6652
▁opt	-10.6653
▁свои	-10.6654
▁karto	-10.6656
▁create	-10.6659
▁gewährt	-10.6661
▁suurem	-10.6661
▁besser	-10.6663
▁mõned	-10.6664
▁вид	-10.6665
▁narėms	-10.6668
ossa	-10.6672
▁lower	-10.6672
tį	-10.6676
cul	-10.6676
gur	-10.6679
yys	-10.668
sija	-10.6681
sioon	-10.6681
57	-10.6683
ющих	-10.6684
5000	-10.6686
omen	-10.6687
▁toimeaine	-10.6687
assa	-10.6688
fr	-10.6688
▁sää	-10.6688
76	-10.6695
ppe	-10.6699
▁South	-10.6702
ста	-10.6702
rė	-10.6704
▁nam	-10.6705
▁Industrie	-10.6705
▁vakcin	-10.6706
▁этих	-10.6709
▁freedom	-10.6716
▁establish	-10.672
при	-10.6721
▁sugar	-10.6722
след	-10.6722
tko	-10.6723
lepingu	-10.6723
ova	-10.6723
▁appear	-10.6724
▁03	-10.6724
тр	-10.6726
gabe	-10.6732
▁Е	-10.6734
▁Verbraucher	-10.6735
▁nuclear	-10.6738
▁focus	-10.6738
▁išmok	-10.6739
▁kādu	-10.6743
▁mel	-10.6744
valu	-10.6744
▁virš	-10.6751
▁julk	-10.6753
▁Probleme	-10.6753
▁vispār	-10.6754
suunnitelma	-10.6757
vet	-10.6758
▁meillä	-10.6758
▁responsibility	-10.6758
▁RE	-10.6759
▁Mann	-10.6761
▁должно	-10.6764
▁teadus	-10.6767
alle	-10.6767
▁wenig	-10.677
▁direktiiv	-10.677
▁Das	-10.6774
määra	-10.6774
politiikan	-10.6775
õigus	-10.6776
▁tegevuse	-10.6776
pas	-10.6777
▁rule	-10.6777
лич	-10.678
▁veikti	-10.6781
▁military	-10.6782
inas	-10.6782
▁kinni	-10.6784
▁cor	-10.6785
grad	-10.6788
▁других	-10.679
▁свою	-10.6791
▁vakar	-10.6792
▁Ausgaben	-10.6794
▁limited	-10.6794
▁asja	-10.6794
▁mērķi	-10.6797
▁dvi	-10.6798
▁missä	-10.6799
vaid	-10.68
cor	-10.68
▁laik	-10.6801
ttua	-10.6802
žr	-10.6804
▁decisions	-10.6807
werte	-10.6808
▁erhält	-10.6809
▁vajaduse	-10.6809
▁63	-10.681
▁left	-10.6812
▁empfohlen	-10.6815
▁Jahres	-10.6815
▁juhtu	-10.6816
▁panaikin	-10.6817
нес	-10.6817
▁įsigalioja	-10.682
▁gemeinsamen	-10.6821
▁Sąjunga	-10.6823
klo	-10.6824
▁Kü	-10.6825
▁täysin	-10.6825
▁Dis	-10.6826
fici	-10.6827
▁maksājumu	-10.6827
īšana	-10.6827
▁pig	-10.6828
isse	-10.6829
▁küsimuse	-10.6831
pla	-10.6831
▁handelt	-10.6832
rank	-10.6833
ismus	-10.6834
▁ему	-10.6838
▁record	-10.6838
SS	-10.6841
▁käyttöä	-10.6841
▁sport	-10.6841
ща	-10.6842
▁2001/	-10.6842
▁pvz	-10.6842
▁unterstützen	-10.6843
▁debt	-10.6845
▁те	-10.6847
alia	-10.6848
▁young	-10.6849
wirtschaftlichen	-10.685
▁taisyklės	-10.685
▁paku	-10.6851
▁šāda	-10.6852
▁оста	-10.6852
▁sulle	-10.6853
▁(≥	-10.6853
▁san	-10.6854
zon	-10.6855
▁regulā	-10.6855
▁Nu	-10.6855
▁child	-10.6856
ējiem	-10.6857
▁markkina	-10.6857
empi	-10.6858
nahme	-10.6858
▁Ко	-10.6859
tuste	-10.6859
▁bendro	-10.6859
▁Ausschusses	-10.6861
▁fight	-10.6867
▁involved	-10.687
▁kehtestatud	-10.6872
82	-10.6874
▁sanofi	-10.6876
▁[6]	-10.6877
▁skirtas	-10.6878
▁Fu	-10.6883
sit	-10.6884
ėtų	-10.6888
alue	-10.6889
▁ved	-10.6889
ēšanu	-10.689
miste	-10.689
▁Bendrijų	-10.6896
▁väl	-10.6896
▁līguma	-10.6897
▁cap	-10.6898
▁bestimmt	-10.6899
▁77	-10.6899
ировать	-10.69
mais	-10.6905
▁gyv	-10.6906
bank	-10.6907
▁против	-10.6907
▁bendra	-10.6908
▁всего	-10.691
▁Verwaltungs	-10.6911
ising	-10.6912
▁kontakt	-10.6912
gram	-10.6914
▁Ed	-10.6916
▁lēmums	-10.6916
fonds	-10.6917
▁measure	-10.6919
ides	-10.6919
▁sasniegt	-10.6919
▁norādīt	-10.6927
hren	-10.6927
▁esimerkiksi	-10.6929
▁Pal	-10.693
▁direkt	-10.6931
▁plant	-10.6933
▁macht	-10.6935
steuer	-10.6938
▁1234/2007	-10.6938
▁можно	-10.6938
finans	-10.6939
side	-10.6939
Б	-10.694
sky	-10.6941
▁palielināt	-10.6941
▁Malta	-10.6941
▁wirtschaftliche	-10.6942
mir	-10.6942
▁offen	-10.6945
▁torju	-10.6946
▁rank	-10.6949
▁naha	-10.6949
ley	-10.6951
▁Part	-10.6953
▁olevat	-10.6953
▁пока	-10.6956
▁Nä	-10.6958
fik	-10.6959
▁izraisīt	-10.6964
pära	-10.6964
▁saņemt	-10.6965
▁objectives	-10.6966
▁käytettävä	-10.6969
▁ter	-10.6969
▁joint	-10.697
▁answer	-10.6972
ace	-10.6972
▁raštu	-10.6973
бе	-10.6977
▁amendments	-10.6978
▁Cha	-10.6982
ītu	-10.6983
▁daran	-10.6984
▁lahus	-10.6985
▁kokonais	-10.6986
▁ekspert	-10.6986
bals	-10.6988
über	-10.6988
▁pasakyti	-10.6988
▁develop	-10.6989
ville	-10.6992
▁valid	-10.6993
▁jiems	-10.6997
▁Zulassung	-10.6997
mpaa	-10.7
▁pilnībā	-10.7002
▁kand	-10.7002
▁conflict	-10.7002
▁лиц	-10.7005
alla	-10.7006
▁caur	-10.7006
▁representative	-10.7007
▁paredzēta	-10.7008
▁ker	-10.7009
▁teavet	-10.7012
62	-10.7013
▁peri	-10.7014
▁erreicht	-10.7015
▁bodies	-10.702
▁vietas	-10.7022
▁vak	-10.7023
▁niistä	-10.7023
▁государства	-10.7025
dot	-10.7025
▁programmi	-10.7029
▁Вот	-10.7035
rok	-10.7036
▁Kas	-10.7038
▁besonders	-10.7038
▁principles	-10.7038
▁Not	-10.7041
▁ж	-10.7042
▁pirk	-10.7042
▁combination	-10.7044
▁kurus	-10.7045
▁syn	-10.7046
▁aim	-10.7046
▁employment	-10.7046
▁toteutta	-10.7049
▁gesagt	-10.705
▁parasti	-10.705
▁soon	-10.705
endi	-10.705
▁Direktīvu	-10.705
▁patvirtin	-10.7052
▁eurot	-10.7053
▁lii	-10.7053
ister	-10.7057
▁Fr	-10.7057
▁kiinni	-10.7058
▁institucijų	-10.706
▁vari	-10.7062
нос	-10.7063
amid	-10.7064
Ver	-10.7065
▁aikaan	-10.7065
▁edellä	-10.7067
ETY	-10.7068
▁Herrn	-10.7069
▁gadam	-10.707
со	-10.7071
ably	-10.7071
ABl	-10.7073
kaitse	-10.7073
▁Förderung	-10.7078
hä	-10.7081
▁original	-10.7082
▁iesaistīt	-10.7084
▁vanden	-10.7085
▁tasa	-10.7086
▁EWR	-10.7091
hing	-10.7092
вид	-10.7092
6,	-10.7093
rū	-10.7096
▁suuren	-10.7097
▁Bio	-10.7099
▁nustatytas	-10.71
sko	-10.7101
▁īpašu	-10.7101
car	-10.7101
ед	-10.7103
бы	-10.7104
▁video	-10.7107
lid	-10.7108
▁Nor	-10.7108
▁Miks	-10.711
tamiseks	-10.7111
▁olukorra	-10.7112
▁kre	-10.7116
▁Amtsblatt	-10.7119
▁Möglichkeit	-10.7119
▁jung	-10.712
▁direktīvas	-10.7121
▁fundamental	-10.7123
▁vaistų	-10.7124
ļi	-10.7124
▁standarta	-10.7126
▁isikute	-10.7129
▁context	-10.7129
▁amending	-10.7132
▁Wirkung	-10.7133
4,	-10.7135
▁rada	-10.7136
▁Strategie	-10.714
▁kap	-10.7142
▁waste	-10.7143
▁užtikrina	-10.7145
▁Haupt	-10.7145
▁Ли	-10.7146
аль	-10.7148
▁motor	-10.7148
вать	-10.715
teic	-10.715
▁Ur	-10.715
▁reglamente	-10.7156
▁rinkoje	-10.7156
Veröffentlichung	-10.7157
▁spalio	-10.7159
ilise	-10.7161
▁призна	-10.7164
▁achieve	-10.7164
site	-10.7166
▁provision	-10.7169
einander	-10.7174
▁testi	-10.7174
▁vuotta	-10.7175
▁цен	-10.7176
▁paziņo	-10.7176
▁feel	-10.7178
▁ema	-10.7179
▁method	-10.7179
hdi	-10.7181
▁grupės	-10.7181
▁Latvia	-10.7181
▁otsust	-10.7181
lk	-10.7182
▁siten	-10.7182
misele	-10.7184
▁Lie	-10.7186
▁mass	-10.7186
▁würden	-10.719
▁süsti	-10.719
▁Einfuhren	-10.7191
▁(5	-10.7193
▁agree	-10.7193
iff	-10.7196
iivse	-10.7198
▁Cmax	-10.7199
ošanas	-10.7199
▁права	-10.7199
oša	-10.7199
▁Verbindung	-10.7201
▁importu	-10.7201
▁rakendamise	-10.7202
▁Weg	-10.7203
vää	-10.7204
▁Bewertung	-10.7205
▁ženkl	-10.7205
unud	-10.7206
▁tokiu	-10.7209
verfahren	-10.7213
▁määratud	-10.7217
▁itself	-10.7219
клю	-10.722
Ko	-10.722
▁This	-10.7221
▁täglich	-10.7222
▁öelda	-10.7223
▁deine	-10.7224
▁pievienot	-10.7225
▁reikalavimų	-10.7229
▁class	-10.7232
itz	-10.7233
▁rather	-10.7233
mēr	-10.7234
▁interes	-10.7235
otto	-10.7236
▁kõiki	-10.7237
▁suhte	-10.7237
▁heaks	-10.7238
▁Спасибо	-10.7239
▁71	-10.724
main	-10.7244
▁Krise	-10.7251
▁parād	-10.7252
hör	-10.7254
▁interests	-10.7255
sopimukse	-10.7256
▁follows	-10.7256
▁ihrem	-10.7256
▁cenas	-10.7258
61	-10.7258
[	-10.726
▁jõustub	-10.7261
▁richtig	-10.7262
▁analysis	-10.7263
▁uzņēmumiem	-10.7264
▁lielāka	-10.7265
▁вопросам	-10.7268
▁Kosovo	-10.7273
▁kahden	-10.7275
▁London	-10.7276
uka	-10.7277
▁gydyti	-10.7277
ложен	-10.7279
▁tegi	-10.7281
реш	-10.7283
▁nozares	-10.7284
šči	-10.7285
▁lento	-10.729
▁school	-10.7291
▁tulemus	-10.7294
▁package	-10.7295
▁Līguma	-10.7296
▁heart	-10.7296
ziel	-10.7298
ix	-10.73
itātes	-10.73
▁occur	-10.7306
▁2012.	-10.7308
▁aukšt	-10.7308
▁Fällen	-10.7309
▁steigimo	-10.7312
▁Island	-10.7313
▁Punkt	-10.7313
ее	-10.7314
▁farm	-10.7315
▁Vertrags	-10.7316
ajan	-10.7317
▁1991	-10.7318
▁März	-10.7318
▁sagatavo	-10.7318
▁seuraavasti	-10.7319
▁galutin	-10.732
antis	-10.7322
cur	-10.7324
rac	-10.7324
schlag	-10.7324
▁Haluan	-10.7326
▁pateik	-10.7326
▁Za	-10.7327
▁teki	-10.7331
▁robež	-10.7332
lig	-10.7336
ettava	-10.7337
▁lang	-10.7342
▁мира	-10.7343
▁opportunity	-10.7346
usten	-10.7347
▁substance	-10.7349
teilung	-10.735
▁behandelt	-10.7351
ист	-10.7351
▁produkto	-10.7356
▁nepie	-10.7358
▁verbindlich	-10.7358
▁деятельности	-10.7358
▁elektron	-10.7358
▁seura	-10.7359
▁notiek	-10.7361
▁tul	-10.7363
▁Injektion	-10.7364
▁iesniedz	-10.7365
lung	-10.7366
kad	-10.7368
▁Dan	-10.737
▁Protokoll	-10.7371
▁kū	-10.7374
▁plāno	-10.7376
aciją	-10.7376
▁pane	-10.7382
▁zeigt	-10.7383
▁kaubandus	-10.7383
▁prekių	-10.7384
▁kitą	-10.7385
pea	-10.7386
▁документ	-10.7386
▁subparagraph	-10.7387
▁size	-10.7388
tyy	-10.7389
schluss	-10.739
▁sanoi	-10.739
▁preču	-10.7391
isesta	-10.7393
▁prad	-10.7395
▁ship	-10.7395
selben	-10.7399
53	-10.7399
▁išsi	-10.74
▁fat	-10.74
▁bereit	-10.7401
▁з	-10.7403
▁fr	-10.7403
lichkeit	-10.7404
▁seuraava	-10.7406
▁priklauso	-10.7407
weit	-10.7408
▁juhi	-10.7408
▁reng	-10.7411
ает	-10.7412
trop	-10.7412
▁2002.	-10.7412
▁Tä	-10.7413
▁Person	-10.7416
▁lietošanu	-10.7419
▁(7)	-10.742
▁tavalla	-10.7422
▁lääke	-10.7424
▁märk	-10.7424
ру	-10.7426
cion	-10.7429
▁indem	-10.7429
▁often	-10.7429
burg	-10.743
ency	-10.743
▁asjaolu	-10.7432
raud	-10.7432
▁них	-10.7432
▁Verbesserung	-10.7434
▁Höhe	-10.7434
▁lääkevalmiste	-10.7434
▁reflect	-10.7435
RI	-10.7437
▁teises	-10.7437
▁Mitglieder	-10.7438
▁mene	-10.7439
oci	-10.7439
ētas	-10.7439
▁intra	-10.744
▁understand	-10.7444
▁led	-10.7445
▁contribution	-10.7456
▁half	-10.7456
dyti	-10.7456
lab	-10.7456
nov	-10.7457
▁tokių	-10.7461
▁vie	-10.7461
▁leave	-10.7465
ālā	-10.7466
isessa	-10.747
dzi	-10.7471
▁хорошо	-10.7472
▁sistemą	-10.7472
▁iegūt	-10.7472
▁Ireland	-10.7474
eerimis	-10.7474
ceļ	-10.7476
▁cross	-10.7476
▁PIE	-10.7477
▁maintain	-10.7477
▁materials	-10.7478
▁skaičius	-10.748
▁marketing	-10.7484
▁vastaa	-10.7485
▁05	-10.7488
▁enough	-10.749
▁published	-10.7491
цион	-10.7492
▁avalda	-10.7492
▁toivo	-10.7493
▁previous	-10.7493
āna	-10.7493
▁analüüsi	-10.7494
▁actually	-10.7494
▁visās	-10.7495
▁которая	-10.7496
▁syö	-10.7498
MP	-10.7499
▁Vabariigi	-10.7499
▁доклад	-10.7503
prāt	-10.7503
▁consideration	-10.7505
▁nodokļu	-10.7505
▁laikas	-10.7506
▁mais	-10.7507
▁release	-10.7509
▁valtio	-10.7509
▁viimase	-10.7511
dab	-10.7513
▁atžvilgiu	-10.7513
cc	-10.7516
▁radi	-10.7519
īšanas	-10.752
.5.	-10.7521
endus	-10.7522
sign	-10.7522
▁Stunden	-10.7523
▁Kredit	-10.7523
▁parts	-10.7523
▁dienu	-10.7524
▁laikotarpiu	-10.7525
haft	-10.7527
▁õigusaktide	-10.7527
▁programmas	-10.7527
▁Vergleich	-10.7527
▁cita	-10.7528
▁domestic	-10.7529
лет	-10.7529
▁structure	-10.753
▁procedūra	-10.7531
▁aknu	-10.7531
вин	-10.7534
ējo	-10.7534
▁Finanzierung	-10.7536
ėli	-10.754
führung	-10.7543
▁agreements	-10.7544
▁mai	-10.7545
▁skaits	-10.7549
tol	-10.7549
char	-10.755
St	-10.7551
staat	-10.7554
▁Conference	-10.7554
▁tunni	-10.7557
ид	-10.7557
ndatud	-10.7557
gesichts	-10.7558
▁Erklärung	-10.756
▁tender	-10.7561
▁organisation	-10.7563
CP	-10.7565
▁nurodyti	-10.7566
▁esindaja	-10.7569
▁punkt	-10.7569
вал	-10.7571
▁aktus	-10.7571
▁kehtesta	-10.7574
▁away	-10.7574
▁gli	-10.7577
▁exist	-10.7584
▁ever	-10.7585
▁team	-10.7589
▁allerdings	-10.7589
▁uute	-10.7591
▁require	-10.7591
zent	-10.7591
▁skin	-10.7592
▁Ч	-10.7593
▁contains	-10.7595
▁Comb	-10.7596
▁Де	-10.7596
weisen	-10.7597
▁Artikels	-10.7598
▁volume	-10.7599
▁Mer	-10.7602
▁kokkuleppe	-10.7602
▁comply	-10.7603
rich	-10.7603
▁customs	-10.7604
▁th	-10.7606
šiem	-10.7607
säännö	-10.7607
жу	-10.7607
pli	-10.7607
овать	-10.7608
▁IntronA	-10.761
▁abil	-10.7611
▁sistēma	-10.7611
▁Rights	-10.7615
▁took	-10.7619
▁indicated	-10.7624
ans	-10.7624
▁enintään	-10.7625
▁atlikt	-10.7625
▁einge	-10.7626
енных	-10.7627
▁paket	-10.7629
▁liegen	-10.7631
▁manufacturer	-10.7631
▁kansalais	-10.7634
▁europäische	-10.7634
▁clearly	-10.7636
korra	-10.7636
▁800	-10.7636
▁hervor	-10.7638
▁fen	-10.7638
▁kompetentā	-10.7639
lių	-10.7639
▁се	-10.764
▁pats	-10.764
▁Nicht	-10.7641
▁insulino	-10.7641
▁renal	-10.7643
▁keel	-10.7645
▁tõhusa	-10.7645
▁Health	-10.7648
▁dati	-10.7649
▁82	-10.765
ono	-10.765
siin	-10.7651
▁samazināt	-10.7651
лы	-10.7655
▁immediately	-10.766
▁House	-10.7662
▁pareng	-10.7663
dauer	-10.7664
nnut	-10.7665
▁rates	-10.7666
▁fo	-10.7667
▁inkstų	-10.7671
▁piemērojama	-10.7672
▁līdzekļu	-10.7673
чен	-10.7674
▁faktori	-10.7676
▁Ter	-10.7677
▁gydymą	-10.7677
▁arvan	-10.7678
▁Preis	-10.7679
ntys	-10.7679
▁Articles	-10.7682
slēg	-10.7685
▁tietoja	-10.7688
tukset	-10.7692
▁66	-10.7694
▁Las	-10.7695
▁Organisation	-10.7696
position	-10.7697
bericht	-10.7697
▁Ze	-10.7698
ēšana	-10.77
▁piešķir	-10.77
▁mõjuta	-10.77
▁bas	-10.7702
The	-10.7704
▁alati	-10.7707
▁takaisin	-10.7709
ksen	-10.7712
ettu	-10.7713
▁Parties	-10.7715
▁palvelu	-10.7715
▁nozarē	-10.7715
▁shown	-10.7716
▁Verpflichtungen	-10.7717
▁severe	-10.7717
▁yhteistyö	-10.7717
▁Enbrel	-10.7721
▁reasons	-10.7722
pot	-10.7724
▁risku	-10.773
eti	-10.773
▁gewährleisten	-10.7731
▁tuonti	-10.7731
▁insulīna	-10.7732
▁pašu	-10.7733
▁этим	-10.7734
ious	-10.7734
▁hänet	-10.7734
бор	-10.7734
▁loss	-10.7735
▁sonstige	-10.7736
▁Ст	-10.7738
▁cilvēkiem	-10.7738
▁ota	-10.7739
nom	-10.7748
uksiin	-10.7748
▁todella	-10.7751
reichen	-10.7757
▁Ukraine	-10.7757
€	-10.7757
ME	-10.7757
▁rahvusvahelise	-10.776
īja	-10.7761
▁Wort	-10.7762
kredit	-10.7763
etu	-10.7763
▁izteikt	-10.7765
uck	-10.7765
▁įvair	-10.7767
▁Kontroll	-10.7768
AL	-10.7769
▁peaksid	-10.777
▁kust	-10.7771
ux	-10.7771
▁kannalta	-10.7775
▁toimia	-10.7775
hvi	-10.7777
tön	-10.7778
▁determined	-10.7778
▁skirtu	-10.7778
▁parlamendi	-10.778
▁tiesiog	-10.778
▁disp	-10.7781
komitee	-10.7783
▁vērtības	-10.7784
prosessi	-10.7785
▁laste	-10.7786
▁rapporteur	-10.7788
▁teosta	-10.7789
▁šau	-10.779
▁bra	-10.779
▁päivän	-10.7791
▁joulukuuta	-10.7791
▁whose	-10.7791
▁Organ	-10.7792
▁Hiina	-10.7792
rig	-10.7794
▁vides	-10.7794
▁koskevien	-10.7795
▁separate	-10.7795
▁direktyvą	-10.7797
▁aega	-10.7798
▁Product	-10.78
▁paties	-10.7801
▁auszu	-10.7801
▁folgt	-10.7803
▁pet	-10.7804
▁pramonės	-10.7804
▁Inhalt	-10.7805
▁Eurooppa	-10.7807
▁tarptautin	-10.7809
▁words	-10.781
likud	-10.7811
▁samal	-10.7812
▁nothing	-10.7813
▁lietošana	-10.7813
▁naudojimo	-10.7813
▁Ac	-10.7814
Ā	-10.7814
uoto	-10.7819
iniais	-10.7819
▁veida	-10.7824
FI	-10.7827
се	-10.7829
jū	-10.7829
▁krit	-10.7829
▁authorised	-10.783
▁reduced	-10.7831
▁muka	-10.7831
ką	-10.7836
auk	-10.7837
▁Об	-10.7837
▁образом	-10.7839
▁voimme	-10.784
▁закон	-10.7841
ification	-10.7842
ētā	-10.7842
▁suuda	-10.7843
▁способ	-10.7844
▁biudžeto	-10.7845
▁neile	-10.7845
▁Wir	-10.7848
▁Poli	-10.7849
▁imtis	-10.785
▁mieltä	-10.7851
▁79	-10.7852
▁taikant	-10.7854
ление	-10.7855
statud	-10.7856
▁contribute	-10.7856
eben	-10.7857
▁Belgi	-10.7859
liz	-10.786
ttavat	-10.7861
NL	-10.7862
▁kito	-10.7864
▁т	-10.7864
inta	-10.7865
▁produkta	-10.7867
viä	-10.7867
▁skyrių	-10.7869
▁pitkä	-10.7871
▁tomēr	-10.7873
ban	-10.7874
▁Mitglied	-10.7875
▁Onko	-10.788
▁represent	-10.788
too	-10.7881
▁lay	-10.7881
▁Ky	-10.7882
ogeen	-10.7883
▁galimybę	-10.7883
time	-10.7884
maßnahmen	-10.7886
mato	-10.7888
▁103	-10.7888
rot	-10.7889
▁võt	-10.7892
▁Wer	-10.7893
zē	-10.7897
▁ii	-10.79
▁sinulla	-10.7901
дей	-10.7902
▁What	-10.7906
cr	-10.7906
▁Dia	-10.7907
▁didesnė	-10.7908
▁tunnus	-10.7909
▁состав	-10.7912
▁atbalsts	-10.7912
▁pik	-10.7913
▁observed	-10.7914
▁šiuos	-10.7917
▁tootmis	-10.7917
▁4).	-10.7918
▁siia	-10.792
▁nieko	-10.7921
▁aru	-10.7921
▁del	-10.7921
▁(19	-10.7924
US	-10.7929
▁ūdens	-10.793
▁nais	-10.7932
▁igal	-10.7932
▁negative	-10.7935
▁vehicles	-10.7936
▁konkret	-10.7939
▁Kui	-10.794
▁riik	-10.7941
lust	-10.7944
▁paid	-10.7946
▁metais	-10.7948
▁nosacījumi	-10.7948
▁jõud	-10.7949
гл	-10.7949
▁deklar	-10.7949
-2-	-10.7952
▁esitada	-10.7953
enda	-10.7954
▁Bestimmung	-10.7954
▁kirjalikult	-10.7955
▁book	-10.7956
▁sisu	-10.7957
▁pielikumu	-10.7958
sehen	-10.7958
▁klo	-10.7959
▁centre	-10.7961
rai	-10.7961
IA	-10.7964
CS	-10.7965
▁iestāžu	-10.7968
▁žem	-10.7971
▁neil	-10.7973
▁exceed	-10.7973
damos	-10.7975
▁outside	-10.7978
▁näy	-10.7979
нима	-10.7979
▁septembri	-10.798
▁tirgu	-10.7981
▁letter	-10.7982
▁него	-10.7983
▁Position	-10.7983
▁Produkt	-10.7984
▁ch	-10.7986
mail	-10.7986
dienste	-10.7988
▁nuostatų	-10.799
▁palīdzību	-10.7992
▁teisi	-10.7992
▁condition	-10.7993
▁jäsenvaltiot	-10.7993
▁130	-10.7996
▁panaši	-10.7998
▁įgyvendinti	-10.8
▁symptoms	-10.8001
▁terapijas	-10.8003
тов	-10.8004
lip	-10.8004
▁dort	-10.8005
sverfahren	-10.8009
▁pädeva	-10.8011
▁produced	-10.8012
▁vēlāk	-10.8014
▁täielikult	-10.8014
schein	-10.8014
▁Herstellung	-10.8015
▁pārbaudes	-10.8015
ttanut	-10.8015
▁Standard	-10.8016
▁kiit	-10.802
▁ин	-10.8021
cess	-10.8021
kaal	-10.8022
▁mees	-10.8026
ological	-10.8027
▁draud	-10.8031
tauti	-10.8033
▁regime	-10.8033
cijos	-10.8034
▁tähendab	-10.8036
▁Africa	-10.8037
▁орган	-10.8038
ela	-10.8039
▁Wirtschaft	-10.8039
▁вопрос	-10.804
anz	-10.8043
▁Meinung	-10.8043
▁kuriame	-10.8046
ooni	-10.805
▁вос	-10.805
▁hol	-10.8052
▁American	-10.8052
▁tegelikult	-10.8054
▁Anna	-10.8055
▁arrangements	-10.8057
▁sales	-10.8058
дет	-10.8063
ymą	-10.8067
▁tuotanto	-10.8069
луч	-10.8071
▁Management	-10.8073
Eiropa	-10.8076
▁Savienībā	-10.8077
SI	-10.8078
▁actions	-10.8078
nenud	-10.8079
▁veids	-10.8079
▁obligations	-10.808
▁toimet	-10.808
▁kontroll	-10.8082
▁jāveic	-10.8083
mini	-10.8084
▁bevor	-10.8087
▁šalys	-10.8087
järjestelmä	-10.8088
▁MÜÜGILOA	-10.809
▁lau	-10.8091
q	-10.8091
▁merkittävä	-10.8092
▁sabiedrības	-10.8093
ozė	-10.8095
▁siduv	-10.8096
neiden	-10.8096
▁kõikides	-10.8097
▁movement	-10.8098
aste	-10.8098
“)	-10.81
▁глав	-10.8101
▁случае	-10.8101
ette	-10.8102
▁atnaujin	-10.8103
kust	-10.8104
▁preparation	-10.8104
▁asutus	-10.8104
▁kri	-10.8105
чита	-10.8105
▁grūt	-10.8105
tinės	-10.811
▁thought	-10.8111
▁социальн	-10.8112
/2006	-10.8112
▁šādas	-10.8112
▁neli	-10.8114
▁decide	-10.8114
▁Kapital	-10.8115
▁deutlich	-10.8116
▁tapauksessa	-10.8118
kio	-10.8119
▁Teilen	-10.812
CO	-10.812
leg	-10.8122
▁border	-10.8122
kuju	-10.8122
▁toetus	-10.8123
▁Interesse	-10.8125
werk	-10.8126
▁78	-10.8128
▁valdkonnas	-10.8135
▁Tier	-10.8137
▁annoksen	-10.8139
▁tolli	-10.8139
450	-10.8142
cas	-10.8143
▁visose	-10.8143
▁kodanike	-10.8144
▁asu	-10.8144
▁vähe	-10.8144
▁uzskatu	-10.8144
▁vaikutus	-10.8145
▁sina	-10.8146
liini	-10.8146
▁Joint	-10.8147
▁reguleeri	-10.8149
▁consumption	-10.815
▁follow	-10.8151
▁Kir	-10.8151
▁luettelo	-10.8152
▁rec	-10.8152
pū	-10.8152
▁dibināšanas	-10.8152
iuose	-10.8154
▁oikea	-10.8159
▁Pakistan	-10.816
▁мой	-10.8163
▁compliance	-10.8164
▁weit	-10.8164
▁81	-10.8164
ped	-10.8164
ušas	-10.8165
▁tähelepanu	-10.8165
tinių	-10.8165
▁nepri	-10.8167
▁kiekį	-10.8169
nat	-10.817
tused	-10.8172
essen	-10.8172
▁threat	-10.8173
▁eksportē	-10.8174
▁enää	-10.8175
CAS	-10.8176
▁olevien	-10.818
järjestely	-10.818
tegevuse	-10.8181
EM	-10.8182
▁тех	-10.8184
uutta	-10.8189
ик	-10.8189
Г	-10.8196
tten	-10.8196
muut	-10.8197
▁numero	-10.8197
▁Gesellschaft	-10.8198
▁foto	-10.8198
▁tādēļ	-10.82
▁bringen	-10.82
соответствии	-10.8202
▁stage	-10.8204
▁Wert	-10.8205
rück	-10.8206
▁suggest	-10.8209
▁keskmise	-10.821
▁kuud	-10.821
ndid	-10.821
▁trombo	-10.8211
▁receive	-10.8212
▁ком	-10.8212
▁Betrieb	-10.8213
▁wa	-10.8213
ey	-10.8217
▁road	-10.8218
erzeugnisse	-10.8218
▁US	-10.8219
ится	-10.8219
▁IX	-10.822
RT	-10.822
ons	-10.822
▁yhteisö	-10.822
▁unabhängig	-10.8223
▁joprojām	-10.8225
пе	-10.8228
▁reglamentu	-10.8234
▁vajadzīga	-10.8235
▁leicht	-10.8235
▁Ö	-10.8236
MO	-10.8237
важ	-10.8237
▁gegužės	-10.824
▁kauppa	-10.824
▁kasutamine	-10.8241
ambi	-10.8241
3%	-10.8242
▁parą	-10.8243
▁ничего	-10.8243
frei	-10.8246
▁izveidot	-10.825
AK	-10.8254
▁sinulle	-10.8255
oksen	-10.8256
▁erforderlichen	-10.8256
чет	-10.8256
▁step	-10.8259
▁eu	-10.8261
▁negu	-10.8262
vuoro	-10.8262
▁professional	-10.8265
йте	-10.8267
▁huvi	-10.8268
▁vakava	-10.827
▁refund	-10.8272
ktor	-10.8272
▁seuraavat	-10.8274
non	-10.8276
▁хотел	-10.8279
▁Zukunft	-10.828
▁agreed	-10.8281
gesetzt	-10.8281
▁Seepärast	-10.8282
▁technology	-10.8282
▁overall	-10.8283
▁Rechte	-10.8283
▁hakka	-10.8283
ISTRĀCIJAS	-10.8284
▁syy	-10.8286
▁Str	-10.8287
▁vaara	-10.8288
5)	-10.8289
▁submit	-10.8289
▁pakuotės	-10.8291
▁glaube	-10.8295
iama	-10.8297
uotas	-10.8297
cycl	-10.83
чно	-10.8301
▁festgesetzt	-10.8301
andi	-10.8302
▁puh	-10.8302
▁big	-10.8303
CC	-10.8304
▁objective	-10.8304
▁ietekmi	-10.8309
▁pranešimą	-10.8309
▁Far	-10.831
▁informē	-10.8311
▁trump	-10.8314
▁šodien	-10.8314
▁kuinka	-10.8315
нибудь	-10.8318
▁буду	-10.8318
▁programos	-10.8318
trakt	-10.8319
▁institution	-10.832
ttujen	-10.8321
isista	-10.8321
▁2001.	-10.8322
▁Taigi	-10.8327
▁nädala	-10.8328
iņu	-10.8328
▁esat	-10.8329
▁developed	-10.833
centr	-10.8335
▁joten	-10.8336
▁сделал	-10.8338
▁людей	-10.834
umb	-10.834
▁negotiations	-10.8342
▁väline	-10.8342
ED	-10.8343
▁teine	-10.8344
▁bro	-10.8346
еть	-10.8347
▁anksčiau	-10.8349
▁Kre	-10.8351
▁jeden	-10.8352
▁Kriterien	-10.8352
▁tasandil	-10.8352
▁enable	-10.8355
mės	-10.8356
▁death	-10.8356
lliset	-10.8357
казал	-10.8357
▁määrata	-10.836
▁holding	-10.8363
▁eksport	-10.8363
▁sutarties	-10.8364
▁nurodytų	-10.8367
tarif	-10.8367
ēd	-10.8368
▁hiper	-10.8369
▁vaikams	-10.8369
zeug	-10.8372
▁Gar	-10.8372
pha	-10.8373
▁encourage	-10.8374
▁currently	-10.8375
▁soovitus	-10.8377
▁lack	-10.8377
▁questions	-10.8381
▁vaata	-10.8384
▁providing	-10.8387
▁kaalu	-10.8388
isiert	-10.8389
▁buteliuk	-10.8395
uosius	-10.8396
toa	-10.8396
▁volinik	-10.8396
▁76	-10.8399
▁arviointi	-10.84
▁kyseisen	-10.8402
▁Typ	-10.8402
▁Board	-10.8403
ooli	-10.8403
▁teave	-10.8404
kompens	-10.8405
betrieb	-10.8406
▁valmista	-10.8407
joje	-10.8407
▁gerade	-10.841
▁asema	-10.841
▁įmonių	-10.8413
cijas	-10.8415
▁bendrą	-10.8415
▁agenda	-10.8417
nei	-10.8417
▁gegeben	-10.8417
▁sw	-10.8418
▁alternative	-10.8418
führen	-10.8419
▁schriftlich	-10.8421
▁fla	-10.8424
▁Frist	-10.8424
liha	-10.8425
▁надо	-10.8425
7%	-10.8426
▁reizes	-10.8427
▁Ukraina	-10.8429
92/	-10.8429
sätze	-10.843
▁sastāv	-10.8431
▁padėti	-10.8433
▁strateegia	-10.8434
▁4.2	-10.8434
▁proposals	-10.8436
▁Arab	-10.8437
MI	-10.8437
▁community	-10.8439
бра	-10.844
▁beobachtet	-10.844
max	-10.8441
▁loetletud	-10.8441
▁valmiste	-10.8443
▁tukea	-10.8443
▁Kopienā	-10.8445
▁padaryti	-10.8447
rö	-10.8447
▁ettevõtte	-10.8448
▁cukura	-10.845
▁moodusta	-10.8452
▁Mrs	-10.8457
▁Korea	-10.8458
▁jautājums	-10.8459
uh	-10.846
▁hall	-10.846
▁mü	-10.8461
▁Verfügung	-10.8461
▁climate	-10.8462
▁komisār	-10.8463
▁didn	-10.8464
▁atļaut	-10.8464
rek	-10.8465
▁French	-10.8466
▁euroa	-10.8466
lassen	-10.8466
EÜT	-10.847
▁laadi	-10.8471
▁Vertreter	-10.8471
▁projekti	-10.8472
▁liiga	-10.8472
▁acid	-10.8474
▁её	-10.8474
iešu	-10.8475
▁pasirink	-10.8479
dro	-10.848
▁PRI	-10.848
lase	-10.8483
liec	-10.8483
▁Sozial	-10.8486
▁резолюции	-10.8487
▁function	-10.8487
folge	-10.849
inys	-10.849
fri	-10.8491
▁Lai	-10.8491
▁anderer	-10.8492
шли	-10.8494
▁įraš	-10.8494
▁blok	-10.8494
IL	-10.8495
▁night	-10.8496
▁lukien	-10.8496
▁kalastus	-10.8497
▁sätete	-10.8498
▁kanta	-10.8499
▁tikrų	-10.8506
▁house	-10.8507
▁aruande	-10.851
▁hoita	-10.8511
▁laikotarpį	-10.8511
▁veiklą	-10.8511
зв	-10.8513
▁komponent	-10.8514
-5	-10.8515
▁haluan	-10.8516
wirtschaft	-10.8516
▁John	-10.8518
het	-10.8518
▁perustamis	-10.852
▁сделать	-10.852
▁teeb	-10.8524
▁Ken	-10.8526
▁formal	-10.8526
▁jāpa	-10.853
▁Medi	-10.8531
▁sotsiaal	-10.8533
▁Ihr	-10.8534
▁exercise	-10.8536
▁wobei	-10.8537
▁expenditure	-10.8541
▁laikin	-10.8541
▁Herz	-10.8542
▁па	-10.8543
▁flow	-10.8547
MS	-10.8549
▁visiems	-10.8549
▁измен	-10.8551
▁reikalavimai	-10.8554
▁koostööd	-10.8554
▁refer	-10.8556
▁klinischen	-10.8558
▁Komm	-10.8558
sicherheit	-10.8562
llisia	-10.8562
▁voida	-10.8566
▁ohutus	-10.8567
rik	-10.8567
▁vorgelegt	-10.8569
▁methods	-10.857
▁Kombination	-10.857
kom	-10.8571
▁tvirt	-10.8574
mul	-10.8577
▁Director	-10.8577
▁kepenų	-10.8579
▁mut	-10.8579
AR	-10.8582
▁failure	-10.8582
▁voima	-10.8583
▁Änderungen	-10.8584
AP	-10.8584
▁Dosierung	-10.8585
▁suteikti	-10.8597
▁Sir	-10.8599
▁grozījumi	-10.86
▁Spe	-10.8601
▁сегодня	-10.8604
niai	-10.8605
▁sustainable	-10.8607
zel	-10.8607
▁kuigi	-10.8609
▁võrreldes	-10.861
▁teritorijā	-10.8611
psi	-10.8612
unk	-10.8612
vest	-10.8612
▁johon	-10.8612
▁piir	-10.8614
▁Ре	-10.8615
▁samaa	-10.8615
▁tokios	-10.8615
ators	-10.8617
auto	-10.8619
▁skaidri	-10.8619
▁Ка	-10.862
▁teid	-10.862
▁valitsus	-10.8621
▁menetlus	-10.8621
opa	-10.8623
žas	-10.8624
▁vielas	-10.8626
▁kuukauden	-10.8628
▁tuote	-10.8628
▁lü	-10.8629
īda	-10.8629
▁taisyklių	-10.8633
▁(0,	-10.8634
▁tegele	-10.8634
▁stress	-10.8634
zie	-10.8635
▁adoption	-10.8636
▁mol	-10.8637
▁geb	-10.8637
▁item	-10.8638
kogu	-10.8639
▁Men	-10.8639
▁pradėti	-10.8641
▁aivan	-10.8641
гу	-10.8641
īti	-10.8642
▁160	-10.8642
▁miljardi	-10.8647
▁Haut	-10.865
▁jälgi	-10.8651
TR	-10.8651
▁seuraa	-10.8652
uosi	-10.8654
▁add	-10.8654
▁Kat	-10.8657
▁mobil	-10.8659
ett	-10.8663
▁Madam	-10.8664
▁jāie	-10.8665
▁ettevõtja	-10.8668
omas	-10.8669
▁august	-10.8669
▁statistika	-10.867
▁IP	-10.8671
▁fünf	-10.8672
▁liiku	-10.8676
ож	-10.8677
▁miljoni	-10.868
▁laati	-10.8682
uudesta	-10.8682
▁Q	-10.8684
čius	-10.8685
▁toinen	-10.8687
▁relation	-10.8688
▁kava	-10.8689
▁projekta	-10.8691
▁saņēm	-10.8692
kių	-10.8693
▁anna	-10.8694
▁serum	-10.8696
pēt	-10.8696
▁leidinyje	-10.8698
▁neiz	-10.8699
kv	-10.87
▁organizations	-10.87
▁pakeisti	-10.8701
▁Tabelle	-10.8702
прос	-10.8702
nieku	-10.8704
▁susijusios	-10.8704
ģe	-10.8706
▁applications	-10.8706
▁esant	-10.8707
▁seko	-10.8707
sal	-10.8708
heim	-10.8708
liik	-10.871
▁täytyy	-10.8711
▁kitais	-10.8711
▁liian	-10.8711
▁noriu	-10.8712
▁English	-10.8713
imp	-10.8713
plat	-10.8716
▁hydro	-10.8717
▁käsittely	-10.8717
▁mentioned	-10.8718
prat	-10.8719
kardi	-10.8719
▁Authority	-10.872
▁festgestellt	-10.8721
9)	-10.8723
▁arvates	-10.8723
▁loa	-10.8724
▁gadiem	-10.8724
ден	-10.8726
▁vorgesehen	-10.8726
▁etu	-10.8727
▁Studie	-10.8727
▁jäsenvaltio	-10.8729
sort	-10.8729
▁varas	-10.8729
кс	-10.8731
▁проблем	-10.8732
kiu	-10.8733
▁ViraferonPeg	-10.8733
▁над	-10.8736
мы	-10.8741
▁Sen	-10.8743
ėjai	-10.8748
▁своих	-10.8748
▁tõsi	-10.8748
▁discussion	-10.8748
▁veidu	-10.8748
lor	-10.8749
cho	-10.8752
▁%.	-10.8755
▁jaunā	-10.8755
▁häntä	-10.8756
▁susitik	-10.8757
rand	-10.8757
komp	-10.8759
▁korras	-10.876
▁priemonė	-10.876
tul	-10.8764
tanud	-10.8766
▁happen	-10.8767
▁пункт	-10.8769
▁järgmise	-10.877
▁saata	-10.877
lēm	-10.8771
elta	-10.8771
ya	-10.8772
ете	-10.8772
▁tarvittaessa	-10.8773
500	-10.8774
▁paredzēti	-10.8775
▁лучше	-10.8776
▁näha	-10.8777
▁Monaten	-10.8777
▁tänään	-10.8778
▁vapaa	-10.8778
▁высок	-10.8779
▁duties	-10.8781
▁suurenda	-10.8781
▁Mag	-10.8783
▁piedāvā	-10.8783
SV	-10.8783
▁tulla	-10.8783
▁näitä	-10.8784
▁wollte	-10.8785
tapa	-10.8787
▁которых	-10.8789
preise	-10.879
▁gestellt	-10.879
▁sähkö	-10.879
▁space	-10.8791
ppu	-10.8791
ять	-10.8794
▁alt	-10.8794
▁koskee	-10.8796
sorb	-10.8797
▁Bei	-10.8797
Pro	-10.8799
▁korralda	-10.8799
▁novembri	-10.8804
▁saavuta	-10.8805
hk	-10.8806
▁всем	-10.8806
▁everything	-10.8806
CT	-10.8807
▁päivää	-10.8807
yö	-10.8808
▁период	-10.881
▁sand	-10.881
жен	-10.8813
cē	-10.8813
▁Iz	-10.8815
нее	-10.8816
гра	-10.8819
▁ni	-10.882
inant	-10.8821
▁paskirt	-10.8822
pide	-10.8822
▁darin	-10.8825
▁Kommissar	-10.8827
▁compared	-10.8829
▁teinud	-10.8829
lg	-10.883
täht	-10.8831
▁initial	-10.8833
▁tarjo	-10.8834
")	-10.8836
▁workers	-10.8837
▁šīm	-10.8837
▁žmonėms	-10.8838
▁võime	-10.8838
▁taotle	-10.8839
geben	-10.884
prot	-10.8841
▁duomenis	-10.8842
šas	-10.8842
DP	-10.8843
viir	-10.8844
stamise	-10.8845
▁bleiben	-10.8845
oita	-10.8848
faktor	-10.885
▁pärit	-10.885
-3	-10.8853
iniams	-10.8854
▁Qualität	-10.8854
hem	-10.8854
fect	-10.8857
▁minulle	-10.8857
ero	-10.8859
▁nõuetele	-10.8861
gą	-10.8861
sum	-10.8864
▁EC	-10.8865
▁notification	-10.8865
▁käsitle	-10.8868
▁дня	-10.887
kül	-10.8871
2%	-10.8874
▁dz	-10.8877
ями	-10.8877
▁komitetas	-10.8878
uok	-10.8879
ained	-10.8882
▁designed	-10.8883
lais	-10.8884
▁asutuste	-10.8887
▁store	-10.8888
▁põhimõtte	-10.8888
▁päevas	-10.8889
KP	-10.8891
тся	-10.8893
▁sāk	-10.8894
▁136	-10.8894
bereich	-10.8895
▁zinām	-10.8896
▁zugelassen	-10.8896
▁formul	-10.8897
▁Sha	-10.8897
▁vaati	-10.8899
▁kainos	-10.8899
▁pakk	-10.89
▁Besondere	-10.89
▁lääkäri	-10.89
▁kuriais	-10.8902
▁vienmēr	-10.8902
eren	-10.8903
▁vajalikud	-10.8905
NR	-10.8906
▁Seega	-10.8907
legung	-10.8908
▁vahetult	-10.8909
EF	-10.8909
▁history	-10.8909
ded	-10.891
▁rent	-10.891
▁įgyvendin	-10.8911
öl	-10.8911
▁sveik	-10.8913
▁grupa	-10.8913
ovi	-10.8915
▁practice	-10.8915
▁partneri	-10.8916
▁Sub	-10.8917
nach	-10.8918
▁visai	-10.8919
▁varu	-10.8919
▁PegIntron	-10.892
handel	-10.8921
varu	-10.8923
▁sunku	-10.8926
▁paar	-10.8926
▁milk	-10.8927
▁atrodas	-10.8934
▁svarbus	-10.8935
▁savaitę	-10.8935
zija	-10.8936
▁finansų	-10.8938
▁otetaan	-10.8938
tuksia	-10.8941
68/	-10.8941
▁должна	-10.8943
▁erheblich	-10.8945
▁domā	-10.8949
щи	-10.895
▁laying	-10.8952
▁processing	-10.8954
▁Schritt	-10.8955
eten	-10.8955
▁geltenden	-10.8957
▁complete	-10.8957
▁Amt	-10.8958
▁samas	-10.8959
▁objekt	-10.8959
spar	-10.896
▁serve	-10.8961
iinin	-10.8961
ču	-10.8963
bor	-10.8963
▁reiškia	-10.8963
▁commercial	-10.8963
▁species	-10.8963
OR	-10.8963
MA	-10.8963
▁э	-10.8965
▁kohas	-10.8965
тель	-10.8966
▁cilvēka	-10.8966
▁daudzumu	-10.8967
▁siht	-10.8968
▁adjustment	-10.8969
off	-10.8971
▁base	-10.8975
▁ciet	-10.8975
skaidr	-10.8975
▁suori	-10.8977
▁lähte	-10.8977
▁Code	-10.8979
▁išteklių	-10.898
▁trešā	-10.898
veic	-10.898
▁Совет	-10.898
ъ	-10.8981
▁käigus	-10.8982
▁liittyvä	-10.8984
▁tõus	-10.8986
▁свобод	-10.8986
šķī	-10.8986
▁nevis	-10.8988
▁presented	-10.8989
meni	-10.899
▁vienlaikus	-10.8991
▁klausimas	-10.8991
▁olulise	-10.8992
▁balt	-10.8996
atšķir	-10.8997
▁Transport	-10.8998
▁pasiekti	-10.8999
▁nepageidaujam	-10.9001
▁форм	-10.9001
▁annab	-10.9003
▁susiję	-10.9003
▁Vēstnesī	-10.9006
▁tahes	-10.9007
дав	-10.9009
▁68	-10.9009
vol	-10.9011
ībai	-10.9011
▁hyper	-10.9014
▁wegen	-10.9015
pak	-10.9016
majandus	-10.9016
gebiet	-10.9018
▁nichts	-10.9018
▁Совета	-10.9019
tritt	-10.9019
▁Ji	-10.902
mē	-10.9022
▁hind	-10.9023
▁aiheuttaa	-10.9023
▁aufgeführten	-10.903
vār	-10.903
▁kilpailu	-10.9032
až	-10.9035
▁carry	-10.9036
õl	-10.904
▁Mil	-10.9041
▁angenommen	-10.9041
▁Beispiel	-10.9041
▁užsi	-10.9043
▁Cor	-10.9043
▁Kenntnis	-10.9043
▁kunagi	-10.9043
lieto	-10.9046
▁bad	-10.9046
▁UK	-10.9047
▁kiekio	-10.9053
1%	-10.9054
▁Sektor	-10.9054
▁Vorsicht	-10.9056
(4)	-10.9057
kää	-10.9058
▁spo	-10.9058
нь	-10.9061
▁addressed	-10.9061
hlor	-10.9062
▁themselves	-10.9062
▁minētā	-10.9062
▁Parlamentas	-10.9063
hun	-10.9063
▁97/	-10.9064
▁Romania	-10.9064
▁Che	-10.9065
▁testa	-10.9067
▁Festlegung	-10.9067
over	-10.9068
▁tonni	-10.9069
▁50%	-10.907
redz	-10.907
zī	-10.9072
reich	-10.9073
▁ligos	-10.9074
▁Resolution	-10.9075
tarp	-10.9075
▁assist	-10.9077
▁licences	-10.9077
bild	-10.9078
aid	-10.9079
glob	-10.908
fang	-10.9081
▁elektro	-10.9083
▁ELT	-10.9084
▁kredīt	-10.9084
▁pieni	-10.9084
▁liga	-10.9085
тив	-10.9085
rahasto	-10.9087
koja	-10.9089
▁pako	-10.909
▁efektyv	-10.9091
▁работы	-10.9092
▁ütles	-10.9092
▁viikon	-10.9093
app	-10.9094
▁kurz	-10.9094
▁drug	-10.9094
▁Überprüfung	-10.9095
▁kaota	-10.9097
▁Bas	-10.9098
▁Russian	-10.9098
▁104	-10.9102
imet	-10.9103
uotų	-10.9104
▁nebija	-10.9104
▁pārvadā	-10.9105
▁1%	-10.9106
▁ietekmē	-10.9109
▁rugsėjo	-10.911
▁име	-10.9112
▁akc	-10.9115
▁väike	-10.9117
▁Комитет	-10.9119
▁Па	-10.9121
aani	-10.9121
▁suoja	-10.9122
▁помощи	-10.9124
▁citā	-10.9124
ācijā	-10.9124
mbol	-10.9126
▁krā	-10.9128
▁otettava	-10.9128
lement	-10.9128
alus	-10.9129
▁valstīs	-10.9129
grup	-10.913
▁kyseise	-10.9132
▁cut	-10.9132
▁likely	-10.9132
voima	-10.9135
▁independent	-10.9138
▁З	-10.9138
▁naudojant	-10.9139
▁lapkričio	-10.9139
▁asins	-10.9141
▁Thema	-10.9142
emea	-10.9142
▁annetaan	-10.9144
▁expected	-10.9145
▁fruit	-10.9146
▁loom	-10.9146
▁Russland	-10.9148
▁progres	-10.9148
ėjau	-10.9149
▁travel	-10.915
▁seetõttu	-10.915
nčius	-10.915
rite	-10.9151
▁Komisiju	-10.9151
richten	-10.9153
oissa	-10.9154
▁Han	-10.9156
▁nustatoma	-10.9157
▁declaration	-10.9157
kaup	-10.9158
▁immun	-10.9162
▁tehnisk	-10.9162
▁einzige	-10.9162
▁olemassa	-10.9162
▁tegema	-10.9163
▁vēst	-10.9163
▁meaning	-10.9164
▁participation	-10.9165
▁Miksi	-10.9166
▁recommendations	-10.9168
esni	-10.9168
▁тоже	-10.9168
▁saugos	-10.9169
▁kontroli	-10.917
▁Em	-10.9171
▁Ро	-10.9171
▁соответствующи	-10.9171
▁Bro	-10.9172
minister	-10.9174
rink	-10.9174
▁jäsenvaltioissa	-10.9174
▁fonda	-10.9177
▁erlassen	-10.9177
▁pienen	-10.918
▁committee	-10.9181
▁Kontakt	-10.9181
▁Menschenrechte	-10.9183
▁kasutus	-10.9183
▁komissiolle	-10.9184
▁tehdyn	-10.9184
cro	-10.9187
▁patient	-10.9189
▁coming	-10.919
tinen	-10.9192
tische	-10.9193
▁übermittelt	-10.9194
▁tir	-10.9195
▁Teatajas	-10.9196
▁reakcijas	-10.9198
ansa	-10.92
▁Information	-10.92
ėme	-10.9202
eln	-10.9204
▁VÕ	-10.9204
▁pagamin	-10.9205
taria	-10.9205
▁skirta	-10.9206
▁loetelu	-10.9207
▁69	-10.9207
▁directive	-10.9208
▁įstatym	-10.921
▁sample	-10.9211
či	-10.9211
TNU	-10.9212
▁системы	-10.9212
▁saistīti	-10.9212
uksesta	-10.9214
stant	-10.9214
52	-10.9216
tz	-10.9216
ijų	-10.922
▁nosacījumiem	-10.9222
esi	-10.9223
▁вз	-10.9223
maž	-10.9224
ement	-10.9228
Se	-10.9231
▁Ausnahme	-10.9233
▁zālēm	-10.9234
▁balsoju	-10.9238
▁praneša	-10.9238
▁ü	-10.9238
kle	-10.924
▁Limited	-10.924
рен	-10.9241
ttamaan	-10.9244
▁švirkš	-10.9246
▁concern	-10.9246
▁kerro	-10.9248
▁Austria	-10.9248
idele	-10.925
rung	-10.9251
eita	-10.9251
ими	-10.9252
▁seega	-10.9254
▁problēmas	-10.9255
▁annust	-10.9256
ēts	-10.9259
▁writing	-10.926
▁finansiāl	-10.9262
▁option	-10.9262
loo	-10.9263
ием	-10.9265
▁päritolu	-10.9265
▁teikia	-10.9265
ils	-10.9267
▁Zi	-10.9269
▁vertės	-10.927
▁hü	-10.9271
уп	-10.9275
▁metal	-10.9275
▁Verwaltung	-10.9275
yri	-10.9276
ept	-10.9276
▁eng	-10.9278
▁Saksa	-10.9279
▁prezident	-10.9279
▁sumažinti	-10.9279
▁regions	-10.9279
▁tingimused	-10.9281
ināšana	-10.9282
▁adverse	-10.9282
cis	-10.9286
▁laeva	-10.9287
▁päivä	-10.9289
ELT	-10.9289
▁exposure	-10.9291
▁kokia	-10.9291
▁states	-10.9294
īdu	-10.9296
▁tinkamai	-10.9299
▁poly	-10.9301
▁häired	-10.9301
▁(6	-10.9302
▁hohe	-10.9304
▁pagrindin	-10.9304
▁illegal	-10.9304
ybė	-10.9306
▁artiklit	-10.9306
▁izstrādāt	-10.9307
▁zināt	-10.9308
▁Ph	-10.9308
▁Landes	-10.9309
▁pacienti	-10.9309
▁tro	-10.931
▁110	-10.9312
▁Sk	-10.9313
▁pacientai	-10.9315
gh	-10.9316
/10	-10.9317
ально	-10.9319
▁Vir	-10.932
▁super	-10.9322
▁paaugstināt	-10.9325
▁Jä	-10.9327
EP	-10.9327
▁aizsardzību	-10.9327
Š	-10.9327
▁York	-10.933
▁medical	-10.933
ināšanu	-10.933
▁üht	-10.9331
▁requested	-10.9333
▁asetuksessa	-10.9333
typ	-10.9334
▁ettevõtete	-10.9335
▁Wahl	-10.9336
▁diabet	-10.9338
▁sisälly	-10.9338
▁pol	-10.9339
▁privalo	-10.9341
īc	-10.9342
.9.	-10.9342
pien	-10.9343
▁rakenda	-10.9343
гла	-10.9344
▁adequate	-10.9345
▁energ	-10.9345
▁www	-10.9346
▁patsientide	-10.9347
▁ollen	-10.9348
uja	-10.9349
gener	-10.9351
▁majority	-10.9351
▁hatten	-10.9352
▁направлен	-10.9353
▁Fran	-10.9353
▁leisti	-10.9354
▁avaliku	-10.9356
▁eraldi	-10.9357
▁расс	-10.9358
▁Chinese	-10.9359
▁reactions	-10.9363
▁проект	-10.9363
maton	-10.9365
rew	-10.9368
menetelmä	-10.9369
▁tegemist	-10.9369
▁entirety	-10.937
▁programmu	-10.937
oxid	-10.9371
▁09	-10.9372
▁hävi	-10.9373
isti	-10.9373
rol	-10.9374
▁nolīguma	-10.9375
▁2014.	-10.9375
▁hold	-10.9376
▁saavu	-10.9377
▁voimaan	-10.9377
▁Parteien	-10.9378
koodi	-10.9379
▁pean	-10.9379
▁orient	-10.938
▁article	-10.9381
▁ру	-10.9384
▁top	-10.9384
īgas	-10.9385
▁applicant	-10.9387
▁Therapie	-10.9388
NS	-10.9388
ала	-10.9388
▁Mel	-10.9391
ez	-10.9392
▁2019	-10.9393
▁glu	-10.9394
▁reg	-10.9395
тра	-10.9399
summa	-10.9401
▁neuro	-10.9406
▁visām	-10.9406
▁Эй	-10.9407
▁saira	-10.9408
▁taotlus	-10.9409
ivät	-10.9412
▁Во	-10.9414
eiß	-10.9415
▁stāvokli	-10.9415
▁Ansicht	-10.9416
pir	-10.9417
▁kartus	-10.9418
▁nurodytos	-10.9418
▁saus	-10.9418
▁allein	-10.9418
PI	-10.9419
ления	-10.9419
▁hõlma	-10.942
▁kalt	-10.9421
annus	-10.9423
▁Verkehrs	-10.9424
▁Einklang	-10.9425
raha	-10.9425
suhte	-10.9427
▁verschiedenen	-10.9427
▁järgmine	-10.9429
▁balandžio	-10.9429
▁kart	-10.943
▁paprastai	-10.9431
▁arvoisa	-10.9431
▁pavad	-10.9432
AF	-10.9432
▁(4	-10.9432
apu	-10.9432
Ge	-10.9432
▁wider	-10.9433
▁grip	-10.9434
▁taiko	-10.9434
▁laikoma	-10.9436
▁боль	-10.9436
▁Oficiālaj	-10.9436
stada	-10.9437
▁Nē	-10.9441
▁möglicherweise	-10.9442
▁vajadzētu	-10.9443
▁noteikta	-10.9443
▁dumping	-10.9445
▁knowledge	-10.9446
džio	-10.9447
▁Bre	-10.9449
▁lip	-10.9449
▁Bezeichnung	-10.9449
ėjusi	-10.945
▁mokesčių	-10.9451
ada	-10.9451
▁tervikuna	-10.9453
▁girl	-10.9453
▁laiks	-10.9453
▁uuringu	-10.9453
▁eeskirjade	-10.9455
▁decided	-10.9457
mui	-10.9458
▁rib	-10.9459
▁Hy	-10.9461
▁page	-10.9462
ина	-10.9464
▁maiden	-10.9464
zz	-10.9465
▁großen	-10.9467
▁Estonia	-10.9468
sõidu	-10.9469
▁unit	-10.9472
десят	-10.9473
▁Sh	-10.9474
▁Asia	-10.9475
▁ebenfalls	-10.9476
atur	-10.9477
ciją	-10.9477
▁hemoglobiini	-10.9477
▁Millionen	-10.9478
udi	-10.9479
▁[7]	-10.9479
ней	-10.948
▁94	-10.9481
▁external	-10.9482
aktiv	-10.9482
▁virs	-10.9483
organ	-10.9483
▁Гр	-10.9483
ņi	-10.9485
▁author	-10.9486
stehen	-10.9486
▁dzīvo	-10.9492
▁def	-10.9492
▁EMP	-10.9493
▁määruses	-10.9494
iņas	-10.9494
▁protams	-10.9496
щих	-10.9497
▁suosi	-10.9499
▁hoch	-10.95
.“	-10.95
▁ātr	-10.9501
τ	-10.9502
āls	-10.9503
▁pir	-10.9503
▁language	-10.9503
▁signal	-10.9504
▁Respublikos	-10.9504
▁jāsa	-10.9509
kum	-10.9509
▁punkto	-10.951
▁neeru	-10.951
▁finance	-10.9512
oidu	-10.9516
▁true	-10.9518
stipr	-10.952
zep	-10.9521
spiegel	-10.9521
▁quantities	-10.9523
▁kredito	-10.9523
▁didesnis	-10.9524
▁rinką	-10.9524
▁obtained	-10.9525
MĖ	-10.9525
▁neį	-10.9525
▁sivu	-10.9527
▁asiassa	-10.9528
▁valu	-10.9529
▁ievad	-10.9531
▁pateikt	-10.9533
▁Park	-10.9533
juhtimis	-10.9534
▁Mindest	-10.9536
▁факт	-10.9537
inėje	-10.9537
▁leidžia	-10.9537
▁nekavējoties	-10.9539
Di	-10.9539
▁gentlemen	-10.954
Me	-10.9543
▁ühel	-10.9545
alen	-10.9546
▁ārstēšanas	-10.9546
▁žvejybos	-10.9546
▁fol	-10.9547
▁Gefahr	-10.9547
▁almost	-10.9548
tehingu	-10.9548
▁ausreichend	-10.9549
▁kuupäev	-10.9549
▁pateikta	-10.9549
▁pask	-10.9549
▁komand	-10.9549
äre	-10.955
ман	-10.9551
4%	-10.9551
arm	-10.9552
▁ravim	-10.9554
▁break	-10.9554
▁Dokument	-10.9555
▁situācija	-10.9555
▁jedes	-10.9555
▁via	-10.9555
▁Tatsache	-10.9556
▁minutes	-10.9557
▁lasten	-10.9558
▁Entschließung	-10.9558
gan	-10.9559
fach	-10.956
▁NATO	-10.956
▁lietu	-10.9562
▁Wirkstoff	-10.9564
▁She	-10.9564
▁сессии	-10.9565
cke	-10.9566
▁мер	-10.9567
▁5%	-10.9567
▁oficialiajam	-10.9567
▁einzelnen	-10.9567
▁kraujyje	-10.9568
inei	-10.9569
▁varat	-10.9569
▁теперь	-10.957
▁125	-10.957
▁ky	-10.9572
▁self	-10.9572
▁rezultātā	-10.9572
unter	-10.9572
9%	-10.9574
▁jūr	-10.9574
▁denke	-10.9574
▁yksityis	-10.9575
▁25%	-10.9576
▁matters	-10.9578
▁notice	-10.9579
▁aplinkos	-10.958
▁alueella	-10.9583
▁regulation	-10.9586
▁rodo	-10.9586
strādā	-10.9587
▁sotsiaalse	-10.9587
▁tragen	-10.9587
▁evaluation	-10.9588
▁tādā	-10.9588
uojama	-10.9589
tamisesta	-10.959
chlorid	-10.959
▁valvo	-10.9591
sugu	-10.9591
▁gute	-10.9591
▁järjest	-10.9593
imis	-10.9594
▁East	-10.9596
▁early	-10.9596
dosis	-10.9596
▁lielu	-10.9597
▁jāno	-10.9598
▁oktoobri	-10.9598
▁aloit	-10.9599
▁suteikia	-10.9599
▁Bestandteile	-10.96
▁norāda	-10.9601
цен	-10.9602
▁sä	-10.9602
▁regulations	-10.9602
lija	-10.9602
▁comments	-10.9603
vention	-10.9603
▁uuringus	-10.9604
▁edistä	-10.9607
▁figure	-10.9607
toliau	-10.9607
▁skatin	-10.961
▁damage	-10.9611
▁otsi	-10.9614
▁180	-10.9614
▁achieved	-10.9614
▁inimese	-10.9615
▁Central	-10.9615
▁rake	-10.9617
istus	-10.9619
▁Abkommens	-10.9619
jant	-10.9622
▁gesamten	-10.9623
projekt	-10.9624
▁sąlygų	-10.9624
▁selline	-10.9625
▁referent	-10.9625
gro	-10.9626
hed	-10.9628
▁рамках	-10.9633
kapital	-10.9636
▁scientific	-10.9636
▁eingeführt	-10.9636
amu	-10.9638
▁Ладно	-10.9639
▁valitse	-10.964
▁benefits	-10.964
▁päätty	-10.964
▁никогда	-10.9641
▁sonstigen	-10.9641
luse	-10.9642
▁MYYNTILUVAN	-10.9643
▁turiu	-10.9644
cit	-10.9645
▁hyvät	-10.9645
▁ди	-10.9645
▁income	-10.9646
ды	-10.9647
▁il	-10.9649
▁Monate	-10.9649
▁visā	-10.9651
▁stock	-10.9652
sar	-10.9652
▁Почему	-10.9653
▁poor	-10.9653
▁eh	-10.9653
▁programa	-10.9655
▁berücksichtigt	-10.9655
hoito	-10.9656
▁Leistung	-10.966
▁ero	-10.9661
▁Para	-10.9662
▁Interessen	-10.9662
ун	-10.9664
chung	-10.9664
▁koks	-10.9666
▁Preise	-10.9666
▁diplom	-10.9667
masta	-10.9667
▁unless	-10.9668
rind	-10.9669
▁Eli	-10.9669
&	-10.9669
gri	-10.9669
vies	-10.967
▁success	-10.967
▁staatliche	-10.967
▁sorry	-10.9672
▁tariff	-10.9672
Wirtschaftszweig	-10.9674
▁neu	-10.9675
▁nebe	-10.9677
▁sogar	-10.9678
▁anything	-10.9679
▁Gerb	-10.9681
▁medicines	-10.9681
▁jährlich	-10.9682
▁politiku	-10.9682
▁gab	-10.9682
▁paranda	-10.9686
▁(8)	-10.9686
▁tulu	-10.9688
существ	-10.9688
CE	-10.969
▁concluded	-10.9695
▁gehört	-10.9696
▁tuen	-10.9697
▁suurema	-10.9698
▁kannat	-10.9698
▁vaikuttaa	-10.9699
▁tahan	-10.9701
duse	-10.9702
ющие	-10.9702
niecības	-10.9703
▁šia	-10.9705
▁kõnealuste	-10.9705
▁ещё	-10.9705
▁Luft	-10.9706
une	-10.9707
▁jäsenvaltion	-10.9708
druck	-10.9708
▁millest	-10.9708
▁makro	-10.9709
▁tyrimai	-10.9709
▁sirds	-10.971
valiokunna	-10.9711
dies	-10.9712
▁Кон	-10.9712
▁financing	-10.9713
▁micro	-10.9714
▁blog	-10.9715
▁Erkrankungen	-10.9715
▁Menge	-10.9715
▁sek	-10.9715
amino	-10.9718
eur	-10.9718
gos	-10.9718
дол	-10.9719
▁labiau	-10.9719
▁che	-10.972
ukseen	-10.9721
▁esittelijä	-10.9726
oire	-10.9726
▁halten	-10.9726
мет	-10.973
▁sound	-10.9731
▁ilme	-10.9732
▁han	-10.9732
▁consultation	-10.9734
▁court	-10.9736
▁uuringutes	-10.9736
▁investor	-10.9737
aka	-10.9737
tojas	-10.9738
hat	-10.9743
fung	-10.9744
körper	-10.9745
▁Mitteilung	-10.9745
▁okay	-10.9746
iivi	-10.9746
▁Ol	-10.9747
▁Kollegen	-10.975
▁stay	-10.9751
▁There	-10.9752
▁Col	-10.9752
▁jotain	-10.9753
matta	-10.9754
▁ratkaisu	-10.9754
▁потому	-10.9755
▁erreichen	-10.9756
▁uus	-10.9756
лага	-10.9758
▁Königreich	-10.9758
▁vielu	-10.9759
ėję	-10.9759
▁expressed	-10.9759
▁nepriklauso	-10.9761
▁Comp	-10.9762
Berichterstatter	-10.9763
▁целях	-10.9763
▁Personal	-10.9765
▁ieguv	-10.9766
under	-10.9766
▁išsam	-10.9768
ejä	-10.9768
▁mor	-10.9768
▁taseme	-10.977
ora	-10.977
▁järeldus	-10.9771
fähig	-10.9771
▁source	-10.9771
ива	-10.9771
▁Siksi	-10.9776
▁protokolli	-10.9778
▁aptuveni	-10.9779
▁regulē	-10.9779
▁kaikissa	-10.9781
systems	-10.9781
▁uzraudzības	-10.9782
▁ierobežot	-10.9784
vahendite	-10.9784
ров	-10.9785
▁finansini	-10.9785
pic	-10.9786
▁Gi	-10.9786
yksiä	-10.9787
▁uudis	-10.9787
▁Mus	-10.9789
▁Annahme	-10.9789
▁Leber	-10.9789
6)	-10.979
▁selten	-10.9791
▁Ort	-10.9791
▁privalomas	-10.9793
▁стар	-10.9794
▁сообщ	-10.9795
vā	-10.9796
▁plėtros	-10.9797
ito	-10.9798
▁уровне	-10.9799
▁others	-10.98
.8.	-10.9801
▁job	-10.9802
iili	-10.9802
TP	-10.9802
OM	-10.9803
▁Beihilfen	-10.9804
ese	-10.9806
▁kolmandate	-10.9807
berg	-10.9807
▁note	-10.9808
▁viss	-10.9809
▁год	-10.9809
▁perusta	-10.981
▁statement	-10.981
yyden	-10.9811
ering	-10.9813
▁tund	-10.9816
▁Afrika	-10.9817
kiri	-10.9817
▁būtiski	-10.9818
▁человек	-10.9818
▁качестве	-10.9818
▁huomaut	-10.9819
rum	-10.982
ūra	-10.982
▁strādā	-10.9821
▁app	-10.9822
▁Einführung	-10.9822
▁monet	-10.9822
▁tahaksin	-10.9824
▁ladies	-10.9824
gaben	-10.9826
пол	-10.9826
ology	-10.9828
▁pasiūlymą	-10.983
▁keskus	-10.983
iks	-10.9834
▁ISO	-10.9834
▁feed	-10.9835
elis	-10.9835
▁loppu	-10.9835
ėjus	-10.9835
▁daryti	-10.9836
▁готов	-10.9838
Berücksichtigung	-10.9839
kim	-10.9839
▁dienų	-10.9841
▁тр	-10.9842
▁besondere	-10.9844
cular	-10.9845
▁festgelegten	-10.9848
▁toimub	-10.9848
▁gesch	-10.985
▁pakeitimais	-10.9852
нуть	-10.9852
▁eko	-10.9852
ец	-10.9853
▁attiecīgās	-10.9854
▁rev	-10.9855
bare	-10.9856
▁betrifft	-10.9856
auti	-10.9857
bus	-10.9857
lad	-10.986
▁paramos	-10.9861
nčią	-10.9862
ijai	-10.9862
▁kiiresti	-10.9863
▁Anpassung	-10.9867
▁Привет	-10.9867
fordern	-10.9869
▁kāds	-10.9869
▁kiekviena	-10.987
isiä	-10.987
työ	-10.9872
▁electronic	-10.9873
▁piisavalt	-10.9873
▁Anteil	-10.9875
▁minkä	-10.9877
▁Natur	-10.9878
▁Kä	-10.9879
▁dokumentu	-10.9879
▁Partner	-10.988
iki	-10.9881
▁ekonominės	-10.9882
▁tevi	-10.9883
▁billion	-10.9884
▁Demokratie	-10.9885
▁Sto	-10.9885
skie	-10.9886
▁throughout	-10.9886
▁elimin	-10.9886
EMEA	-10.9886
zar	-10.9887
▁zvejas	-10.9887
▁sign	-10.9887
tamaan	-10.9888
▁(<	-10.9888
▁problema	-10.989
▁Mission	-10.989
▁Kun	-10.989
▁пос	-10.9893
▁procesu	-10.9895
▁strengthen	-10.9895
īm	-10.9895
▁Saksamaa	-10.9896
▁Sonder	-10.9898
▁laikantis	-10.9898
▁recht	-10.9899
▁insgesamt	-10.99
▁implement	-10.9901
▁simptomi	-10.9905
▁seadus	-10.9905
▁такой	-10.9908
inās	-10.9909
▁kopējā	-10.991
▁haigus	-10.9913
▁сторон	-10.9914
▁Kau	-10.9915
darbo	-10.9915
hoid	-10.9916
▁tokie	-10.9918
▁kerto	-10.9919
▁democracy	-10.9919
▁paredzēto	-10.992
▁актив	-10.9922
ха	-10.9922
▁taikomi	-10.9923
▁berichtet	-10.9925
▁pripažin	-10.9925
▁wichtige	-10.9926
spaud	-10.9927
tājs	-10.9928
▁lõige	-10.9929
betroffenen	-10.9929
vaizd	-10.993
▁vajadzības	-10.9931
ically	-10.9933
▁vastavus	-10.9933
▁brauchen	-10.9934
pur	-10.9935
▁Briselē	-10.9935
▁пор	-10.9936
ara	-10.9943
▁correct	-10.9943
▁vielen	-10.9944
▁obwohl	-10.9944
втор	-10.9946
▁õiguse	-10.9947
ация	-10.9948
itud	-10.9948
isuutta	-10.9948
cept	-10.995
▁galvenokārt	-10.995
▁Belgia	-10.9951
▁ensimmäisen	-10.9952
▁assets	-10.9952
▁unterschiedlich	-10.9953
sive	-10.9953
▁ста	-10.9955
▁Hand	-10.9957
▁ikka	-10.9959
▁attiecīgajā	-10.9959
▁elements	-10.9959
▁vesel	-10.996
kui	-10.9961
▁josta	-10.9962
▁buy	-10.9965
▁жив	-10.9967
▁Initiative	-10.9967
eemia	-10.9968
ieties	-10.9968
eng	-10.9968
▁tests	-10.9968
▁circumstances	-10.9969
▁flight	-10.9969
-(	-10.9969
▁aiškiai	-10.9971
reaktsioon	-10.9974
▁reģistr	-10.9976
▁rakst	-10.9977
stāv	-10.9979
▁unterstützt	-10.998
▁samalla	-10.9981
▁īpaša	-10.9982
▁entsprechenden	-10.9985
abol	-10.9986
▁Sar	-10.9986
▁keegi	-10.9987
pes	-10.9989
▁CHMP	-10.9989
▁konsolid	-10.999
▁muß	-10.9991
од	-10.9992
▁vienti	-10.9992
struktur	-10.9993
▁Н	-10.9994
▁erste	-10.9995
▁description	-10.9996
▁til	-10.9996
▁Prä	-10.9998
▁grant	-11.0001
▁Geschäfts	-11.0003
MUSI	-11.0003
yyttä	-11.0003
niku	-11.0003
жива	-11.0005
вая	-11.0006
verkehr	-11.001
▁menetluse	-11.001
▁described	-11.0011
рак	-11.0012
▁äri	-11.0013
▁inhibitori	-11.0013
либо	-11.0016
tischen	-11.0017
▁siksi	-11.0018
ания	-11.0019
▁fish	-11.0021
▁nepār	-11.0021
▁Maßnahme	-11.0022
▁dot	-11.0023
▁valstis	-11.0023
▁Когда	-11.0024
▁privāt	-11.0024
ский	-11.0026
▁ensi	-11.0028
▁kohaldamise	-11.0029
▁pateikiama	-11.0029
▁turėti	-11.0029
▁цел	-11.0032
▁cukraus	-11.0033
▁pagaidu	-11.0033
ila	-11.0033
ists	-11.0034
▁rakstiski	-11.0036
tāji	-11.0036
sur	-11.0041
▁стороны	-11.0042
▁Ah	-11.0043
▁Lib	-11.0043
▁причин	-11.0044
acc	-11.0044
нут	-11.0045
▁ring	-11.0047
TS	-11.0049
▁administered	-11.005
▁virz	-11.005
▁bērnu	-11.0051
▁keda	-11.0053
▁įrody	-11.0058
▁jūnija	-11.0059
ttelu	-11.0059
gyven	-11.0059
77/	-11.006
▁eigenen	-11.0061
▁meisten	-11.0064
▁Iraq	-11.0065
fahren	-11.0065
▁nustato	-11.0066
игр	-11.0066
▁gebracht	-11.0067
▁dėmesį	-11.0067
▁mõtle	-11.0069
▁išlaidų	-11.007
▁sąlygomis	-11.0071
▁Flug	-11.0072
▁tärkei	-11.0072
▁су	-11.0074
▁īstenošanas	-11.0074
▁infection	-11.0075
▁extent	-11.0077
▁pasaules	-11.0078
▁pun	-11.0082
У	-11.0083
isella	-11.0085
▁sicherzustellen	-11.0085
▁Rom	-11.0085
▁laws	-11.0086
ybę	-11.0086
länder	-11.0086
▁ainu	-11.0087
▁grupā	-11.0088
0%	-11.0091
ndamise	-11.0091
▁pack	-11.0092
▁tööstus	-11.0093
▁noteiktu	-11.0094
▁südame	-11.0095
▁definition	-11.0096
sele	-11.0096
▁lubatud	-11.0096
ryhmän	-11.0096
▁tietoa	-11.0098
▁vyksta	-11.0099
zem	-11.0101
▁disc	-11.0103
liefer	-11.0103
elių	-11.0105
▁scope	-11.0105
nõud	-11.0106
тя	-11.0106
žym	-11.0106
nį	-11.0107
zīmē	-11.0113
nor	-11.0114
iline	-11.0116
ienos	-11.0117
ysi	-11.0118
▁alakohdan	-11.012
▁raport	-11.012
wirkung	-11.0122
▁через	-11.0122
▁numatytos	-11.0123
▁suinteresuot	-11.0125
▁storage	-11.013
▁жизни	-11.0132
▁fuel	-11.0133
▁Че	-11.0134
▁rekombinant	-11.0135
▁alkuperä	-11.0136
▁vastava	-11.0137
▁laiką	-11.0137
стра	-11.0137
▁meile	-11.0138
ošu	-11.0138
anto	-11.0139
▁eingesetzt	-11.0139
▁annus	-11.0139
▁konnte	-11.0141
▁kra	-11.0143
▁pārvaldības	-11.0144
▁107	-11.0144
▁mēr	-11.0144
galv	-11.0146
▁Gesetz	-11.0147
▁pārsniedz	-11.0148
▁neuvo	-11.0148
▁teenuste	-11.0149
ches	-11.015
▁eläin	-11.015
▁Kur	-11.015
▁odot	-11.0152
ziehen	-11.0152
▁wahr	-11.0156
▁Afghanistan	-11.0157
ntiems	-11.0162
▁pavyzdžiui	-11.0162
"?	-11.0162
▁Warum	-11.0163
▁vessels	-11.0167
erin	-11.0169
llisten	-11.0172
▁Präsidentin	-11.0172
▁порядке	-11.0172
▁operating	-11.0172
▁Centre	-11.0172
▁включая	-11.0173
▁looma	-11.0177
▁bedeutet	-11.0177
voll	-11.0177
▁järgmised	-11.0178
▁vastutus	-11.0178
lask	-11.018
▁seen	-11.018
▁clean	-11.0181
▁maailman	-11.0182
▁flo	-11.0182
▁konkurentsi	-11.0182
▁munuaisten	-11.0184
▁начал	-11.0185
▁представлен	-11.0187
▁safe	-11.0189
etta	-11.019
▁Beschäftigung	-11.019
▁lengva	-11.0191
▁tähtis	-11.0192
▁saad	-11.0193
▁Don	-11.0194
▁säily	-11.0194
▁māj	-11.0196
häiriö	-11.0196
▁tuleneva	-11.0197
▁sekund	-11.0197
▁ziņojumā	-11.0197
▁liela	-11.0198
IT	-11.0199
lok	-11.0199
▁arvesta	-11.0199
▁muista	-11.0202
▁seinem	-11.0203
▁skait	-11.0203
▁concerns	-11.0205
TO	-11.0205
taks	-11.0207
▁inspection	-11.0207
▁along	-11.0207
▁prepared	-11.0208
▁End	-11.0209
сп	-11.0211
▁sufficient	-11.0213
ytų	-11.0214
▁living	-11.0214
▁factor	-11.0214
metil	-11.0215
▁emp	-11.0215
▁Chapter	-11.0215
▁miljonit	-11.0215
▁biudžet	-11.0216
▁direktīva	-11.0216
▁Alter	-11.0218
▁came	-11.022
▁Dauer	-11.0221
moka	-11.0225
уш	-11.0226
▁kasutamiseks	-11.0226
▁tyr	-11.0227
▁toisen	-11.0228
▁erfolgt	-11.0229
▁деле	-11.0229
rūp	-11.023
▁nõuete	-11.0231
▁snieg	-11.0231
▁einigen	-11.0232
▁patvirtina	-11.0232
▁83	-11.0234
▁Vä	-11.0238
▁Bra	-11.024
inimą	-11.024
▁лишь	-11.0241
▁kopējo	-11.0242
▁Regionen	-11.0243
▁Star	-11.0243
run	-11.0243
▁pääse	-11.0243
▁paikallis	-11.0246
bildung	-11.0247
▁parod	-11.0248
▁Tie	-11.0248
▁Кто	-11.0249
▁works	-11.025
koht	-11.025
▁juhtudel	-11.025
daten	-11.0252
ional	-11.0252
▁sovi	-11.0252
▁ryhmä	-11.0252
toon	-11.0254
▁Mitgliedstaats	-11.0254
ением	-11.0255
▁Frei	-11.0256
▁Wieder	-11.0256
▁kättesaadav	-11.0257
▁знаешь	-11.0258
▁relative	-11.0258
▁kehitys	-11.0259
▁nyky	-11.0261
▁respond	-11.0261
▁ühine	-11.0262
▁entspricht	-11.0262
▁Ger	-11.0262
kuse	-11.0263
▁Van	-11.0265
▁kapitali	-11.0267
▁само	-11.0267
овой	-11.0268
▁galīg	-11.0269
▁jautājumiem	-11.0269
▁emissions	-11.0269
ėjimas	-11.027
hääl	-11.027
āj	-11.027
▁yhteen	-11.0272
uksessa	-11.0273
▁pajėg	-11.0273
▁sisälty	-11.0273
▁kysymys	-11.0274
▁особенно	-11.0275
ям	-11.0275
urs	-11.0275
gla	-11.0276
▁võrra	-11.0277
▁eesistuja	-11.0278
▁Deshalb	-11.028
paikka	-11.0283
▁greičiau	-11.0284
text	-11.0287
▁ERLASSEN	-11.0287
elämä	-11.0288
▁tootmise	-11.0289
IV	-11.0289
▁pagalbą	-11.0289
ināšanas	-11.029
▁Stelle	-11.0291
▁hoffe	-11.0291
цы	-11.0292
▁žmonės	-11.0292
▁tü	-11.0292
▁teen	-11.0293
▁работа	-11.0294
āka	-11.0296
▁dažu	-11.0298
ėm	-11.0299
tynyt	-11.0302
рь	-11.0303
▁riippu	-11.0304
э	-11.0305
lagen	-11.0305
tieto	-11.0306
▁rahva	-11.0309
innen	-11.0311
▁Unterabsatz	-11.0311
▁makes	-11.0312
▁pažeid	-11.0312
сси	-11.0316
licher	-11.0316
▁infrastructure	-11.0316
▁seerumi	-11.0316
▁Schul	-11.0319
vabadus	-11.0319
▁suhkru	-11.0322
▁tervise	-11.0324
▁viņiem	-11.0325
▁enda	-11.0326
▁tuotteiden	-11.0329
ham	-11.033
lane	-11.033
▁annettava	-11.033
▁nolīgumu	-11.0331
▁Betriebs	-11.0333
laitokse	-11.0334
▁runā	-11.0335
▁accept	-11.0336
VL	-11.0336
▁erfüllt	-11.0338
▁käesolevas	-11.0343
▁tāda	-11.0345
mahdollis	-11.0346
nnassa	-11.0347
ские	-11.0348
▁Bildung	-11.0348
▁выбор	-11.0349
▁tarka	-11.035
▁Kesk	-11.035
▁crime	-11.0351
▁enerģijas	-11.0352
▁juurde	-11.0352
▁vandens	-11.0358
▁vero	-11.036
▁Bri	-11.036
iri	-11.036
▁Zweck	-11.0361
▁konflikt	-11.0361
▁aktyv	-11.0362
▁constitute	-11.0362
▁Februar	-11.0367
▁viite	-11.0368
▁types	-11.0369
▁Lēmumu	-11.037
illi	-11.037
▁kerta	-11.0371
SO	-11.0372
pres	-11.0373
▁apakš	-11.0375
▁though	-11.0376
▁право	-11.0376
▁mode	-11.0377
▁tulli	-11.0379
inä	-11.0379
▁lahendus	-11.038
3-	-11.0382
▁norma	-11.0383
elli	-11.0384
▁synty	-11.0385
▁kasu	-11.0386
▁medi	-11.0386
ём	-11.0387
▁teikti	-11.0387
▁Wirksamkeit	-11.0389
vald	-11.0389
▁Beitrag	-11.039
▁ļauj	-11.0392
saka	-11.0394
▁Beitritt	-11.0394
▁sudaryt	-11.0395
▁rein	-11.0395
▁procesa	-11.0396
▁1999.	-11.0396
▁процесс	-11.0397
▁deg	-11.0398
ksiin	-11.0399
▁эта	-11.04
▁geeignete	-11.0401
▁Prüf	-11.0402
▁adapt	-11.0403
Ar	-11.0403
thy	-11.0403
▁neuvottelu	-11.0404
▁Turk	-11.0405
▁kansallise	-11.0406
ort	-11.0406
▁spirit	-11.0406
korraldus	-11.0407
▁pamatot	-11.0408
▁provisional	-11.0408
▁töötajate	-11.0409
▁Jung	-11.041
▁возможно	-11.0411
▁Woche	-11.0411
▁1)	-11.0412
це	-11.0413
▁2-	-11.0413
▁Informations	-11.0413
▁begin	-11.0414
▁internationale	-11.0415
▁kansa	-11.0416
▁paras	-11.0417
▁personu	-11.0417
reserv	-11.0419
▁fibr	-11.0419
▁Test	-11.042
7)	-11.0425
▁asutuse	-11.0426
▁attīstību	-11.0427
īds	-11.0427
▁accordingly	-11.0428
▁slimības	-11.0429
dig	-11.0435
gung	-11.0435
▁Aranesp	-11.0438
▁ilmne	-11.0438
▁bit	-11.0438
▁noteikto	-11.0439
tuva	-11.044
▁fraktsiooni	-11.044
▁tų	-11.0441
▁võtab	-11.0442
▁puudu	-11.0442
▁hidro	-11.0443
▁democratic	-11.0445
DI	-11.0445
▁Haus	-11.0445
▁Gruppe	-11.0447
▁diskrimin	-11.0447
ана	-11.0448
▁details	-11.0448
▁maintenance	-11.0449
▁määratletud	-11.045
tuks	-11.0451
▁kehtestada	-11.0452
▁agent	-11.0454
els	-11.0454
▁loomade	-11.0454
regelung	-11.0454
▁siekiama	-11.0455
ши	-11.0455
▁zuletzt	-11.0456
mplementing	-11.0457
▁transporta	-11.0457
▁meklē	-11.0461
▁App	-11.0461
▁representatives	-11.0463
▁lygio	-11.0469
▁atsauc	-11.0469
мысл	-11.0472
▁indicate	-11.0472
▁Ware	-11.0472
▁alone	-11.0474
▁approximately	-11.0476
▁širdies	-11.0476
▁детей	-11.0476
ory	-11.0477
tamisen	-11.0478
▁uzliek	-11.0479
▁день	-11.0479
▁consist	-11.0481
MT	-11.0484
▁lūdzu	-11.0485
EA	-11.0487
▁paskelbimo	-11.0487
▁06	-11.049
▁susitarimą	-11.0491
▁untersucht	-11.0491
▁herra	-11.0491
▁pietiekami	-11.0491
▁produktams	-11.0494
▁Kla	-11.0495
DC	-11.0497
▁praš	-11.0498
▁08	-11.05
national	-11.05
▁mehrere	-11.0501
▁секретаря	-11.0501
▁võetakse	-11.0501
ensa	-11.0502
▁Lisa	-11.0503
▁privat	-11.0505
▁Lithuania	-11.0508
▁[3],	-11.0509
▁Insuman	-11.0509
trūk	-11.051
▁võta	-11.0512
▁četr	-11.0513
▁equivalent	-11.0515
▁rakendus	-11.0517
▁auftreten	-11.0519
▁treffen	-11.0522
▁connection	-11.0523
▁angemessene	-11.0525
бл	-11.0525
▁Bevölkerung	-11.0526
ymu	-11.0528
laisia	-11.0529
▁quite	-11.0529
▁priima	-11.0529
ėsi	-11.053
▁realis	-11.0532
▁iekš	-11.0535
▁Staats	-11.0538
▁Kiitos	-11.0539
lag	-11.054
▁Bet	-11.054
▁ajoneuvo	-11.054
▁Chi	-11.054
stoffe	-11.0541
▁distribution	-11.0541
▁neiš	-11.0545
▁Mengen	-11.0545
лин	-11.0546
▁category	-11.0546
▁specifik	-11.0546
▁Hol	-11.0547
▁attack	-11.0547
▁sega	-11.0547
▁(10	-11.0548
▁keičia	-11.0548
▁atbalstīt	-11.0548
▁Tro	-11.0548
▁struktūra	-11.0549
▁EB	-11.0551
▁eesmärkide	-11.0551
oze	-11.0551
▁technischen	-11.0552
▁таких	-11.0552
europa	-11.0554
▁vähendada	-11.0555
▁Lebens	-11.0559
ājs	-11.0562
prie	-11.0562
пис	-11.0565
▁oota	-11.0565
▁pirmiausia	-11.0565
ārā	-11.0567
▁teised	-11.0568
gatav	-11.0568
onis	-11.0568
▁adult	-11.0568
атель	-11.0569
mille	-11.057
▁silmas	-11.0571
tark	-11.0574
▁tutkimuksissa	-11.0574
liit	-11.0574
eck	-11.0575
▁card	-11.0576
pirk	-11.0576
▁vykdyti	-11.0576
▁reakcija	-11.0577
▁annosta	-11.0578
▁apskaičiuo	-11.0579
systeme	-11.058
▁tikslas	-11.058
▁järgmiste	-11.0581
▁zusätzliche	-11.0583
▁vertė	-11.0584
▁kirjeldatud	-11.0584
▁Vorschläge	-11.0586
▁kokybės	-11.0587
▁physical	-11.0588
SK	-11.0589
▁geriau	-11.0589
▁behind	-11.0591
stituci	-11.0592
▁sakarā	-11.0593
▁valstyb	-11.0594
▁Ang	-11.0595
▁elin	-11.0596
▁patikrin	-11.0597
▁Iš	-11.0598
▁nutrauk	-11.06
▁Eiropā	-11.06
īz	-11.0601
▁Organisationen	-11.0602
▁vienet	-11.0602
gor	-11.0603
▁rahu	-11.0603
▁gamin	-11.0607
▁millele	-11.0607
▁Pl	-11.061
▁band	-11.0611
kriisi	-11.0611
ämme	-11.0612
akti	-11.0612
▁website	-11.0613
nö	-11.0613
▁принцип	-11.0617
āku	-11.0617
▁contained	-11.0617
▁teatud	-11.0619
▁tean	-11.062
▁sudėtin	-11.062
už	-11.062
▁kertaa	-11.0621
laiset	-11.0622
▁abzu	-11.0622
▁engine	-11.0623
▁jokio	-11.0625
ekonomin	-11.0626
▁kohanda	-11.0627
zweck	-11.0628
▁täitmise	-11.0629
▁uzskatīt	-11.0631
вести	-11.0633
vista	-11.0634
▁ühtse	-11.0635
võrgu	-11.0636
▁kolmansi	-11.0637
▁alalla	-11.0637
▁jūras	-11.064
▁Section	-11.064
▁всегда	-11.0641
kipu	-11.0641
лов	-11.0642
▁gain	-11.0643
▁industrial	-11.0644
▁Abstimmung	-11.0647
▁leg	-11.0648
etil	-11.0649
▁hoitoon	-11.0649
▁след	-11.065
öffentlichen	-11.0651
“,	-11.0652
▁võtma	-11.0655
▁demonstr	-11.0655
▁norādīts	-11.0655
нем	-11.0657
ают	-11.0663
asutuse	-11.0663
▁pētījumi	-11.0664
▁violence	-11.0664
seadmete	-11.0666
▁temp	-11.0666
▁europa	-11.0666
teilen	-11.0667
▁pieder	-11.0667
▁berücksichtigen	-11.0667
CA	-11.0669
▁koskevia	-11.067
▁prisi	-11.0671
▁kapitāla	-11.0673
▁meid	-11.0673
tāju	-11.0673
▁secret	-11.0674
▁sociālo	-11.0675
▁forms	-11.0677
▁bestehen	-11.0677
▁resolutsiooni	-11.0678
jimas	-11.0681
therapie	-11.0681
▁suteikta	-11.0681
▁Barroso	-11.0683
▁increasing	-11.0683
▁paša	-11.0684
yttä	-11.0684
inot	-11.0687
▁2000.	-11.0687
▁Novartis	-11.0688
▁katsoo	-11.0689
▁datums	-11.069
▁Ärge	-11.0691
▁Affairs	-11.0692
▁Sc	-11.0692
▁ārstam	-11.0694
▁vahendite	-11.0696
AD	-11.0696
▁eksportu	-11.0697
lind	-11.0697
▁Sil	-11.0698
▁народ	-11.0698
ikas	-11.0698
▁ārstēt	-11.0699
▁Grenz	-11.07
▁relations	-11.07
▁osuta	-11.0702
пре	-11.0702
шел	-11.0703
▁мест	-11.0703
▁kodanik	-11.0704
▁koguse	-11.0706
eerida	-11.0707
villa	-11.0708
dor	-11.0711
tivat	-11.0711
▁mandate	-11.0712
▁intervention	-11.0713
▁Может	-11.0714
▁explain	-11.0714
йся	-11.0717
▁Est	-11.0718
▁pieejama	-11.0719
▁pinigų	-11.072
▁vaadi	-11.072
▁asjaomaste	-11.072
▁ali	-11.0723
▁Nord	-11.0723
▁käsitleb	-11.0723
rog	-11.0724
meid	-11.0725
doz	-11.0728
▁ajavahemiku	-11.073
▁järgmisega	-11.073
▁ETA	-11.0731
prof	-11.0732
Ī	-11.0732
▁pareišk	-11.0732
▁принят	-11.0733
▁rii	-11.0733
▁правительства	-11.0735
nija	-11.0735
▁liite	-11.0736
▁paaiškin	-11.074
▁keho	-11.074
▁aikaa	-11.074
lly	-11.0742
▁drive	-11.0742
▁dėlto	-11.0743
riski	-11.0743
NI	-11.0744
▁ravimite	-11.0745
▁kohti	-11.0749
leidžia	-11.075
▁maini	-11.075
▁kelio	-11.075
stände	-11.0751
▁yleensä	-11.0751
▁linna	-11.0754
▁jälleen	-11.0754
▁toimintaa	-11.0754
jamo	-11.0755
konkur	-11.0755
▁Tom	-11.0756
знач	-11.0757
чь	-11.0761
mies	-11.0761
▁interval	-11.0762
▁High	-11.0763
▁toimenpiteet	-11.0763
▁express	-11.0763
ējās	-11.0763
▁työn	-11.0763
mil	-11.0764
▁joihin	-11.0766
pool	-11.0767
▁обще	-11.0767
▁tootmisharu	-11.0767
person	-11.0768
▁hindamise	-11.0769
▁saan	-11.077
▁reģistrēt	-11.077
▁päätöslauselma	-11.0771
▁izpildīt	-11.0773
▁обо	-11.0775
▁vabasta	-11.0777
▁finansinių	-11.0777
▁told	-11.0778
▁gydom	-11.0778
prop	-11.0779
▁Staat	-11.078
▁stikl	-11.0781
▁pieaug	-11.0781
▁Stoffe	-11.0781
▁тобой	-11.0782
▁ārpus	-11.0783
rov	-11.0784
ble	-11.0787
▁meat	-11.0789
▁apima	-11.079
▁Ren	-11.079
▁сказать	-11.0792
piemēram	-11.0795
meetri	-11.0796
▁EUVL	-11.0799
▁silloin	-11.0801
▁Dienst	-11.0802
▁Agentur	-11.0802
▁personām	-11.0805
ējam	-11.0805
▁kaiken	-11.0805
▁sent	-11.0806
▁kulude	-11.0806
▁Antwort	-11.0806
programmi	-11.0808
▁drošību	-11.081
▁atskait	-11.081
▁noor	-11.0811
CR	-11.0813
gelegt	-11.0814
öh	-11.0814
▁undertaking	-11.0814
▁saatu	-11.0814
CI	-11.0814
▁rodas	-11.0814
▁liike	-11.0815
oda	-11.0816
▁disk	-11.0816
fertig	-11.0817
▁kuriose	-11.0817
▁bezüglich	-11.0817
▁šād	-11.0818
▁банк	-11.0819
▁108	-11.0822
chem	-11.0822
kkä	-11.0823
▁kli	-11.0824
▁систем	-11.0825
desse	-11.0825
▁Sea	-11.0826
▁nustatytų	-11.0826
onia	-11.0826
barkeit	-11.0827
▁ES	-11.0827
▁väljenda	-11.0828
sbehörde	-11.0828
▁pilnīgi	-11.0828
pet	-11.0831
▁mail	-11.0831
EUVL	-11.0832
▁Jack	-11.0833
▁Bekämpfung	-11.0833
bol	-11.0833
▁mission	-11.0835
▁fail	-11.0835
īšanu	-11.0835
▁valmisteen	-11.0838
▁relationship	-11.0839
▁darbą	-11.0839
▁müü	-11.0839
▁ievērojot	-11.0842
väärtus	-11.0843
▁funding	-11.0845
▁saaks	-11.0845
oksa	-11.0845
üle	-11.0846
▁luk	-11.0846
▁deep	-11.0847
Mi	-11.0847
▁toetust	-11.0849
mann	-11.085
kumul	-11.085
▁osoitta	-11.085
▁star	-11.085
▁aktų	-11.0851
Ü	-11.0852
▁ik	-11.0852
ody	-11.0854
рат	-11.0854
▁tut	-11.0854
▁commitment	-11.0854
▁Frankreich	-11.0856
wirken	-11.0856
▁varmistaa	-11.0857
▁mainittu	-11.0858
▁Bir	-11.0861
preis	-11.0861
▁helfen	-11.0861
kala	-11.0863
иль	-11.0863
▁looking	-11.0864
▁sektor	-11.0865
▁kaupade	-11.0866
▁darīt	-11.0866
▁cu	-11.0867
āzes	-11.0867
▁toimimise	-11.0868
▁kasutamisel	-11.0869
58/	-11.087
tide	-11.0871
ikke	-11.0871
▁konventsiooni	-11.0871
ulf	-11.0873
▁parent	-11.0873
участник	-11.0875
ohjelma	-11.0876
▁tvarkos	-11.0876
ģē	-11.0879
▁siellä	-11.0879
lov	-11.088
▁darbojas	-11.0881
▁Krieg	-11.0881
wal	-11.0882
▁saavutada	-11.0883
richtung	-11.0884
▁Mio	-11.0886
▁NOSAUKUMS	-11.0887
kurs	-11.0887
spēja	-11.0887
▁šai	-11.0887
▁technische	-11.0888
▁skyrius	-11.0889
▁koht	-11.0889
▁teel	-11.0892
▁konserv	-11.0893
▁riikliku	-11.0894
▁меры	-11.0894
▁ŠĮ	-11.0895
▁registered	-11.0895
▁izmaiņas	-11.0896
▁asmenų	-11.0896
▁injekcijas	-11.0898
▁средств	-11.0899
▁Lä	-11.0899
▁manusta	-11.0901
2015	-11.0901
▁uuesti	-11.0901
▁balso	-11.0901
тен	-11.0905
▁bur	-11.0908
▁līdzekļi	-11.0908
▁rise	-11.091
▁bestimmter	-11.091
дать	-11.0912
taso	-11.0912
▁construction	-11.0912
▁Wal	-11.0913
беж	-11.0913
▁veröffentlicht	-11.0915
▁sadarbības	-11.0915
▁factors	-11.0915
▁dabartin	-11.0917
▁Itaalia	-11.0919
ēj	-11.0919
sisalduse	-11.092
ью	-11.092
▁2015.	-11.092
▁hemo	-11.092
▁märtsi	-11.0921
▁странах	-11.0922
▁saavad	-11.0922
▁allowed	-11.0922
▁vertina	-11.0924
▁šias	-11.0924
▁created	-11.0925
uotos	-11.0925
mitteln	-11.0926
partner	-11.0927
▁games	-11.0928
▁asjakohase	-11.0929
▁inimesed	-11.093
▁jätk	-11.0932
▁kesäkuuta	-11.0933
▁insurance	-11.0934
förder	-11.0934
kart	-11.0935
▁meri	-11.0935
▁Fahr	-11.0935
▁tasu	-11.0935
▁ādas	-11.0936
▁direktor	-11.0938
▁umbes	-11.0939
▁keski	-11.0939
▁Bulgaria	-11.0941
ООН	-11.0942
võrd	-11.0943
pvz	-11.0943
-6	-11.0943
sust	-11.0945
▁poverty	-11.0946
iver	-11.0947
▁limits	-11.0947
▁Го	-11.0947
nacionalin	-11.095
▁white	-11.0951
▁дело	-11.0952
▁darbuotojų	-11.0953
▁word	-11.0953
▁Investitionen	-11.0953
▁uuden	-11.0954
▁zone	-11.0954
▁sektoriaus	-11.0957
▁думаю	-11.0957
▁won	-11.0958
TM	-11.0959
▁beispielsweise	-11.096
▁päästä	-11.0961
▁международны	-11.0966
▁жизнь	-11.0969
▁taka	-11.097
▁võimaluse	-11.097
▁tilasto	-11.097
▁усилия	-11.097
Ka	-11.0971
schl	-11.0971
▁University	-11.0973
▁išlaidos	-11.0973
▁sõltu	-11.0973
▁gla	-11.0974
▁klaus	-11.0975
▁receptor	-11.0976
▁receiving	-11.0976
käy	-11.0976
▁neto	-11.0976
лег	-11.0976
▁selgita	-11.0981
▁sprechen	-11.0981
light	-11.0981
▁lakt	-11.0983
▁Hä	-11.0984
▁Ban	-11.0985
▁принима	-11.0986
▁contain	-11.0986
ях	-11.0988
▁proovi	-11.0989
▁rezerv	-11.099
gegangen	-11.0991
▁dalyk	-11.0991
▁riittävä	-11.0991
ир	-11.0992
▁press	-11.0994
▁telefon	-11.0995
▁Italy	-11.0996
▁halua	-11.0997
lation	-11.0998
▁organisations	-11.0999
▁Augen	-11.1
emme	-11.1002
▁meille	-11.1005
0,	-11.1005
▁größere	-11.1006
▁terrorist	-11.1006
▁обеспечения	-11.1007
raten	-11.1007
kkeen	-11.1008
▁atklāt	-11.101
▁periodā	-11.1012
▁tekita	-11.1012
Mo	-11.1012
▁Pol	-11.1013
▁fire	-11.1014
uojami	-11.1017
gehalt	-11.1018
▁send	-11.102
nnin	-11.1021
ikud	-11.1021
▁kill	-11.1021
pārkāp	-11.1022
▁Verkehr	-11.1024
▁EFTA	-11.1025
▁lisatakse	-11.1025
▁Jūsu	-11.1025
▁ņem	-11.1025
hind	-11.1026
▁alakohdassa	-11.1026
valla	-11.1029
▁Однако	-11.1032
▁CD	-11.1036
▁augu	-11.1038
▁sit	-11.1038
▁narys	-11.1038
zināt	-11.104
▁hallinto	-11.1041
keskus	-11.1043
▁opportunities	-11.1044
ojus	-11.1044
käyttö	-11.1046
▁mln	-11.1046
▁valgus	-11.1046
mg	-11.1048
ējot	-11.1049
▁persona	-11.1049
▁gadus	-11.1051
elin	-11.1054
▁anta	-11.1054
stuse	-11.1055
▁Irak	-11.1056
seitig	-11.1056
Al	-11.1057
▁įsteig	-11.1057
▁koskevista	-11.1058
▁kūno	-11.1058
▁teatava	-11.106
▁agencies	-11.1062
▁save	-11.1062
▁patvirtinimo	-11.1064
▁тут	-11.1066
▁papildus	-11.1069
▁talousarvio	-11.1069
▁ievēro	-11.1069
▁Безопасности	-11.1073
vär	-11.1073
▁outcome	-11.1076
▁ensuring	-11.1077
▁Anzahl	-11.1081
▁jopa	-11.1081
DA	-11.1081
▁Law	-11.1082
▁Hotel	-11.1082
annos	-11.1083
▁veikimo	-11.1083
▁nojalla	-11.1084
▁schaffen	-11.1084
▁Außerdem	-11.1085
▁getroffen	-11.1085
▁maždaug	-11.1086
▁patsiendid	-11.1086
ajos	-11.1087
▁padarytais	-11.1088
▁otherwise	-11.1088
▁vastaava	-11.1089
uotu	-11.1089
▁random	-11.109
▁uztur	-11.1091
▁Komisjoni	-11.1091
▁экономически	-11.1092
▁später	-11.1092
▁Bur	-11.1092
▁политики	-11.1095
▁purchase	-11.1096
iseksi	-11.1096
jama	-11.1097
utatud	-11.11
▁süsteem	-11.1101
▁jam	-11.1102
öljy	-11.1103
▁wide	-11.1103
mised	-11.1103
▁Arzneimittels	-11.1103
ryhmä	-11.1104
оз	-11.1104
bit	-11.1106
▁joista	-11.1107
▁Gesundheit	-11.1108
ksin	-11.1108
▁kaup	-11.1108
▁sudar	-11.1108
▁viisil	-11.111
▁Nespo	-11.1111
стей	-11.1111
000000	-11.1113
aari	-11.1113
▁producer	-11.1114
▁pardavimo	-11.1115
▁suurus	-11.1115
jõu	-11.1116
inėmis	-11.1116
▁character	-11.1117
rim	-11.1117
▁Betrag	-11.1119
leht	-11.1119
▁improvement	-11.1119
▁Home	-11.112
▁Mä	-11.1121
ciet	-11.1121
▁tulisi	-11.1123
▁produce	-11.1126
▁unser	-11.1126
meter	-11.1128
▁izvērtē	-11.1128
ены	-11.1128
▁Road	-11.1128
▁periods	-11.1129
ttaessa	-11.113
▁front	-11.1132
▁vasario	-11.1132
▁property	-11.1133
▁EG	-11.1133
▁grozījumu	-11.1133
▁wohl	-11.1134
▁probleemi	-11.1138
ätz	-11.1138
▁treat	-11.1138
wissenschaftlich	-11.1139
betrag	-11.114
▁standardi	-11.114
▁delay	-11.114
▁tegu	-11.1141
▁termiņš	-11.1142
▁lõikele	-11.1142
▁Uzglabā	-11.1143
▁pakkausseloste	-11.1144
▁simply	-11.1144
▁sunki	-11.1146
vul	-11.1147
▁Härra	-11.115
▁soziale	-11.115
▁küsi	-11.1151
▁Poly	-11.1151
▁izdevumu	-11.1151
▁Хо	-11.1152
trieb	-11.1154
rz	-11.1154
▁Apvienotā	-11.1154
▁rezultatai	-11.1154
▁kogemus	-11.1154
▁97	-11.1155
▁sovellettava	-11.1155
ID	-11.1156
ря	-11.1158
▁Ana	-11.1158
▁jokių	-11.1158
jumā	-11.116
▁implemented	-11.116
▁söö	-11.1162
ribo	-11.1162
▁conclusion	-11.1162
▁determine	-11.1166
bro	-11.1168
▁former	-11.1168
▁auttaa	-11.1169
▁enjoy	-11.1169
▁труд	-11.1169
дем	-11.117
▁allgemeine	-11.1174
usios	-11.1176
▁aidata	-11.1176
▁sõiduki	-11.1177
kreip	-11.1178
▁семь	-11.1178
▁esimene	-11.1178
▁vertinim	-11.1178
кон	-11.118
▁Fo	-11.118
▁näita	-11.1182
▁koskaan	-11.1182
SL	-11.1183
▁suurempi	-11.1183
1-	-11.1184
▁onnistu	-11.1184
ettiin	-11.1184
▁rep	-11.1184
▁ķermeņa	-11.1185
▁Zwecke	-11.1186
▁dažnai	-11.1188
▁medicine	-11.1189
▁tõenda	-11.1189
▁мог	-11.1191
▁Beginn	-11.1192
▁dokumentus	-11.1192
▁sada	-11.1193
▁iedzīvotāju	-11.1193
▁darbība	-11.1193
▁jānosaka	-11.1193
iitti	-11.1193
▁Arzneimitteln	-11.1195
▁zemāk	-11.1195
▁98/	-11.1195
gemeinschaftlich	-11.1196
▁pieteikumu	-11.1196
пусти	-11.1197
▁Vien	-11.12
▁следует	-11.12
▁основн	-11.12
ись	-11.12
▁everyone	-11.1201
▁kitus	-11.1205
▁divas	-11.1207
▁себе	-11.1207
ования	-11.1207
hilfe	-11.121
▁German	-11.1211
▁kiekvieną	-11.1214
gruppe	-11.1215
▁wrong	-11.1215
tsiooni	-11.1216
nāk	-11.1218
▁apibrėžt	-11.1218
ниц	-11.1219
375	-11.1219
▁minimal	-11.122
▁teikt	-11.1222
▁sukurti	-11.1222
▁izskat	-11.1223
sicht	-11.1223
▁mukana	-11.1224
▁meinen	-11.1224
ttänyt	-11.1224
▁mietinnön	-11.1224
ric	-11.1225
▁possibility	-11.1225
▁keičiamas	-11.1227
▁Indij	-11.1227
▁групп	-11.1228
▁med	-11.1228
▁migr	-11.1229
▁võiks	-11.1232
▁affected	-11.1233
isa	-11.1234
▁Datum	-11.1235
▁Win	-11.1235
▁sanoa	-11.1236
▁regular	-11.1238
его	-11.1238
ßt	-11.1238
▁abejo	-11.1242
▁valmi	-11.1243
▁tingimuste	-11.1244
▁хорош	-11.1245
▁caused	-11.1247
▁kanal	-11.1248
▁atrodo	-11.1249
▁Zo	-11.125
▁вот	-11.1251
īnas	-11.1253
▁kid	-11.1253
▁kompetentinga	-11.1254
väline	-11.1254
▁WTO	-11.1256
süsteemide	-11.1256
▁fine	-11.1257
▁järjestelmä	-11.1257
▁Bendr	-11.1258
▁tablet	-11.126
▁pieno	-11.1261
▁0,5	-11.1261
▁priedą	-11.1261
▁consult	-11.1262
▁kõrvaltoimed	-11.1263
▁asiakirja	-11.1263
▁quantity	-11.1263
▁principa	-11.1265
ML	-11.1266
▁maksan	-11.1266
▁toode	-11.1266
▁nustat	-11.1266
grupi	-11.1269
▁külm	-11.127
▁voted	-11.1271
▁vairs	-11.1273
▁skausmas	-11.1274
▁block	-11.1275
▁maksā	-11.1276
▁taloudellise	-11.1277
▁muid	-11.1277
wie	-11.1278
▁почему	-11.1279
bendradarbiavimo	-11.128
▁saistīta	-11.1281
▁времени	-11.1281
yksikö	-11.1282
▁tiesa	-11.1283
hormon	-11.1284
▁Baltic	-11.1285
▁olin	-11.1285
▁Freund	-11.1286
▁cultural	-11.1289
▁Netz	-11.1289
▁Aktion	-11.1289
потреб	-11.129
▁reserve	-11.1291
▁eespool	-11.1291
▁across	-11.1292
▁kainų	-11.1292
graph	-11.1295
▁sozialen	-11.1297
▁leben	-11.1298
▁procentu	-11.13
brauc	-11.1301
▁ней	-11.1301
▁pateikė	-11.1302
▁wesentlich	-11.1302
▁vadīt	-11.1303
▁Außen	-11.1303
▁hõlmab	-11.1304
komisjoni	-11.1307
▁latest	-11.1308
▁Abschluss	-11.1308
▁Fraktion	-11.1309
▁claim	-11.1309
▁fund	-11.131
▁Absätze	-11.1311
takaa	-11.1311
▁ierosināt	-11.1312
▁py	-11.1316
▁piirkondade	-11.1317
kraft	-11.1318
▁whereas	-11.1318
▁Analyse	-11.1319
wing	-11.1319
kauf	-11.1319
comp	-11.1321
peetud	-11.1321
ktion	-11.1322
▁ihon	-11.1323
▁Международн	-11.1323
▁занима	-11.1324
▁finansē	-11.1326
krit	-11.1326
▁интерес	-11.1328
eiden	-11.1328
▁izmantošanu	-11.1328
▁Projekt	-11.1329
▁pär	-11.1329
▁weder	-11.1329
iame	-11.133
mpia	-11.1331
▁acts	-11.1332
▁message	-11.1334
umine	-11.1335
-4	-11.1335
▁entwickelt	-11.1337
stiku	-11.1337
▁netiek	-11.1341
usių	-11.1342
▁priority	-11.1348
▁draw	-11.1348
▁Verantwortung	-11.135
▁vienam	-11.1351
▁решения	-11.1352
ume	-11.1353
▁jauna	-11.1353
▁alia	-11.1355
sbestimmungen	-11.1355
▁visada	-11.1357
kohustus	-11.1357
▁соглас	-11.1357
▁оп	-11.1358
▁luku	-11.1358
▁except	-11.1359
▁fördern	-11.1359
▁heraus	-11.1361
▁bri	-11.1362
▁aventis	-11.1362
▁stability	-11.1362
▁valstī	-11.1368
▁Sutarties	-11.1368
mina	-11.1369
ttle	-11.137
lloin	-11.1372
плат	-11.1372
esiinty	-11.1372
cia	-11.1373
▁bul	-11.1374
▁įtraukti	-11.1374
▁piirkonna	-11.1376
▁ferner	-11.1377
вет	-11.1377
ej	-11.1378
▁saskaņot	-11.1381
▁reikšming	-11.1382
ников	-11.1383
▁Gre	-11.1383
▁частности	-11.1384
▁meele	-11.1387
HU	-11.1389
kant	-11.139
▁Turkey	-11.1391
▁uzsāk	-11.1392
▁uzņēmuma	-11.1394
▁Lēmums	-11.1395
esim	-11.1396
▁ok	-11.1396
komitea	-11.1397
ekt	-11.1397
▁pienākumu	-11.1399
▁praėjus	-11.1399
▁sagte	-11.1401
tõ	-11.1401
▁sudėtyje	-11.1403
▁verenpaine	-11.1403
▁finanzielle	-11.1406
ском	-11.141
▁ankstesn	-11.1411
▁jäsenet	-11.1413
ījumu	-11.1415
▁izpild	-11.1416
▁pašā	-11.1417
joties	-11.1417
▁African	-11.1417
loc	-11.1417
▁genehmigt	-11.1418
▁beträgt	-11.142
▁põhjusta	-11.1424
▁видел	-11.1424
▁правительство	-11.1426
Euroopa	-11.1427
▁consumer	-11.1428
beidz	-11.1429
▁105	-11.143
yta	-11.1433
▁Tru	-11.1434
ular	-11.1435
▁региональн	-11.1437
▁sitoutu	-11.1437
▁apsi	-11.1438
demokraat	-11.1441
▁numer	-11.1442
▁Tél	-11.1442
▁ziņo	-11.1442
▁kontrolēt	-11.1443
CH	-11.1444
▁tel	-11.1444
://	-11.1445
образ	-11.1446
▁nė	-11.1446
▁koti	-11.1447
ума	-11.1447
▁kuiva	-11.1453
▁hipo	-11.1453
▁disorders	-11.1454
▁ним	-11.1456
nė	-11.1456
ästä	-11.1457
ья	-11.1457
▁setting	-11.1458
▁mur	-11.146
▁mėnesių	-11.1463
▁kapitalo	-11.1464
▁puoli	-11.1464
▁vahvista	-11.1464
politiikkaa	-11.1464
▁klausimu	-11.1464
ван	-11.1464
▁nurodytas	-11.1465
rap	-11.1466
okset	-11.1468
▁regulu	-11.1469
▁Aufgaben	-11.147
▁Roma	-11.1473
▁kohal	-11.1476
▁ieviest	-11.1476
▁Atlant	-11.1477
▁необходим	-11.1477
».	-11.1478
▁Druck	-11.1478
▁toiminnan	-11.148
эн	-11.1484
пл	-11.1484
▁Char	-11.1486
▁izdarīti	-11.1488
▁Под	-11.1488
ющей	-11.1488
▁miljoonaa	-11.1488
kalt	-11.1488
▁solchen	-11.1489
▁erteilt	-11.1491
▁learn	-11.1492
bereit	-11.1492
▁Давай	-11.1495
▁kuule	-11.1497
cies	-11.1499
▁asinīs	-11.1499
▁dalimi	-11.1499
▁Ekonomikas	-11.15
glo	-11.1501
▁wine	-11.1501
енные	-11.1502
▁undertakings	-11.1503
▁mine	-11.1504
▁финансов	-11.1504
wir	-11.1504
▁Reihe	-11.1505
▁participate	-11.1505
ikos	-11.1505
cation	-11.1507
PP	-11.1508
▁valg	-11.1508
▁Falle	-11.1509
▁mechanizm	-11.151
▁despite	-11.1512
▁Kodėl	-11.1514
▁ziņā	-11.1514
▁nesi	-11.1516
▁conduct	-11.1517
alität	-11.1517
▁kurioms	-11.1521
▁wait	-11.1521
▁важно	-11.1522
▁которой	-11.1522
leisti	-11.1522
ykset	-11.1523
▁šalt	-11.1525
▁договор	-11.1525
räum	-11.1527
▁operators	-11.1527
▁yhä	-11.1527
▁suurendada	-11.1528
tävät	-11.153
▁ehk	-11.153
▁Symptome	-11.1532
▁Registr	-11.1532
▁draudimo	-11.1532
ulu	-11.1533
▁Lietuva	-11.1533
▁Erstattung	-11.1533
▁Karalystė	-11.1533
sprechen	-11.1534
▁tööd	-11.1534
▁viita	-11.1537
ttaisi	-11.1537
▁requires	-11.1538
▁chemical	-11.1539
▁turėjo	-11.154
▁continued	-11.1541
▁122	-11.1544
▁опас	-11.1545
PR	-11.1547
▁koskevaa	-11.1548
amiini	-11.155
zunehmen	-11.1551
väli	-11.1551
▁written	-11.1553
▁мной	-11.1555
“.	-11.1556
▁dein	-11.1556
fosf	-11.1556
▁daudzums	-11.1557
▁panna	-11.1557
trik	-11.1558
▁klausimą	-11.1559
▁дел	-11.156
brauk	-11.1561
▁punktą	-11.1562
AM	-11.1562
▁olulist	-11.1562
▁viia	-11.1563
▁küsimust	-11.1563
▁decembra	-11.1565
▁Ursprungs	-11.1565
▁говорит	-11.1566
▁Gas	-11.1567
▁Italian	-11.1567
▁liige	-11.1567
▁2).	-11.1567
▁palu	-11.1568
▁guidelines	-11.1569
▁saatavilla	-11.1569
vust	-11.157
▁Food	-11.157
ošanu	-11.1572
nic	-11.1572
▁platseebo	-11.1572
▁antra	-11.1573
▁betroffen	-11.1577
fel	-11.1579
▁multilateral	-11.1579
▁ability	-11.158
angio	-11.1582
▁tüüpi	-11.1582
▁laikotarpis	-11.1582
▁išduot	-11.1583
žiu	-11.1583
▁mehānismu	-11.1584
arvio	-11.1584
▁kohde	-11.1587
▁lupa	-11.1588
▁Tor	-11.159
▁didžiausia	-11.159
▁Verkauf	-11.1591
▁gydytojas	-11.1592
▁culture	-11.1592
▁Arbeitnehmer	-11.1593
▁transpordi	-11.1594
▁uut	-11.1595
bringen	-11.1596
dži	-11.1596
Я	-11.1597
▁Bendrijoje	-11.16
▁ответ	-11.16
ūz	-11.1602
euro	-11.1602
▁hoitoa	-11.1602
▁SV	-11.1603
▁hypo	-11.1603
ROS	-11.1604
got	-11.1604
vorschriften	-11.1605
ukka	-11.1605
▁gados	-11.1605
pass	-11.1606
zol	-11.1606
▁Schwangerschaft	-11.1607
▁pöytäkirja	-11.1607
▁Nutzung	-11.1607
tüüp	-11.1607
likkuse	-11.1608
▁identified	-11.161
▁sąrašą	-11.1611
lge	-11.1612
▁seuraavaa	-11.1612
opi	-11.1613
▁interested	-11.1613
▁atsarg	-11.1613
eesi	-11.1614
ительно	-11.1615
eerimine	-11.1615
tien	-11.1616
▁kehittämis	-11.1616
▁slow	-11.1616
▁gim	-11.1618
▁Merck	-11.1618
▁saavat	-11.1619
▁blister	-11.1619
säure	-11.162
gno	-11.1621
▁kõrvalda	-11.1621
▁jāuz	-11.1623
trans	-11.1624
▁andmeid	-11.1625
▁sofort	-11.1626
▁anzu	-11.1626
valta	-11.1626
▁pieeja	-11.1627
▁tablett	-11.1627
▁banks	-11.1628
▁Sąjungoje	-11.1629
▁ziņojums	-11.1631
▁ч	-11.1632
▁liitteen	-11.1632
▁Дж	-11.1632
oloģija	-11.1633
министр	-11.1636
▁algata	-11.1636
markkinoiden	-11.1639
▁spar	-11.1641
▁host	-11.1641
▁kuria	-11.1643
▁enhance	-11.1644
▁letzte	-11.1644
▁manner	-11.1647
▁ohja	-11.1651
▁tris	-11.1652
▁delegation	-11.1652
jušas	-11.1653
SP	-11.1654
▁units	-11.1655
▁peräisin	-11.1656
▁esu	-11.1659
chlor	-11.166
▁täheldatud	-11.1661
▁vana	-11.1662
tzt	-11.1665
zig	-11.1665
▁96/	-11.1665
▁palielin	-11.1665
шу	-11.1666
isille	-11.1667
▁ohjelma	-11.1667
▁Aufnahme	-11.1667
▁Р	-11.1667
▁Unternehmens	-11.1668
ograf	-11.1669
▁Auffassung	-11.167
▁potilaiden	-11.1671
▁būtent	-11.1672
▁(„	-11.1673
▁kell	-11.1673
▁count	-11.1673
▁osoit	-11.1674
▁tunnusta	-11.1679
▁atvir	-11.1681
▁Son	-11.1682
▁erinevus	-11.1682
▁AG	-11.1683
misi	-11.1683
▁yhdistelmä	-11.1684
▁uo	-11.1684
▁vidur	-11.1685
brīv	-11.1685
▁vale	-11.1685
▁tekni	-11.1686
▁pārāk	-11.1686
▁sadarbību	-11.1687
kontrolli	-11.169
▁Privat	-11.169
▁Macht	-11.169
▁lopetta	-11.169
▁koske	-11.1691
gegeben	-11.1693
▁coordination	-11.1693
▁äriühingu	-11.1693
▁users	-11.1693
▁broad	-11.1695
LT	-11.1696
oši	-11.1696
▁rūšių	-11.17
▁organisatsiooni	-11.1701
▁kirjuta	-11.1702
▁Let	-11.1702
▁atlieka	-11.1702
▁miks	-11.1703
kvalifik	-11.1703
▁ruisku	-11.1705
▁1989	-11.1706
▁Jūsų	-11.1707
hlen	-11.1709
ėjimą	-11.1709
▁tvar	-11.171
▁kerge	-11.1711
▁Europoje	-11.1712
▁EMEA	-11.1712
▁dalībvalstī	-11.1712
▁sechs	-11.1713
дал	-11.1713
крас	-11.1714
▁nõ	-11.1714
▁late	-11.1714
▁numbers	-11.1714
▁(9)	-11.1717
▁kuluessa	-11.1717
▁город	-11.1718
▁huo	-11.1718
▁tõesti	-11.1719
";	-11.1719
станови	-11.1721
▁Shi	-11.1722
▁Sel	-11.1722
▁vih	-11.1722
▁prejudice	-11.1723
▁daro	-11.1724
▁gene	-11.1724
▁Vācija	-11.1725
▁Schengen	-11.1726
▁facilitate	-11.1728
▁üksik	-11.1729
ился	-11.1729
▁easy	-11.173
▁Volk	-11.1732
nčias	-11.1733
▁asi	-11.1733
▁nämlich	-11.1734
ball	-11.1734
▁initiative	-11.1734
▁joko	-11.1734
жал	-11.1738
▁yleinen	-11.1738
▁domāju	-11.1738
▁cur	-11.1741
▁EK	-11.1742
▁kvaliteedi	-11.1742
▁необходимо	-11.1743
azi	-11.1746
▁Gericht	-11.1746
▁payments	-11.1747
▁infektio	-11.1749
▁делать	-11.1749
▁sinut	-11.1754
▁pakankamai	-11.1756
▁nelja	-11.1757
▁weltweit	-11.1757
▁kehti	-11.1759
tyksen	-11.1759
▁margin	-11.176
vielu	-11.176
loogi	-11.176
▁käytä	-11.1761
▁thanks	-11.1763
▁Tätigkeiten	-11.1763
▁Krankheit	-11.1763
cikl	-11.1765
▁saist	-11.1765
▁trauk	-11.1766
▁aadress	-11.1766
bėg	-11.1766
▁tammikuuta	-11.1769
▁datus	-11.1769
▁sieht	-11.1769
▁Republikas	-11.177
▁kvalitātes	-11.177
▁huono	-11.1771
vą	-11.1772
▁brought	-11.1772
▁remember	-11.1772
.10.	-11.1773
▁kuriomis	-11.1774
▁izstrādā	-11.1774
▁roh	-11.1775
āra	-11.1775
▁место	-11.1776
III	-11.1776
▁пыта	-11.1776
▁profil	-11.1776
▁autonom	-11.1779
▁weiteren	-11.1779
▁leaflet	-11.1781
▁Ly	-11.1781
▁dalyv	-11.1781
▁straipsniu	-11.1782
▁mahdollisimman	-11.1784
▁говорил	-11.1784
▁otsusega	-11.1786
TL	-11.1786
erkrankung	-11.1786
▁koo	-11.1787
▁joutu	-11.1787
▁teist	-11.1789
▁tādas	-11.1792
▁comes	-11.1792
▁merg	-11.1792
reikš	-11.1793
▁Drittländern	-11.1793
▁[8]	-11.1794
Par	-11.1794
ует	-11.1794
AB	-11.1795
▁mėnesius	-11.1795
▁nõustu	-11.1796
▁leis	-11.1796
▁North	-11.1796
▁содержа	-11.1797
▁Tere	-11.1798
▁ierobežo	-11.1799
▁originating	-11.18
▁amounts	-11.1802
▁sätestatakse	-11.1802
71/	-11.1803
▁deshalb	-11.1804
▁pranešime	-11.1804
merkin	-11.1805
etin	-11.1806
▁resurs	-11.1807
▁setzen	-11.1807
ül	-11.1807
▁Prantsusmaa	-11.1809
sopimus	-11.1809
tiko	-11.1809
ram	-11.181
▁tooted	-11.1811
▁fulfil	-11.1811
▁aizsargāt	-11.1813
▁cel	-11.1813
uuteen	-11.1814
▁dirb	-11.1814
▁Kindern	-11.1815
▁Ursprung	-11.1816
late	-11.182
▁naiste	-11.1821
2.2	-11.1822
▁bilateral	-11.1822
ificē	-11.1823
▁didelė	-11.1823
▁neist	-11.1823
▁erneut	-11.1825
▁olemas	-11.1826
▁vormi	-11.1826
предел	-11.1828
▁nurodytą	-11.1828
▁fallen	-11.1828
▁konkurenci	-11.1828
▁pieejami	-11.1828
▁ginkl	-11.1829
▁dro	-11.1829
▁criminal	-11.1829
▁hergestellt	-11.183
▁Mark	-11.183
▁sprendimu	-11.1832
▁viimati	-11.1835
▁järele	-11.1835
▁aktiem	-11.1836
▁varem	-11.1836
▁halu	-11.1837
▁kansalaisten	-11.1839
▁dviejų	-11.184
▁liikku	-11.184
Code	-11.1844
wiesen	-11.1844
post	-11.1847
ряд	-11.1847
▁atzīt	-11.1847
пло	-11.1849
▁manufacture	-11.1849
▁keturi	-11.1851
▁Diese	-11.1852
▁lokal	-11.1852
etty	-11.1854
сы	-11.1855
▁dialogue	-11.1856
▁fan	-11.1856
darbība	-11.1856
▁tundi	-11.1857
▁puik	-11.1859
džių	-11.1859
▁nozīme	-11.1859
▁ket	-11.1861
SF	-11.1862
▁tavaliselt	-11.1863
реб	-11.1863
▁1,5	-11.1863
▁labu	-11.1864
▁komerc	-11.1865
▁ebenso	-11.1866
▁tutkimuksessa	-11.1868
▁bendrovės	-11.1868
▁vollständig	-11.1868
▁atbrīvo	-11.1869
емых	-11.187
▁cha	-11.187
▁Seite	-11.187
▁Beteiligung	-11.1871
оль	-11.1871
▁tekstu	-11.1873
lause	-11.1873
▁pēdējo	-11.1874
▁kuriuose	-11.1874
▁Einnahme	-11.1876
▁salli	-11.1877
▁mõista	-11.1878
lenk	-11.1881
▁frag	-11.1881
▁20%	-11.1881
▁kohalda	-11.1881
▁punktas	-11.1881
▁проблемы	-11.1882
▁käytön	-11.1883
▁proti	-11.1884
ējs	-11.1884
▁visuomenės	-11.1886
ге	-11.1886
▁Monat	-11.1887
▁direction	-11.1889
▁tablets	-11.189
markkinoi	-11.1891
▁außer	-11.1891
▁hääleta	-11.1892
▁bisher	-11.1892
lased	-11.1893
▁gadījumu	-11.1895
▁noteiktā	-11.1895
mällä	-11.1896
HA	-11.1896
▁tikrųjų	-11.1897
dokument	-11.1898
▁härra	-11.1898
▁täyttä	-11.1899
▁diabetes	-11.1902
▁valstybėje	-11.1903
▁šos	-11.1905
ttuja	-11.1912
valmiste	-11.1914
▁nachhaltige	-11.1914
▁pranešimo	-11.1914
▁Service	-11.1914
▁verbunden	-11.1916
šta	-11.1916
▁choice	-11.1917
▁asiasta	-11.192
ование	-11.192
▁consumers	-11.1921
96/	-11.1922
▁põhjendus	-11.1923
▁silma	-11.1927
▁materiālu	-11.1927
information	-11.1928
▁bankas	-11.1928
▁paslaugas	-11.1931
▁tugeva	-11.1932
dukt	-11.1932
elio	-11.1934
▁vähentä	-11.1934
māc	-11.1935
▁kopš	-11.1937
▁dog	-11.1937
▁greit	-11.1937
▁valodā	-11.1937
dioks	-11.1937
▁lietoja	-11.1939
▁deficit	-11.194
tiec	-11.194
▁cieš	-11.1941
▁city	-11.1943
TC	-11.1944
▁metodi	-11.1944
▁beginning	-11.1945
▁pašlaik	-11.1945
▁ületa	-11.1945
insuliini	-11.1945
old	-11.1945
▁madala	-11.1948
▁ribaviriini	-11.1948
▁instead	-11.1952
▁tinkama	-11.1953
▁tehdy	-11.1955
▁nopeasti	-11.1955
grenz	-11.1957
▁perhe	-11.1957
▁practices	-11.1957
ному	-11.1958
fal	-11.1958
▁10%	-11.1959
▁käsitlevate	-11.1959
ctor	-11.1959
▁wirksame	-11.1959
▁Tarybai	-11.196
▁информации	-11.196
▁žaidim	-11.196
▁vastab	-11.1961
▁Association	-11.1962
▁Hinweise	-11.1964
▁kaupa	-11.1965
▁asiaa	-11.1966
▁kodas	-11.1969
атор	-11.1972
▁Durch	-11.1973
steroid	-11.1973
▁sociāl	-11.1973
▁Beschlusses	-11.1973
▁arvuta	-11.1973
▁uzņēmēj	-11.1974
▁määratakse	-11.1974
▁hr	-11.1975
2.1	-11.1976
▁vienkārš	-11.1976
istic	-11.1976
▁viz	-11.1978
▁543/2011	-11.1978
▁liittyy	-11.198
▁Schwe	-11.1981
▁Moreover	-11.1983
▁nuomone	-11.1983
▁Schaffung	-11.1986
▁ievadīšanas	-11.1986
▁ground	-11.1986
▁järgmiselt	-11.1988
▁101	-11.1988
▁klassi	-11.1989
▁Prozess	-11.1989
▁pian	-11.1989
▁police	-11.1993
▁mietintö	-11.1993
▁operate	-11.1994
▁CE	-11.1996
▁vaatimusten	-11.1996
uksissa	-11.1997
▁laikotarpio	-11.1998
▁neatkarīgi	-11.1998
▁terrorism	-11.1998
▁prove	-11.2
SR	-11.2
cio	-11.2001
▁inimõiguste	-11.2002
obi	-11.2007
▁Regeln	-11.2008
audz	-11.2008
▁gydymas	-11.2008
▁divi	-11.2009
▁šķiet	-11.201
▁completed	-11.201
▁accounts	-11.2011
▁hoo	-11.2012
eille	-11.2014
laista	-11.2014
▁asmens	-11.2014
▁kombinatsioon	-11.2016
▁aspects	-11.2017
cker	-11.2018
▁soovitatav	-11.202
▁rizika	-11.2021
▁erhöht	-11.2022
Ch	-11.2022
▁196	-11.2022
▁asuva	-11.2022
▁iekļauj	-11.2024
idin	-11.2024
▁perustuva	-11.2024
acijų	-11.2025
▁два	-11.2026
llään	-11.2027
▁plus	-11.2027
▁išdėstyt	-11.2028
▁vaistai	-11.2029
▁lit	-11.2029
▁iedarbība	-11.2029
▁vaikų	-11.2029
▁meno	-11.203
▁augstāk	-11.203
аться	-11.2031
▁galite	-11.2031
La	-11.2031
:00	-11.2031
▁kuuluu	-11.2038
▁slikt	-11.204
▁governments	-11.204
mble	-11.204
▁surma	-11.2043
audzē	-11.2046
▁собственн	-11.2049
ikku	-11.2051
▁apua	-11.2052
solv	-11.2053
67/	-11.2054
▁Portugali	-11.2054
▁pirmajā	-11.2055
▁reporting	-11.2056
▁sale	-11.2057
▁organizāciju	-11.2058
▁210	-11.2059
ugu	-11.2063
▁oda	-11.2063
▁bendras	-11.2064
▁statistics	-11.2064
täminen	-11.2064
▁числе	-11.2067
кра	-11.2068
demokrati	-11.2069
ило	-11.2069
▁tarkoittaa	-11.2069
▁ensimmäinen	-11.2069
▁Binnenmarkt	-11.2069
▁maja	-11.2069
▁lepingut	-11.2071
lum	-11.2071
▁politiką	-11.2072
▁Verpflichtung	-11.2073
▁informed	-11.2073
▁meetodi	-11.2074
»,	-11.2074
tulo	-11.2075
rija	-11.2075
▁search	-11.2076
тельно	-11.2076
▁Ergebnis	-11.208
▁põhjustada	-11.2084
kį	-11.2084
▁board	-11.2084
▁Mess	-11.2086
▁regelmäßig	-11.2087
правля	-11.2087
▁Sy	-11.2088
▁vērtību	-11.2089
▁svarīga	-11.2089
▁julgeoleku	-11.2089
haltung	-11.209
ify	-11.209
▁Reform	-11.2091
hydro	-11.2091
▁tavara	-11.2094
▁Paris	-11.2094
järjestelmää	-11.2094
▁followed	-11.2095
funkc	-11.2096
GA	-11.2097
▁vertinimo	-11.2099
▁advantage	-11.2099
▁Beziehungen	-11.2101
tamalla	-11.2102
200	-11.2102
▁Einsatz	-11.2103
Com	-11.2103
ус	-11.2104
▁derzeit	-11.2104
▁õhu	-11.2106
griff	-11.2106
based	-11.211
▁ус	-11.211
▁tarbija	-11.211
▁kādā	-11.2111
▁Port	-11.2112
▁Europas	-11.2114
Li	-11.2116
iumi	-11.2116
▁Gesundheits	-11.2117
▁liquid	-11.2118
▁aufzu	-11.2118
▁три	-11.2119
▁Tabletten	-11.2119
▁tikslu	-11.2119
bio	-11.212
rix	-11.212
sesti	-11.2121
▁//	-11.2121
imams	-11.2122
▁viis	-11.2123
maz	-11.2124
▁kosm	-11.2124
▁domin	-11.2125
▁kompensācijas	-11.2125
▁Global	-11.2126
raf	-11.2129
▁uzskaitīt	-11.2131
rašy	-11.2132
▁hetkellä	-11.2134
vērš	-11.2134
▁influence	-11.2134
natrium	-11.2135
▁siūl	-11.2136
▁erhöhte	-11.2136
▁skaidru	-11.2137
▁osoite	-11.2137
▁advance	-11.2139
▁līdzekļiem	-11.214
▁fall	-11.214
▁sekret	-11.2142
▁praeguse	-11.2143
tojų	-11.2144
▁aprilli	-11.2145
henkilö	-11.2145
дь	-11.2147
▁integration	-11.2147
▁сюда	-11.2148
ford	-11.2148
▁tunte	-11.2149
вен	-11.2149
toetus	-11.2149
▁kultuuri	-11.2151
▁tällaise	-11.2153
▁roll	-11.2153
▁injektiopullo	-11.2154
▁Bon	-11.2155
▁augst	-11.2155
▁эту	-11.2155
▁Technologie	-11.2156
▁кор	-11.2157
▁skatinti	-11.2157
▁prekės	-11.2159
rub	-11.216
▁Ši	-11.216
▁ruo	-11.216
▁plot	-11.2161
▁trukmė	-11.2161
▁Suomi	-11.2163
▁tietää	-11.2164
▁nariai	-11.2164
,000	-11.2166
▁osta	-11.2166
▁reakcijos	-11.2166
23/	-11.2166
▁veren	-11.2167
▁tehnilise	-11.2169
lgi	-11.2169
rechts	-11.217
▁temperature	-11.217
▁efficient	-11.2171
rāda	-11.2171
▁Га	-11.2172
üsse	-11.2172
▁jemand	-11.2174
▁uzņēmums	-11.2176
zahlung	-11.2177
fü	-11.2178
▁pakkumis	-11.2178
▁spēj	-11.2178
▁padėtį	-11.2179
▁lamp	-11.218
▁tasolla	-11.2183
мин	-11.2184
▁reisi	-11.2185
▁bendrovė	-11.2186
▁Bla	-11.2187
▁amendment	-11.2187
skā	-11.2188
▁solid	-11.2189
▁Raum	-11.2189
▁kuljet	-11.2189
▁Einrichtungen	-11.2189
solu	-11.219
rīko	-11.219
▁nauda	-11.2191
▁automat	-11.2191
▁lauku	-11.2197
▁nenu	-11.2198
▁suoritta	-11.22
▁lõpuks	-11.22
▁tikt	-11.2201
pitoisuus	-11.2203
llaan	-11.2203
tietee	-11.2204
▁remains	-11.2205
дела	-11.2205
VP	-11.2205
▁asked	-11.2206
▁harv	-11.2207
▁matka	-11.2207
▁являются	-11.2208
lax	-11.2209
▁maatalous	-11.221
ON	-11.2212
▁extra	-11.2213
VR	-11.2213
toime	-11.2213
▁Red	-11.2214
īdi	-11.2214
▁wor	-11.2215
▁Spa	-11.2216
zusetzen	-11.2216
▁tapauksissa	-11.2217
▁Produktions	-11.2218
▁Packungsbeilage	-11.2219
▁edustaja	-11.2219
▁sõltumatu	-11.2219
▁vyn	-11.2221
▁terapiju	-11.2222
▁gaut	-11.2222
том	-11.2223
▁kompetentingos	-11.2225
vina	-11.2225
▁protein	-11.2226
asutus	-11.2227
бли	-11.2227
ney	-11.223
▁cell	-11.2231
▁которое	-11.2234
▁usein	-11.2235
▁Licht	-11.2235
▁tehakse	-11.2235
▁Pla	-11.2237
▁kokio	-11.2239
▁Peter	-11.2241
ром	-11.2241
▁Briuselyje	-11.2242
▁absorb	-11.2243
▁Savienība	-11.2244
▁nustatytą	-11.2245
▁unseren	-11.2245
▁programmā	-11.2245
▁mingi	-11.2245
▁1980	-11.2246
öt	-11.2247
▁kõne	-11.225
▁City	-11.225
ūm	-11.2251
▁Notwendigkeit	-11.2254
laisen	-11.2254
▁Wachstum	-11.2254
▁turės	-11.2255
õpe	-11.2256
viisi	-11.2256
ikko	-11.2256
itāte	-11.2256
▁хотя	-11.2257
uojamas	-11.2259
▁pasaulē	-11.226
▁mä	-11.2262
spiel	-11.2262
▁passenger	-11.2263
▁jebkura	-11.2263
kiem	-11.2264
▁Met	-11.2265
tume	-11.2266
▁järgneva	-11.2266
▁prop	-11.2267
▁skirtų	-11.2267
▁другие	-11.2267
▁vidi	-11.2269
domā	-11.227
▁lokakuuta	-11.2272
aj	-11.2273
▁vykdom	-11.2274
dav	-11.2274
▁assess	-11.2274
▁Zucker	-11.2275
▁verantwortlich	-11.2276
jon	-11.2277
▁kohaldata	-11.2278
meetmete	-11.2278
▁pēdējā	-11.2282
daug	-11.2282
▁Gewalt	-11.2283
VI	-11.2284
-20	-11.2284
▁kindel	-11.2284
▁didel	-11.2285
▁steps	-11.2286
uuri	-11.2288
schrift	-11.2289
▁Verhandlungen	-11.229
▁одно	-11.229
08/	-11.2291
nuo	-11.2293
▁Для	-11.2294
▁edisty	-11.2295
▁märg	-11.2297
▁ignor	-11.2298
▁piena	-11.2298
netz	-11.23
▁Zins	-11.23
▁šalyse	-11.2301
▁Phen	-11.2301
▁Tagen	-11.2301
▁hereby	-11.2301
▁pārvald	-11.2303
▁paslaugos	-11.2304
must	-11.2304
▁challenges	-11.2306
ahn	-11.2307
▁įmanoma	-11.2307
▁leidžiama	-11.2308
▁einheitliche	-11.2309
▁vērtē	-11.2309
nehmer	-11.2309
vallan	-11.231
iskas	-11.231
‘	-11.2312
vaba	-11.2312
▁Ag	-11.2313
koncentr	-11.2314
▁join	-11.2314
▁gamintojų	-11.2316
▁heti	-11.232
чу	-11.232
▁characteristics	-11.2322
comm	-11.2324
▁Landwirtschaft	-11.2324
kesk	-11.2326
▁aiški	-11.2326
▁millise	-11.2327
▁skirs	-11.2329
нят	-11.2329
palvelu	-11.2331
ятся	-11.2331
▁mietinnössä	-11.2332
▁turul	-11.2332
▁liikmesriigis	-11.2334
▁seems	-11.2335
rata	-11.2335
▁laut	-11.2335
▁ieskaitot	-11.2336
▁такие	-11.2337
▁kuriai	-11.2338
▁ydin	-11.2338
▁yhteisen	-11.2339
▁reached	-11.234
▁šalims	-11.2341
▁доступ	-11.2343
tteli	-11.2344
▁reikalinga	-11.2344
▁pasiūlymu	-11.2344
▁tehnoloogia	-11.2345
cha	-11.2348
▁vajadzīgi	-11.235
▁sutart	-11.235
tiktu	-11.2351
energia	-11.2352
hält	-11.2352
▁tabletės	-11.2352
ndung	-11.2354
▁Brysselissä	-11.2357
▁transparent	-11.2358
▁situāciju	-11.2358
▁dalys	-11.236
▁pasauli	-11.236
kasu	-11.2361
▁savieno	-11.2362
▁tähtsa	-11.2364
▁iekšējā	-11.2365
”;	-11.2366
▁früher	-11.2367
▁vähä	-11.2369
▁terapija	-11.237
▁Italia	-11.237
▁organizācijas	-11.237
kset	-11.2371
▁имеет	-11.2372
сер	-11.2376
miehi	-11.2376
kļu	-11.2377
▁annex	-11.2377
▁Services	-11.2378
graf	-11.238
RE	-11.238
▁Contact	-11.238
▁стол	-11.2381
▁rasva	-11.2384
ath	-11.2386
▁jeweiligen	-11.2387
nduse	-11.2389
▁finansavimo	-11.2391
▁hinter	-11.2391
vesti	-11.2392
ijs	-11.2392
▁perhaps	-11.2392
▁püsi	-11.2394
▁īsteno	-11.2397
▁Amerika	-11.2397
▁olukorda	-11.2398
▁includes	-11.2398
▁If	-11.24
wesen	-11.24
rechte	-11.24
▁divu	-11.2401
▁nafta	-11.2402
▁tõst	-11.2403
LV	-11.2404
järjestö	-11.2404
▁genommen	-11.2406
▁perdirb	-11.2406
▁jānodrošina	-11.2406
▁tollimaksu	-11.2407
itas	-11.241
▁бюджет	-11.2411
▁odos	-11.2412
▁основе	-11.2413
▁Action	-11.2413
muse	-11.2414
▁platform	-11.2415
atory	-11.2415
perioodi	-11.2416
yhtiö	-11.2416
▁antakse	-11.2416
▁dzīves	-11.2416
▁obtain	-11.2417
▁permanent	-11.2419
▁procedūros	-11.2419
▁viņam	-11.242
3.1	-11.2421
Ž	-11.2422
▁uzlabo	-11.2423
▁paragraphs	-11.2423
▁priekšsēdētājs	-11.2423
ėjų	-11.2424
▁aita	-11.2425
▁Anlage	-11.2425
reak	-11.2425
▁RIN	-11.2425
renka	-11.2426
▁neben	-11.2427
▁išlaidas	-11.2427
▁CI	-11.2427
▁EKP	-11.2428
▁stärker	-11.2428
arch	-11.2429
rühma	-11.2429
▁ponai	-11.243
▁Regional	-11.243
▁yhdenmukai	-11.2431
▁tase	-11.2431
▁resursu	-11.2431
ozi	-11.2432
▁šū	-11.2433
▁ряд	-11.2434
püü	-11.2435
▁efavirenz	-11.2436
▁sobi	-11.2436
▁recently	-11.2438
▁isik	-11.2438
▁naudoja	-11.2438
▁daugiausia	-11.2439
▁sõlmi	-11.244
▁atsakinga	-11.244
▁savi	-11.2441
нет	-11.2441
ёт	-11.2442
▁внимание	-11.2443
ären	-11.2443
▁Kern	-11.2443
▁darum	-11.2444
marķē	-11.2444
ošana	-11.2445
▁ņemt	-11.2445
▁parema	-11.2445
▁genannt	-11.2445
▁path	-11.2447
▁Tätigkeit	-11.2447
▁valmistaja	-11.2447
▁labour	-11.2448
300	-11.2448
▁EP	-11.2449
kru	-11.2449
▁heard	-11.245
ации	-11.2451
▁pārliecināt	-11.2452
MM	-11.2452
▁Jos	-11.2454
▁таким	-11.2455
кол	-11.2456
▁nächsten	-11.2456
1998	-11.2456
▁recovery	-11.2457
▁saglabā	-11.2458
▁muutos	-11.2459
▁efficiency	-11.246
▁schützen	-11.246
▁suoraan	-11.2461
▁Taliban	-11.2461
▁legislative	-11.2461
ware	-11.2462
▁eiro	-11.2462
VA	-11.2462
▁tarptautini	-11.2462
▁grąžinam	-11.2463
fluor	-11.2464
▁dujų	-11.2466
gruppen	-11.2467
▁viską	-11.2469
trin	-11.247
▁sum	-11.2472
▁tarvitaan	-11.2472
▁pētījumu	-11.2473
tukseen	-11.2474
▁kehtetuks	-11.2474
▁подход	-11.2474
▁nozare	-11.2475
▁performed	-11.2475
▁airport	-11.2476
▁sudaryti	-11.2477
▁operational	-11.248
▁Tiere	-11.248
▁vērtība	-11.248
▁oikeut	-11.248
olen	-11.2482
OT	-11.2482
▁риск	-11.2484
▁tarkka	-11.2485
▁Venemaa	-11.2485
▁starptautiskā	-11.2485
▁neljä	-11.2486
davad	-11.2489
▁sovelta	-11.2489
▁licence	-11.2489
▁muuttaa	-11.2491
▁computer	-11.2493
▁Regierungen	-11.2497
tätigkeit	-11.2497
Ab	-11.2498
▁Ros	-11.2498
▁manęs	-11.2498
▁tähtaja	-11.2499
▁Tänan	-11.25
▁Entscheidungen	-11.25
▁produkti	-11.25
▁near	-11.25
щие	-11.25
▁3).	-11.2501
▁106	-11.2501
▁außerdem	-11.2501
▁beide	-11.2502
▁likme	-11.2503
plic	-11.2503
▁sukelti	-11.2503
KODA	-11.2504
▁ietvert	-11.2505
amba	-11.2506
▁reaktio	-11.2508
ilg	-11.2509
▁GlaxoSmithKline	-11.251
▁Palestinian	-11.2514
yksikkö	-11.2515
tamisel	-11.2517
▁laenu	-11.2517
▁suteik	-11.2518
▁kliinilise	-11.2519
hand	-11.252
▁sense	-11.252
▁fizin	-11.2521
▁lėšų	-11.2522
▁pētījumā	-11.2522
▁lihas	-11.2524
▁janvāra	-11.2525
▁neatbilst	-11.2525
▁nõuded	-11.2526
▁ražotāju	-11.2527
▁klimato	-11.2528
▁naujų	-11.253
▁contracts	-11.253
▁Dollar	-11.2531
ņiem	-11.2532
grund	-11.2532
емся	-11.2532
▁izklāst	-11.2532
▁versch	-11.2533
▁uzņem	-11.2533
protokoll	-11.2535
▁derogation	-11.2536
▁atitinkama	-11.2536
hop	-11.2537
▁pareigūn	-11.2539
▁įmonė	-11.254
leben	-11.254
▁vahvistettu	-11.2541
▁ottaen	-11.2541
▁kunga	-11.2541
▁meetings	-11.2542
ėmė	-11.2542
EUR	-11.2543
▁atpakaļ	-11.2544
▁pasaulio	-11.2545
miehe	-11.2548
▁besonderen	-11.2548
▁Sitzung	-11.2549
▁hinnangu	-11.2552
tinė	-11.2552
▁talo	-11.2553
iso	-11.2554
▁požiūriu	-11.2555
tyyppi	-11.2555
▁angegeben	-11.2556
▁Voi	-11.2556
▁daži	-11.2556
iško	-11.2556
▁rinna	-11.2557
▁осуществления	-11.2557
▁stra	-11.2557
džia	-11.2557
related	-11.2559
ена	-11.2559
kulu	-11.256
▁mennessä	-11.2561
▁Vo	-11.2563
▁HCV	-11.2563
▁Obama	-11.2565
▁Ressourcen	-11.2566
▁fordert	-11.2566
▁tėv	-11.2567
▁хочешь	-11.2568
suchen	-11.2568
komitean	-11.2568
▁назад	-11.2569
▁grib	-11.2569
▁hit	-11.257
▁ražo	-11.2572
▁Kai	-11.2573
▁vienīgi	-11.2573
▁ear	-11.2574
rät	-11.2575
▁atļauju	-11.2575
▁atliekam	-11.2576
▁creation	-11.2577
▁noted	-11.2579
legt	-11.258
▁Function	-11.2582
iselle	-11.2583
бед	-11.2585
▁gegenwärtig	-11.2588
▁simple	-11.2589
▁rasti	-11.2589
▁priekšsēdētāja	-11.2589
pida	-11.2589
▁palīdz	-11.2591
▁mother	-11.2591
▁veikta	-11.2591
▁ritonavir	-11.2592
▁pārbaudīt	-11.2592
▁began	-11.2592
▁170	-11.2592
▁jäljempänä	-11.2593
▁parane	-11.2594
Э	-11.2594
нять	-11.2595
▁katrā	-11.2597
öör	-11.2597
▁Einhaltung	-11.2597
блюд	-11.2598
▁vaihtoehto	-11.2598
▁Debatte	-11.26
tract	-11.26
▁Fol	-11.2605
▁esitab	-11.2607
▁vietu	-11.2608
▁ühinemis	-11.2608
▁drink	-11.2609
▁vēlētos	-11.2609
▁kuupäeva	-11.261
feld	-11.2612
▁α	-11.2613
võ	-11.2614
▁Danke	-11.2615
▁eelda	-11.2616
▁fee	-11.2616
▁Übergang	-11.2616
▁heinäkuuta	-11.2616
▁riigis	-11.2618
ließ	-11.2619
001	-11.262
vik	-11.2621
▁atļaujas	-11.2622
▁entweder	-11.2622
▁Конвенции	-11.2622
▁koleg	-11.2623
▁kindlasti	-11.2623
▁2%	-11.2623
▁ermöglichen	-11.2624
▁grozīt	-11.2624
▁havaittu	-11.2625
PV	-11.2625
▁Lissaboni	-11.2626
otte	-11.2626
▁įstaiga	-11.2627
▁ettevõtjate	-11.2627
▁gamyba	-11.2628
kümne	-11.2629
▁yhteistyötä	-11.2631
▁tahansa	-11.2631
▁tālāk	-11.2632
▁kirje	-11.2632
misessa	-11.2633
▁Wo	-11.2634
▁depend	-11.2634
▁Norm	-11.2635
▁teenuse	-11.2635
▁vaatimukset	-11.2635
▁tirdzniecību	-11.2636
ним	-11.2637
▁верн	-11.264
▁salīdzinot	-11.264
▁indeks	-11.2642
▁territooriumil	-11.2643
ksime	-11.2643
руш	-11.2643
▁Währung	-11.2644
▁solutions	-11.2645
uksella	-11.2649
▁решение	-11.265
кро	-11.2651
IK	-11.2653
eihin	-11.2653
▁ettepanekut	-11.2654
▁susidar	-11.2655
▁takes	-11.2655
▁krist	-11.2655
▁Käesoleva	-11.2657
uku	-11.2657
▁plānu	-11.2658
runā	-11.2658
▁series	-11.2659
lius	-11.2659
▁Tallinn	-11.2659
āru	-11.2662
▁kungi	-11.2662
▁Struktur	-11.2662
▁võrdlus	-11.2662
▁aufgenommen	-11.2663
▁собира	-11.2664
▁plo	-11.2666
▁pension	-11.2667
▁Maschinen	-11.2667
▁ligikaudu	-11.2667
menetluse	-11.2668
▁LIITE	-11.2669
▁degree	-11.2669
▁pritar	-11.267
right	-11.267
cijā	-11.2673
ativ	-11.2675
▁Ziffer	-11.2675
▁kasutatud	-11.2676
SM	-11.2676
▁aktīvā	-11.2677
▁Antragsteller	-11.268
▁laboratorij	-11.268
▁beigām	-11.268
▁Те	-11.268
geber	-11.2681
▁vivo	-11.2682
▁уровня	-11.2683
▁Gründen	-11.2684
▁duomenimis	-11.2685
▁Dritte	-11.2686
▁ändern	-11.2686
▁Institutionen	-11.2687
wasser	-11.2689
▁verslo	-11.269
▁programm	-11.2691
▁tank	-11.2691
▁siūlom	-11.2695
▁lähi	-11.2695
▁ribavirin	-11.2696
jami	-11.2697
▁requests	-11.2698
▁kuuluva	-11.2698
süsteem	-11.2699
▁presence	-11.2699
▁voimassa	-11.27
▁ready	-11.27
tilan	-11.27
Fi	-11.2701
▁kaupan	-11.2701
▁iepakojuma	-11.2701
▁tikras	-11.2701
▁atsižvelgti	-11.2701
▁beyond	-11.2702
▁Grundsätze	-11.2703
▁užpildyt	-11.2704
▁rekomenduojama	-11.2704
DF	-11.2706
▁partners	-11.2708
▁положения	-11.2709
maat	-11.2709
truk	-11.2709
▁teritorija	-11.271
▁esittää	-11.2712
▁Gott	-11.2712
▁jūlija	-11.2714
▁elektros	-11.2716
suspensio	-11.272
▁sąrašas	-11.272
iniam	-11.2721
▁bla	-11.2723
▁examination	-11.2723
▁attiecīgaj	-11.2724
petit	-11.2724
▁tarni	-11.2725
ējas	-11.2725
▁bleibt	-11.2725
▁foot	-11.2727
▁opening	-11.2727
regel	-11.273
▁Verarbeitung	-11.2732
▁pääoma	-11.2732
▁час	-11.2732
▁parametr	-11.2732
▁Forschung	-11.2732
▁surface	-11.2735
▁teed	-11.2736
▁naudas	-11.2736
▁слишком	-11.2736
tiivis	-11.2737
▁niihin	-11.2738
▁beta	-11.2739
tõend	-11.2739
▁pikenda	-11.2739
▁version	-11.2741
▁aikuis	-11.2741
▁monitor	-11.2743
▁tarvi	-11.2743
▁Gabe	-11.2744
▁atkarīg	-11.2744
▁žali	-11.2744
ад	-11.2744
600	-11.2745
▁Standpunkt	-11.2745
▁liigi	-11.2745
▁keskmine	-11.2746
▁vähän	-11.2746
▁vahend	-11.2746
▁usually	-11.2747
▁ööpäevas	-11.2749
▁знал	-11.2751
▁indication	-11.2753
▁pieteikuma	-11.2753
▁paredzētie	-11.2755
тро	-11.2756
▁Presidency	-11.2757
▁doubt	-11.2758
▁speed	-11.2758
▁primary	-11.2759
▁jobs	-11.276
▁Angebot	-11.2761
▁Kultur	-11.2761
▁paka	-11.2762
▁Jesus	-11.2763
ēšanai	-11.2763
▁būdas	-11.2764
▁pieprasījuma	-11.2764
Dienstleistungen	-11.2766
▁määrää	-11.2767
ская	-11.2771
▁hau	-11.2772
▁modeli	-11.2773
BS	-11.2773
▁greitai	-11.2773
▁kuģu	-11.2774
laisten	-11.2774
▁minētajā	-11.2774
▁burn	-11.2775
▁1999/468	-11.2775
▁zuständige	-11.2776
oppel	-11.2778
▁klimata	-11.278
ились	-11.2781
▁apibrėžta	-11.2782
▁certainly	-11.2786
▁ise	-11.2786
gest	-11.2787
▁menschliche	-11.2787
▁sources	-11.2788
ziert	-11.2788
teisin	-11.279
▁gi	-11.2792
pidamis	-11.2793
▁gleichen	-11.2793
▁äiti	-11.2793
sopimuksi	-11.2794
▁woman	-11.2794
▁aitab	-11.2795
су	-11.2795
▁įgaliot	-11.2795
▁dažiem	-11.2797
▁nebūtų	-11.2798
▁apstākļos	-11.2798
▁prioritet	-11.2799
▁Werte	-11.28
▁lahku	-11.2801
куп	-11.2802
paket	-11.2802
▁usu	-11.2803
kseni	-11.2803
▁wirksam	-11.2803
▁kõnealune	-11.2803
▁населения	-11.2803
▁Del	-11.2803
▁tekijä	-11.2805
▁atsakym	-11.2805
▁cilvēki	-11.2806
▁susijęs	-11.2808
Inverkehrbringen	-11.2808
▁ryt	-11.2809
▁skaitu	-11.2812
umui	-11.2812
▁pagrindinė	-11.2813
RS	-11.2814
temp	-11.2814
oilla	-11.2814
▁nepārsniedz	-11.2815
ложи	-11.2815
▁Präsidenten	-11.2816
ālās	-11.2819
▁Herausforderung	-11.2819
▁Zusammen	-11.282
▁īstenošanu	-11.2821
▁uusia	-11.2823
▁Poland	-11.2823
sbereich	-11.2823
▁erklärt	-11.2826
otti	-11.2826
▁acquis	-11.2827
дж	-11.2828
▁Mutter	-11.2828
▁Мар	-11.283
▁asutused	-11.283
▁farmako	-11.2833
ināja	-11.2834
NE	-11.2835
▁jebkuru	-11.2837
▁kontrole	-11.2838
▁erineva	-11.2838
▁pysy	-11.2838
▁Kyllä	-11.2838
▁kiir	-11.2838
▁Groß	-11.2839
йд	-11.2839
▁mainitu	-11.284
▁tiriam	-11.284
▁kodėl	-11.284
▁location	-11.2842
▁complex	-11.2844
▁bandy	-11.2844
geht	-11.2844
▁galime	-11.2845
▁takia	-11.2845
kunta	-11.2846
▁collection	-11.2846
▁ASV	-11.2847
▁leaders	-11.2848
лог	-11.2848
▁jäi	-11.2849
▁kuuluvad	-11.2851
▁Fähigkeit	-11.2854
инг	-11.2854
▁teo	-11.2855
hoidon	-11.2855
▁kurās	-11.2856
цев	-11.2857
▁Oli	-11.2857
▁olanzap	-11.2859
▁Priimta	-11.286
▁noteiktas	-11.2861
▁trying	-11.2862
хват	-11.2862
▁(>	-11.2863
ulation	-11.2864
▁kynä	-11.2868
▁veidi	-11.2868
▁unionissa	-11.2869
▁Spain	-11.2869
▁myynti	-11.2871
▁standartus	-11.2872
▁Stellen	-11.2872
▁erfolgen	-11.2876
▁Lissabon	-11.2876
▁Latvijas	-11.2878
–1	-11.2878
мон	-11.2879
▁sergantiems	-11.288
▁võimaldab	-11.2881
azės	-11.2881
▁derartige	-11.2886
▁Bereichen	-11.2886
▁lėt	-11.2886
▁Kind	-11.2888
▁kavatse	-11.289
▁tootjate	-11.2891
▁minėto	-11.2893
▁saistītas	-11.2893
пал	-11.2893
▁photo	-11.2893
▁įvertinti	-11.2894
alkohol	-11.2895
пас	-11.2896
▁Serbia	-11.2897
▁demokratische	-11.2897
▁digital	-11.2898
▁väär	-11.2898
▁ähnliche	-11.2899
▁millel	-11.2899
▁lī	-11.2899
▁jene	-11.29
▁pranešė	-11.2901
▁lak	-11.2902
ень	-11.2902
▁manustamist	-11.2902
▁association	-11.2903
▁categories	-11.2903
īvā	-11.2903
▁selvästi	-11.2904
▁Öl	-11.2904
standard	-11.2905
möglich	-11.2905
oiden	-11.2905
muodo	-11.2908
30/	-11.2908
▁конфликт	-11.291
▁apjoms	-11.291
sääntö	-11.2911
▁связ	-11.2911
▁fun	-11.2912
KK	-11.2913
▁osoittaa	-11.2914
▁Konflikt	-11.2915
▁näkö	-11.2915
лез	-11.2916
tella	-11.2916
▁siirto	-11.2917
markkina	-11.2917
ausschusses	-11.2917
▁bezeichnet	-11.2919
▁Maß	-11.2919
крыт	-11.292
▁люди	-11.2921
▁reli	-11.2921
▁чего	-11.2922
▁speak	-11.2922
▁сохран	-11.2924
▁organizacijos	-11.2925
SD	-11.2926
▁действий	-11.2926
▁erinevate	-11.2926
lauk	-11.2929
▁esmės	-11.293
▁höhere	-11.293
▁gender	-11.293
▁nagrinėjam	-11.2931
mik	-11.2932
▁permit	-11.2935
▁valimis	-11.2935
▁students	-11.2935
dzīvo	-11.2936
analyse	-11.2937
▁игра	-11.2937
▁hear	-11.294
▁Schiff	-11.294
▁atļauj	-11.294
ohjelman	-11.294
▁taotleja	-11.2942
ulli	-11.2943
tuur	-11.2944
▁Spiel	-11.2944
ordnung	-11.2945
ющего	-11.2946
▁rahasta	-11.2948
▁verwenden	-11.2951
▁Ali	-11.2952
▁palaik	-11.2952
▁Estonian	-11.2952
▁Anhangs	-11.2952
▁paprast	-11.2955
jamas	-11.2955
▁kuhu	-11.2955
▁alan	-11.2956
▁Business	-11.2958
▁созда	-11.2958
šos	-11.2959
▁Flu	-11.2959
▁etc	-11.296
▁mängi	-11.2961
▁paraug	-11.2962
▁entities	-11.2962
▁бес	-11.2964
▁Kin	-11.2964
▁kehittä	-11.2964
▁состоя	-11.2964
turva	-11.2965
▁rajon	-11.2965
kombin	-11.2966
▁nereikia	-11.2966
▁vidēji	-11.2967
▁Trade	-11.2968
▁RN	-11.2969
▁rare	-11.297
beihilfe	-11.2971
▁sisalda	-11.2971
▁3-	-11.2972
ndada	-11.2974
slēdz	-11.2975
▁patikim	-11.2975
▁vahvistetaan	-11.2976
▁akto	-11.2976
▁apmērā	-11.2977
▁Folge	-11.2978
▁started	-11.2979
З	-11.298
▁Communities	-11.2981
▁vartojimą	-11.2981
▁gesamte	-11.2981
▁pagrindinių	-11.2982
▁entire	-11.2982
▁principu	-11.2983
▁erityisen	-11.2984
phy	-11.2987
▁Где	-11.2987
kuva	-11.2989
▁beteiligt	-11.299
▁novēroja	-11.299
johtaja	-11.2991
▁pieprasīt	-11.2992
Ja	-11.2993
▁išvardyt	-11.2993
▁Ameerika	-11.2994
▁Ačiū	-11.2994
▁apsauga	-11.2994
▁jauni	-11.2994
▁discuss	-11.2996
▁schwierig	-11.2997
▁door	-11.2997
▁wanted	-11.2998
▁toisin	-11.3001
zė	-11.3001
loom	-11.3002
▁Sprendim	-11.3002
основ	-11.3002
ošo	-11.3005
▁kõ	-11.3007
▁metaboliz	-11.3007
iro	-11.3008
-10	-11.3009
▁vastavad	-11.3011
▁oficiali	-11.3011
sfähigkeit	-11.3011
▁checks	-11.3012
▁ühendust	-11.3014
▁сил	-11.3015
▁korja	-11.3016
▁Luxembourg	-11.3016
▁toimu	-11.3016
▁juures	-11.3016
▁kirjallinen	-11.3019
vuutta	-11.3019
▁atliekant	-11.302
▁haltija	-11.3021
▁metabolism	-11.3022
trof	-11.3023
35/	-11.3023
▁Log	-11.3025
▁vienos	-11.3025
▁practical	-11.3026
▁trials	-11.3026
▁ponios	-11.3026
▁biroj	-11.3026
vielas	-11.3028
▁pöördu	-11.3029
▁verrattuna	-11.3031
▁finanziellen	-11.3031
▁luua	-11.3031
▁entsprechende	-11.3033
▁soweit	-11.3034
▁Stabilität	-11.3034
▁injek	-11.3035
▁zweiten	-11.3035
siä	-11.3036
▁begrüße	-11.3036
▁instrumentu	-11.3036
rauha	-11.3036
▁grupė	-11.3037
▁trust	-11.3037
▁pārdošanas	-11.3037
ystä	-11.3039
▁starting	-11.3039
iņ	-11.304
▁entscheiden	-11.3041
dījum	-11.3041
▁vajadusel	-11.3041
тур	-11.3043
▁kaikille	-11.3044
▁Leute	-11.3045
порт	-11.3045
▁Zusatz	-11.3045
▁Ме	-11.305
▁saņēma	-11.3051
▁apimti	-11.3051
▁bat	-11.3052
siir	-11.3053
▁sort	-11.3053
▁līdzekļus	-11.3055
▁часть	-11.3055
▁tänu	-11.3055
рез	-11.3057
▁varam	-11.3057
▁samanaikaisesti	-11.3057
78/	-11.3059
▁sank	-11.3059
spolitik	-11.306
▁kelių	-11.306
edaspidi	-11.3061
jahr	-11.3061
▁reikalų	-11.3061
rop	-11.3062
▁viranomaisten	-11.3062
▁liebe	-11.3062
▁rühma	-11.3064
▁debates	-11.3065
▁massi	-11.3065
▁cells	-11.3065
▁raskus	-11.3068
jät	-11.3069
yritykse	-11.3071
▁antagonist	-11.3071
▁euch	-11.3072
pohja	-11.3076
оп	-11.3076
▁tīr	-11.3078
оцен	-11.3079
▁hävita	-11.3079
▁tõhus	-11.3081
▁Lab	-11.3081
▁pikku	-11.3081
▁Koh	-11.3081
arbeiten	-11.3083
▁grupu	-11.3085
▁kärsi	-11.3085
▁atbildes	-11.3087
strateg	-11.3087
▁Italien	-11.3088
kontroll	-11.3088
kand	-11.3089
ference	-11.3089
▁Kom	-11.309
▁erfüllen	-11.3093
HS	-11.3093
▁skirtos	-11.3093
36/	-11.3093
▁protest	-11.3094
seisu	-11.3095
форм	-11.3097
▁nitr	-11.3098
▁kasutaja	-11.3099
fond	-11.3099
▁SIS	-11.3099
wort	-11.31
▁controlled	-11.31
▁oikein	-11.31
зд	-11.3101
rühm	-11.3101
▁katkesta	-11.3103
▁alka	-11.3103
koko	-11.3104
1000	-11.3104
▁turpināt	-11.3105
▁помощь	-11.3105
▁regulatory	-11.3106
▁funkcijos	-11.3106
▁decrease	-11.3106
▁Schluss	-11.3106
fic	-11.3106
▁aplink	-11.3108
▁nolūkā	-11.3109
▁Christ	-11.311
▁сме	-11.311
▁PPE	-11.3111
▁тот	-11.3111
▁peržiūr	-11.3111
aeg	-11.3111
▁Miss	-11.3112
▁стать	-11.3112
▁Den	-11.3112
džiu	-11.3113
▁näistä	-11.3116
▁Prof	-11.3116
▁registration	-11.3117
▁nationale	-11.3117
nnissa	-11.3119
▁вод	-11.3122
▁5.1	-11.3122
▁iso	-11.3122
īstam	-11.3123
▁comprehensive	-11.3123
▁alueelli	-11.3123
▁lives	-11.3124
▁tiettyjen	-11.3124
▁talking	-11.3124
▁nedēļas	-11.3125
gesellschaft	-11.3126
▁kopij	-11.3126
▁своего	-11.3126
leiten	-11.3128
▁palyginti	-11.3129
▁EPAR	-11.313
▁sistemų	-11.313
nagrinė	-11.313
▁popular	-11.3131
tesse	-11.3131
▁pavojing	-11.3131
▁uzņēmumi	-11.3132
▁Bush	-11.3132
▁unbe	-11.3133
▁Jumala	-11.3134
▁turto	-11.3134
▁lep	-11.3136
lį	-11.3136
▁patar	-11.3138
▁думал	-11.3138
▁nāk	-11.3139
▁palīdzības	-11.3139
zina	-11.314
AIDS	-11.314
▁gemeinsam	-11.314
▁vaste	-11.314
imen	-11.3142
▁vältida	-11.3142
▁extend	-11.3143
▁teritorijoje	-11.3143
▁kohtaan	-11.3144
▁püügi	-11.3145
▁Straße	-11.3145
▁doses	-11.3145
tlich	-11.3146
nimi	-11.3147
брос	-11.3147
▁aiemmin	-11.3147
▁Organization	-11.3147
duct	-11.3148
010	-11.3148
tiek	-11.3149
▁hair	-11.315
▁ваш	-11.3151
▁jāņem	-11.3152
ometri	-11.3153
▁prevention	-11.3154
▁Umfang	-11.3154
transplant	-11.3154
▁calculated	-11.3154
von	-11.3155
▁kuros	-11.3157
ykite	-11.3157
uuringu	-11.3158
▁stated	-11.3161
kauden	-11.3162
ijomis	-11.3163
asutuste	-11.3164
▁trend	-11.3164
pār	-11.3166
▁tikri	-11.3167
kehr	-11.3167
jakso	-11.3167
▁medium	-11.3168
▁140	-11.3168
▁Green	-11.3169
zīt	-11.3169
▁trešo	-11.3171
▁edes	-11.3171
ikat	-11.3172
ogene	-11.3172
▁(20	-11.3172
▁hätten	-11.3172
▁4.5	-11.3173
material	-11.3173
▁vajadzīgs	-11.3174
▁Из	-11.3175
▁kulttuuri	-11.3175
казать	-11.3176
▁счет	-11.318
viranomainen	-11.318
▁aware	-11.3182
breite	-11.3182
▁yksityiskohtais	-11.3184
▁bald	-11.3184
2016	-11.3184
▁powers	-11.3186
▁Produktion	-11.3186
▁potilaille	-11.3189
▁mihin	-11.3189
▁statt	-11.3191
dėti	-11.3192
▁atsevišķi	-11.3192
▁Lisbon	-11.3192
▁consistent	-11.3193
▁tilanne	-11.3193
iven	-11.3193
▁plans	-11.3194
готов	-11.3195
▁asjakohane	-11.3196
urg	-11.3196
▁naują	-11.3197
▁slimību	-11.3198
igh	-11.3198
▁Pil	-11.3202
ettevõtja	-11.3203
▁uzlabot	-11.3204
septi	-11.3205
▁effort	-11.3206
▁läheb	-11.3207
▁takista	-11.321
ēni	-11.321
Le	-11.321
что	-11.3212
iņa	-11.3213
▁īs	-11.3213
▁vaike	-11.3213
▁программы	-11.3214
▁gryn	-11.3214
dul	-11.3214
▁seuranta	-11.3216
NO	-11.3217
▁vahelise	-11.3217
▁künftig	-11.3218
кт	-11.3218
▁kulud	-11.3219
▁obligation	-11.322
▁alueen	-11.3222
▁voin	-11.3222
▁Fortschritte	-11.3222
▁Lisabonas	-11.3223
mü	-11.3223
▁мире	-11.3223
/100	-11.3224
▁Ihrem	-11.3225
▁Ty	-11.3225
▁mõiste	-11.3225
▁legt	-11.3226
▁piima	-11.3227
lleen	-11.3227
▁components	-11.3228
valdkonna	-11.3228
oikeuksi	-11.3228
▁kriterijus	-11.323
▁apgalvo	-11.3231
▁услуг	-11.3231
▁Meta	-11.3232
▁savaites	-11.3233
▁klausimus	-11.3234
▁medicīn	-11.3235
hur	-11.3235
▁ievērot	-11.3236
▁unverzüglich	-11.3236
▁identify	-11.3237
teenuste	-11.3238
war	-11.3238
▁4.4	-11.3241
▁corresponding	-11.3242
ray	-11.3242
▁Gegen	-11.3245
minēt	-11.3246
▁syytä	-11.3246
▁konkrečia	-11.3247
▁novērot	-11.3247
AG	-11.3248
▁johtaa	-11.3248
▁Plasma	-11.3249
▁viide	-11.325
▁Sorge	-11.3251
▁138	-11.3252
▁Institute	-11.3252
▁pyrki	-11.3252
▁load	-11.3252
muoto	-11.3252
▁работу	-11.3254
33/	-11.3254
82/	-11.3254
▁kõrvaltoimete	-11.3254
▁muitų	-11.3254
ītā	-11.3254
▁Puregon	-11.3255
▁Männer	-11.3257
DR	-11.3257
▁riikidest	-11.3259
▁katastrof	-11.326
▁piliečių	-11.3261
▁dadurch	-11.3263
▁weapons	-11.3263
pank	-11.3264
FC	-11.3264
▁Freiheit	-11.3265
▁Auftrag	-11.3265
▁register	-11.3265
reib	-11.3266
▁Mc	-11.3266
▁DNA	-11.3266
▁experts	-11.3267
ējie	-11.3267
▁Savienībai	-11.3269
▁Market	-11.3269
kär	-11.3269
сон	-11.3271
veido	-11.3274
▁syystä	-11.3274
rischen	-11.3274
▁suk	-11.3275
▁täielik	-11.3276
▁sectors	-11.3277
▁entered	-11.3277
▁allgemeinen	-11.328
▁entitled	-11.3281
▁Indeed	-11.3281
ļiem	-11.3282
tēm	-11.3284
▁consequences	-11.3285
▁момент	-11.329
▁amžiaus	-11.3293
Schw	-11.3293
▁minema	-11.3294
▁wann	-11.3294
▁boy	-11.3295
▁procedūrą	-11.3296
▁международного	-11.3298
▁prognoz	-11.33
▁darbībām	-11.3301
▁kohaldada	-11.3301
▁meel	-11.3302
▁ametliku	-11.3302
▁metai	-11.3302
▁juurdepääsu	-11.3306
▁items	-11.3309
mmin	-11.331
uudessa	-11.3311
▁Generalsekretär	-11.3312
▁soodusta	-11.3312
▁izdarīt	-11.3313
▁minimi	-11.3313
loa	-11.3313
▁1784/2003	-11.3313
gesetz	-11.3313
▁notified	-11.3313
▁Bill	-11.3316
▁nädalas	-11.3317
▁suojelu	-11.3317
▁metodas	-11.3319
▁tänne	-11.3322
▁preparatas	-11.3322
palvelujen	-11.3323
ācijām	-11.3325
▁liittyviä	-11.3325
star	-11.3326
tingimuste	-11.3326
▁norint	-11.3326
▁patsiendi	-11.3326
oxy	-11.3327
▁yritys	-11.3327
▁susitarimu	-11.3327
▁adrese	-11.3327
hü	-11.3327
▁Ciprofloxacin	-11.3329
▁lielāku	-11.333
▁мисс	-11.333
reck	-11.3331
▁saying	-11.3332
▁Höchst	-11.3332
▁patent	-11.3333
tymis	-11.3334
▁tekee	-11.3335
PO	-11.3335
▁lisaks	-11.3336
▁supported	-11.3338
▁liberal	-11.3338
▁įstaigos	-11.3339
▁pööra	-11.3339
izācijas	-11.334
▁difference	-11.334
▁Anstieg	-11.3341
▁umfassende	-11.3343
▁ehdotus	-11.3344
kreatin	-11.3344
▁Пре	-11.3346
▁programą	-11.3347
▁Will	-11.3349
tub	-11.3351
▁publicēšanas	-11.3351
ņēmu	-11.3352
infarkt	-11.3352
▁мере	-11.3352
3,5	-11.3353
▁üldise	-11.3355
▁dāmas	-11.3357
▁phase	-11.3357
▁raam	-11.3358
▁Кром	-11.3358
▁traditional	-11.3359
▁betreffend	-11.3359
▁tappa	-11.336
▁dalyvauti	-11.336
varo	-11.336
▁angemessen	-11.3361
▁asenda	-11.3363
glyc	-11.3363
ologische	-11.3363
▁saame	-11.3364
▁baz	-11.3366
▁nacionalinės	-11.3366
▁Sache	-11.3367
key	-11.3369
▁laaja	-11.3369
▁giving	-11.3369
▁placed	-11.337
▁07	-11.337
pyr	-11.3371
▁täytäntöön	-11.3372
▁prekyba	-11.3374
maid	-11.3375
suun	-11.3375
▁drīkst	-11.3375
▁nepasi	-11.3377
▁hulgas	-11.3377
▁injekcijos	-11.3379
▁Produkte	-11.3379
▁открыт	-11.338
▁dauguma	-11.338
▁importēt	-11.338
▁geschlossen	-11.3381
▁püüd	-11.3382
thro	-11.3382
[...]
